{
  "version": "1.0",
  "truncation": null,
  "padding": null,
  "added_tokens": [
    {
      "id": 0,
      "content": "[PAD]",
      "single_word": false,
      "lstrip": false,
      "rstrip": false,
      "normalized": false,
      "special": true
    },
    {
      "id": 1,
      "content": "[UNK]",
      "single_word": false,
      "lstrip": false,
      "rstrip": false,
      "normalized": false,
      "special": true
    },
    {
      "id": 2,
      "content": "[CLS]",
      "single_word": false,
      "lstrip": false,
      "rstrip": false,
      "normalized": false,
      "special": true
    },
    {
      "id": 3,
      "content": "[SEP]",
      "single_word": false,
      "lstrip": false,
      "rstrip": false,
      "normalized": false,
      "special": true
    },
    {
      "id": 4,
      "content": "[MASK]",
      "single_word": false,
      "lstrip": false,
      "rstrip": false,
      "normalized": false,
      "special": true
    }
  ],
  "normalizer": null,
  "pre_tokenizer": {
    "type": "Whitespace"
  },
  "post_processor": null,
  "decoder": null,
  "model": {
    "type": "BPE",
    "dropout": null,
    "unk_token": "[UNK]",
    "continuing_subword_prefix": null,
    "end_of_word_suffix": null,
    "fuse_unk": false,
    "byte_fallback": false,
    "ignore_merges": false,
    "vocab": {
      "[PAD]": 0,
      "[UNK]": 1,
      "[CLS]": 2,
      "[SEP]": 3,
      "[MASK]": 4,
      "!": 5,
      "\"": 6,
      "#": 7,
      "$": 8,
      "%": 9,
      "&": 10,
      "'": 11,
      "(": 12,
      ")": 13,
      "*": 14,
      "+": 15,
      ",": 16,
      "-": 17,
      ".": 18,
      "/": 19,
      "0": 20,
      "1": 21,
      "2": 22,
      "3": 23,
      "4": 24,
      "5": 25,
      "6": 26,
      "7": 27,
      "8": 28,
      "9": 29,
      ":": 30,
      ";": 31,
      "<": 32,
      "=": 33,
      ">": 34,
      "?": 35,
      "@": 36,
      "A": 37,
      "B": 38,
      "C": 39,
      "D": 40,
      "E": 41,
      "F": 42,
      "G": 43,
      "H": 44,
      "I": 45,
      "J": 46,
      "K": 47,
      "L": 48,
      "M": 49,
      "N": 50,
      "O": 51,
      "P": 52,
      "Q": 53,
      "R": 54,
      "S": 55,
      "T": 56,
      "U": 57,
      "V": 58,
      "W": 59,
      "X": 60,
      "Y": 61,
      "Z": 62,
      "[": 63,
      "\\": 64,
      "]": 65,
      "_": 66,
      "a": 67,
      "b": 68,
      "c": 69,
      "d": 70,
      "e": 71,
      "f": 72,
      "g": 73,
      "h": 74,
      "i": 75,
      "j": 76,
      "k": 77,
      "l": 78,
      "m": 79,
      "n": 80,
      "o": 81,
      "p": 82,
      "q": 83,
      "r": 84,
      "s": 85,
      "t": 86,
      "u": 87,
      "v": 88,
      "w": 89,
      "x": 90,
      "y": 91,
      "z": 92,
      "{": 93,
      "|": 94,
      "~": 95,
      "£": 96,
      "§": 97,
      "«": 98,
      "°": 99,
      "´": 100,
      "»": 101,
      "Á": 102,
      "Å": 103,
      "Ç": 104,
      "É": 105,
      "Î": 106,
      "Ó": 107,
      "Ö": 108,
      "×": 109,
      "Ú": 110,
      "Ü": 111,
      "Þ": 112,
      "ß": 113,
      "à": 114,
      "á": 115,
      "â": 116,
      "ã": 117,
      "ä": 118,
      "å": 119,
      "æ": 120,
      "ç": 121,
      "è": 122,
      "é": 123,
      "ê": 124,
      "í": 125,
      "î": 126,
      "ï": 127,
      "ñ": 128,
      "ó": 129,
      "ô": 130,
      "ö": 131,
      "ø": 132,
      "ú": 133,
      "û": 134,
      "ü": 135,
      "ý": 136,
      "ā": 137,
      "ą": 138,
      "Ć": 139,
      "ć": 140,
      "Č": 141,
      "č": 142,
      "Đ": 143,
      "đ": 144,
      "ē": 145,
      "ė": 146,
      "ğ": 147,
      "Ġ": 148,
      "ī": 149,
      "ı": 150,
      "Ł": 151,
      "ł": 152,
      "ń": 153,
      "ņ": 154,
      "Ō": 155,
      "ō": 156,
      "ő": 157,
      "Ř": 158,
      "ř": 159,
      "Ś": 160,
      "Ş": 161,
      "ş": 162,
      "Š": 163,
      "š": 164,
      "ţ": 165,
      "ū": 166,
      "ż": 167,
      "Ž": 168,
      "ž": 169,
      "ǵ": 170,
      "ș": 171,
      "ʻ": 172,
      "ʿ": 173,
      "В": 174,
      "Г": 175,
      "Д": 176,
      "И": 177,
      "К": 178,
      "Л": 179,
      "О": 180,
      "П": 181,
      "С": 182,
      "Х": 183,
      "Ч": 184,
      "а": 185,
      "б": 186,
      "в": 187,
      "г": 188,
      "д": 189,
      "е": 190,
      "ж": 191,
      "з": 192,
      "и": 193,
      "й": 194,
      "к": 195,
      "л": 196,
      "м": 197,
      "н": 198,
      "о": 199,
      "п": 200,
      "р": 201,
      "с": 202,
      "т": 203,
      "у": 204,
      "х": 205,
      "ц": 206,
      "ч": 207,
      "ш": 208,
      "ы": 209,
      "ь": 210,
      "ю": 211,
      "я": 212,
      "ћ": 213,
      "Ա": 214,
      "։": 215,
      "א": 216,
      "ב": 217,
      "ג": 218,
      "ד": 219,
      "ה": 220,
      "ו": 221,
      "ח": 222,
      "ט": 223,
      "י": 224,
      "כ": 225,
      "ל": 226,
      "ם": 227,
      "מ": 228,
      "נ": 229,
      "ע": 230,
      "ק": 231,
      "ר": 232,
      "ש": 233,
      "ת": 234,
      "׳": 235,
      "״": 236,
      "آ": 237,
      "ا": 238,
      "ب": 239,
      "ث": 240,
      "ج": 241,
      "ح": 242,
      "خ": 243,
      "د": 244,
      "ر": 245,
      "س": 246,
      "ش": 247,
      "ط": 248,
      "ف": 249,
      "ق": 250,
      "ك": 251,
      "ل": 252,
      "م": 253,
      "ن": 254,
      "ه": 255,
      "و": 256,
      "ي": 257,
      "ی": 258,
      "ऊ": 259,
      "क": 260,
      "ख": 261,
      "च": 262,
      "ढ": 263,
      "द": 264,
      "न": 265,
      "य": 266,
      "र": 267,
      "श": 268,
      "ा": 269,
      "ि": 270,
      "ु": 271,
      "े": 272,
      "ौ": 273,
      "्": 274,
      "ḥ": 275,
      "ṃ": 276,
      "Ṛ": 277,
      "ṭ": 278,
      "‌": 279,
      "–": 280,
      "—": 281,
      "‘": 282,
      "’": 283,
      "“": 284,
      "”": 285,
      "„": 286,
      "†": 287,
      "…": 288,
      "⁠": 289,
      "₤": 290,
      "€": 291,
      "−": 292,
      "⋅": 293,
      "◯": 294,
      "☆": 295,
      "♪": 296,
      "う": 297,
      "げ": 298,
      "じ": 299,
      "た": 300,
      "つ": 301,
      "な": 302,
      "の": 303,
      "は": 304,
      "へ": 305,
      "ま": 306,
      "り": 307,
      "れ": 308,
      "ア": 309,
      "イ": 310,
      "エ": 311,
      "カ": 312,
      "ク": 313,
      "グ": 314,
      "ゴ": 315,
      "シ": 316,
      "ス": 317,
      "タ": 318,
      "チ": 319,
      "デ": 320,
      "フ": 321,
      "ミ": 322,
      "ャ": 323,
      "ョ": 324,
      "ラ": 325,
      "リ": 326,
      "ル": 327,
      "レ": 328,
      "ロ": 329,
      "ン": 330,
      "ー": 331,
      "三": 332,
      "中": 333,
      "九": 334,
      "元": 335,
      "全": 336,
      "動": 337,
      "區": 338,
      "口": 339,
      "君": 340,
      "大": 341,
      "天": 342,
      "岔": 343,
      "搜": 344,
      "教": 345,
      "星": 346,
      "月": 347,
      "未": 348,
      "来": 349,
      "杵": 350,
      "河": 351,
      "洞": 352,
      "流": 353,
      "游": 354,
      "火": 355,
      "疾": 356,
      "神": 357,
      "空": 358,
      "罩": 359,
      "西": 360,
      "走": 361,
      "魔": 362,
      "鼓": 363,
      "龙": 364,
      "래": 365,
      "를": 366,
      "미": 367,
      "전": 368,
      "진": 369,
      "한": 370,
      "향": 371,
      "！": 372,
      "＊": 373,
      "he": 374,
      "in": 375,
      "an": 376,
      "the": 377,
      "er": 378,
      "on": 379,
      "ed": 380,
      "at": 381,
      "or": 382,
      "en": 383,
      "ar": 384,
      "al": 385,
      "as": 386,
      "is": 387,
      "es": 388,
      "of": 389,
      "it": 390,
      "and": 391,
      "re": 392,
      "ic": 393,
      "ing": 394,
      "to": 395,
      "ou": 396,
      "ion": 397,
      "om": 398,
      "le": 399,
      "th": 400,
      "st": 401,
      "ent": 402,
      "il": 403,
      "am": 404,
      "was": 405,
      "ac": 406,
      "ol": 407,
      "19": 408,
      "ad": 409,
      "ur": 410,
      "se": 411,
      "for": 412,
      "ch": 413,
      "el": 414,
      "The": 415,
      "iv": 416,
      "ro": 417,
      "20": 418,
      "ir": 419,
      "ter": 420,
      "be": 421,
      "em": 422,
      "ly": 423,
      "id": 424,
      "un": 425,
      "ation": 426,
      "ig": 427,
      "ay": 428,
      "im": 429,
      "ct": 430,
      "ag": 431,
      "ot": 432,
      "by": 433,
      "ers": 434,
      "us": 435,
      "ce": 436,
      "lo": 437,
      "ith": 438,
      "ist": 439,
      "de": 440,
      "con": 441,
      "et": 442,
      "with": 443,
      "ber": 444,
      "rom": 445,
      "ab": 446,
      "res": 447,
      "ut": 448,
      "oun": 449,
      "op": 450,
      "wh": 451,
      "ov": 452,
      "In": 453,
      "com": 454,
      "ap": 455,
      "um": 456,
      "ri": 457,
      "that": 458,
      "est": 459,
      "art": 460,
      "all": 461,
      "sh": 462,
      "his": 463,
      "from": 464,
      "ul": 465,
      "ain": 466,
      "te": 467,
      "av": 468,
      "ian": 469,
      "ev": 470,
      "ow": 471,
      "He": 472,
      "ity": 473,
      "pl": 474,
      "ther": 475,
      "ate": 476,
      "ear": 477,
      "di": 478,
      "pro": 479,
      "cl": 480,
      "ew": 481,
      "ary": 482,
      "ak": 483,
      "ated": 484,
      "ish": 485,
      "igh": 486,
      "oc": 487,
      "Ch": 488,
      "ill": 489,
      "su": 490,
      "os": 491,
      "ex": 492,
      "ard": 493,
      "ld": 494,
      "pe": 495,
      "our": 496,
      "ort": 497,
      "ich": 498,
      "201": 499,
      "ies": 500,
      "ip": 501,
      "ere": 502,
      "tr": 503,
      "are": 504,
      "ia": 505,
      "if": 506,
      "au": 507,
      "ember": 508,
      "od": 509,
      "ong": 510,
      "af": 511,
      "man": 512,
      "were": 513,
      "als": 514,
      "gr": 515,
      "ment": 516,
      "her": 517,
      "end": 518,
      "St": 519,
      "ess": 520,
      "ight": 521,
      "mer": 522,
      "ant": 523,
      "had": 524,
      "Ar": 525,
      "ge": 526,
      "one": 527,
      "ub": 528,
      "ame": 529,
      "ork": 530,
      "qu": 531,
      "Un": 532,
      "It": 533,
      "out": 534,
      "comp": 535,
      "ass": 536,
      "ud": 537,
      "we": 538,
      "ep": 539,
      "pr": 540,
      "over": 541,
      "fir": 542,
      "ice": 543,
      "ound": 544,
      "ser": 545,
      "orn": 546,
      "ell": 547,
      "ive": 548,
      "ast": 549,
      "ction": 550,
      "up": 551,
      "ict": 552,
      "aw": 553,
      "ust": 554,
      "which": 555,
      "ang": 556,
      "port": 557,
      "ine": 558,
      "18": 559,
      "ial": 560,
      "rit": 561,
      "der": 562,
      "ec": 563,
      "amp": 564,
      "ue": 565,
      "ical": 566,
      "low": 567,
      "per": 568,
      "2019": 569,
      "ran": 570,
      "act": 571,
      "also": 572,
      "gh": 573,
      "has": 574,
      "but": 575,
      "hed": 576,
      "00": 577,
      "ok": 578,
      "og": 579,
      "ack": 580,
      "first": 581,
      "who": 582,
      "li": 583,
      "pres": 584,
      "She": 585,
      "ition": 586,
      "ke": 587,
      "off": 588,
      "An": 589,
      "bo": 590,
      "land": 591,
      "eral": 592,
      "not": 593,
      "ne": 594,
      "its": 595,
      "ational": 596,
      "part": 597,
      "own": 598,
      "ost": 599,
      "pol": 600,
      "ous": 601,
      "br": 602,
      "their": 603,
      "age": 604,
      "incl": 605,
      "she": 606,
      "ics": 607,
      "ele": 608,
      "work": 609,
      "ship": 610,
      "\".": 611,
      "whe": 612,
      "ater": 613,
      "ach": 614,
      "ivers": 615,
      "serv": 616,
      "Com": 617,
      "ire": 618,
      "ence": 619,
      "ave": 620,
      "du": 621,
      "iz": 622,
      "att": 623,
      "born": 624,
      "Mar": 625,
      "200": 626,
      "play": 627,
      "dr": 628,
      "ore": 629,
      "ount": 630,
      "Al": 631,
      "other": 632,
      "ug": 633,
      "been": 634,
      "ind": 635,
      "ord": 636,
      "198": 637,
      "199": 638,
      "ome": 639,
      "ace": 640,
      "\",": 641,
      "let": 642,
      "ubl": 643,
      "wo": 644,
      "ign": 645,
      "med": 646,
      "int": 647,
      "ree": 648,
      "ult": 649,
      "ie": 650,
      "ide": 651,
      "ans": 652,
      "sc": 653,
      "uring": 654,
      "ade": 655,
      "year": 656,
      "cho": 657,
      "fer": 658,
      "ret": 659,
      "after": 660,
      "app": 661,
      "ason": 662,
      "ough": 663,
      "this": 664,
      "ake": 665,
      "Le": 666,
      "mar": 667,
      "ased": 668,
      "team": 669,
      "ime": 670,
      "iversity": 671,
      "On": 672,
      "ile": 673,
      "ra": 674,
      "istr": 675,
      "bec": 676,
      "loc": 677,
      "uary": 678,
      "dis": 679,
      "me": 680,
      "ince": 681,
      "ited": 682,
      "Sh": 683,
      "sp": 684,
      "ally": 685,
      "ould": 686,
      "ampion": 687,
      "As": 688,
      "ball": 689,
      "rec": 690,
      "ure": 691,
      "ident": 692,
      "ations": 693,
      "ouse": 694,
      "includ": 695,
      "Par": 696,
      "air": 697,
      "des": 698,
      "str": 699,
      "comm": 700,
      "University": 701,
      "urn": 702,
      "spe": 703,
      "ilm": 704,
      "cond": 705,
      "fe": 706,
      "tern": 707,
      "fin": 708,
      "Ro": 709,
      "co": 710,
      "two": 711,
      "vi": 712,
      "ann": 713,
      "season": 714,
      "have": 715,
      "gan": 716,
      "ator": 717,
      "col": 718,
      "ican": 719,
      "outh": 720,
      "New": 721,
      "ates": 722,
      "reg": 723,
      "),": 724,
      "ik": 725,
      "they": 726,
      "ath": 727,
      "Af": 728,
      "Re": 729,
      "bu": 730,
      "ople": 731,
      "cted": 732,
      "Sen": 733,
      "ph": 734,
      "oot": 735,
      "ens": 736,
      "kn": 737,
      "ry": 738,
      "old": 739,
      "form": 740,
      ").": 741,
      "16": 742,
      "men": 743,
      "ctor": 744,
      "able": 745,
      "Dec": 746,
      "gen": 747,
      "orld": 748,
      "ces": 749,
      "ived": 750,
      "event": 751,
      "December": 752,
      "This": 753,
      "iss": 754,
      "min": 755,
      "En": 756,
      "195": 757,
      "my": 758,
      "any": 759,
      "cr": 760,
      "ollow": 761,
      "ced": 762,
      "film": 763,
      "ters": 764,
      "che": 765,
      "les": 766,
      "ory": 767,
      "ite": 768,
      "chool": 769,
      "17": 770,
      "cur": 771,
      "sing": 772,
      "cont": 773,
      "Jo": 774,
      "led": 775,
      "new": 776,
      "Col": 777,
      "ished": 778,
      "197": 779,
      "mp": 780,
      "ely": 781,
      "ah": 782,
      "ail": 783,
      "ement": 784,
      "pos": 785,
      "ve": 786,
      "pt": 787,
      "ampionship": 788,
      "into": 789,
      "usic": 790,
      "Jan": 791,
      "vis": 792,
      "about": 793,
      "present": 794,
      "publ": 795,
      "time": 796,
      "194": 797,
      "where": 798,
      "follow": 799,
      "ood": 800,
      "iver": 801,
      "only": 802,
      "Comm": 803,
      "son": 804,
      "unt": 805,
      "under": 806,
      "oint": 807,
      "made": 808,
      "sev": 809,
      "cer": 810,
      "during": 811,
      "ib": 812,
      "ob": 813,
      "ond": 814,
      "ament": 815,
      "second": 816,
      "offic": 817,
      "spec": 818,
      "found": 819,
      "ions": 820,
      "192": 821,
      "2020": 822,
      "weight": 823,
      "Amer": 824,
      "az": 825,
      "num": 826,
      "pre": 827,
      "ty": 828,
      "ten": 829,
      "him": 830,
      "rele": 831,
      "ild": 832,
      "polit": 833,
      "Pr": 834,
      "house": 835,
      "193": 836,
      "ards": 837,
      "overn": 838,
      "ional": 839,
      "196": 840,
      "ever": 841,
      "compet": 842,
      "ootball": 843,
      "ton": 844,
      "Con": 845,
      "lif": 846,
      "12": 847,
      "ier": 848,
      "Th": 849,
      "since": 850,
      "then": 851,
      "bet": 852,
      "again": 853,
      "sur": 854,
      "United": 855,
      "ai": 856,
      "aj": 857,
      "main": 858,
      "ral": 859,
      "song": 860,
      "well": 861,
      "ance": 862,
      "used": 863,
      "January": 864,
      "ase": 865,
      "10": 866,
      "Brit": 867,
      "inter": 868,
      "ick": 869,
      "amil": 870,
      "For": 871,
      "mov": 872,
      "orth": 873,
      "Arab": 874,
      "ied": 875,
      "became": 876,
      "some": 877,
      "aid": 878,
      "ix": 879,
      "more": 880,
      "held": 881,
      "Day": 882,
      "Pro": 883,
      "Sy": 884,
      "ather": 885,
      "call": 886,
      "olog": 887,
      "dire": 888,
      "Eng": 889,
      "par": 890,
      "ts": 891,
      "them": 892,
      "oup": 893,
      "people": 894,
      "election": 895,
      "Gr": 896,
      "io": 897,
      "eng": 898,
      "ities": 899,
      "four": 900,
      "would": 901,
      "row": 902,
      "fore": 903,
      "istrict": 904,
      "do": 905,
      "ior": 906,
      "sel": 907,
      "years": 908,
      "At": 909,
      "later": 910,
      "ver": 911,
      "inn": 912,
      "ague": 913,
      "oci": 914,
      "known": 915,
      "Jun": 916,
      "cent": 917,
      "ren": 918,
      "uc": 919,
      "udi": 920,
      "way": 921,
      "inv": 922,
      "number": 923,
      "overnment": 924,
      "Ger": 925,
      "World": 926,
      "writ": 927,
      "alb": 928,
      "sup": 929,
      "Jew": 930,
      "cre": 931,
      "ean": 932,
      "ina": 933,
      "omen": 934,
      "urch": 935,
      "ween": 936,
      "British": 937,
      "day": 938,
      "ative": 939,
      "evict": 940,
      "After": 941,
      "may": 942,
      "Sum": 943,
      "music": 944,
      "rece": 945,
      "including": 946,
      "mpics": 947,
      "cess": 948,
      "ss": 949,
      "American": 950,
      "car": 951,
      "ef": 952,
      "lar": 953,
      "war": 954,
      "ating": 955,
      "stit": 956,
      "15": 957,
      "Aug": 958,
      "member": 959,
      "won": 960,
      "sub": 961,
      "13": 962,
      "top": 963,
      "prov": 964,
      "when": 965,
      "Oly": 966,
      "fl": 967,
      "rel": 968,
      "ings": 969,
      "between": 970,
      "August": 971,
      "Ju": 972,
      "Nov": 973,
      "Pe": 974,
      "famil": 975,
      "lead": 976,
      "ivis": 977,
      "Summer": 978,
      "Sc": 979,
      "list": 980,
      "produ": 981,
      "je": 982,
      "lish": 983,
      "aly": 984,
      "ames": 985,
      "Reg": 986,
      "against": 987,
      "name": 988,
      "sy": 989,
      "will": 990,
      "ilit": 991,
      "served": 992,
      "March": 993,
      "ently": 994,
      "being": 995,
      "2018": 996,
      "rough": 997,
      "vel": 998,
      "They": 999,
      "cy": 1000,
      "ask": 1001,
      "ese": 1002,
      "shire": 1003,
      "curr": 1004,
      "Is": 1005,
      "most": 1006,
      "no": 1007,
      "arr": 1008,
      "Joh": 1009,
      "following": 1010,
      "until": 1011,
      "gu": 1012,
      "leg": 1013,
      "Championship": 1014,
      "ale": 1015,
      "album": 1016,
      "Pl": 1017,
      "use": 1018,
      "three": 1019,
      "family": 1020,
      "Pol": 1021,
      "ful": 1022,
      "mat": 1023,
      "released": 1024,
      ".\"": 1025,
      "there": 1026,
      "ered": 1027,
      "report": 1028,
      "while": 1029,
      "trans": 1030,
      "book": 1031,
      "November": 1032,
      "ons": 1033,
      "ives": 1034,
      "cons": 1035,
      "group": 1036,
      "Olympics": 1037,
      "Apr": 1038,
      "Car": 1039,
      "Se": 1040,
      "go": 1041,
      "iel": 1042,
      "la": 1043,
      "tit": 1044,
      "emb": 1045,
      "police": 1046,
      "July": 1047,
      "state": 1048,
      "ude": 1049,
      "set": 1050,
      "uss": 1051,
      "ept": 1052,
      "Aust": 1053,
      "Sp": 1054,
      "ric": 1055,
      "said": 1056,
      "organ": 1057,
      "represent": 1058,
      "add": 1059,
      "iment": 1060,
      "oper": 1061,
      "several": 1062,
      "Ad": 1063,
      "National": 1064,
      "mon": 1065,
      "ank": 1066,
      "cour": 1067,
      "side": 1068,
      "ted": 1069,
      "head": 1070,
      "through": 1071,
      "many": 1072,
      "feat": 1073,
      "ission": 1074,
      "Syri": 1075,
      "June": 1076,
      "April": 1077,
      "Oc": 1078,
      "Rep": 1079,
      "government": 1080,
      "alk": 1081,
      "tow": 1082,
      "aim": 1083,
      "yal": 1084,
      "amed": 1085,
      "before": 1086,
      "Ge": 1087,
      "ft": 1088,
      "hel": 1089,
      "key": 1090,
      "attack": 1091,
      "Cl": 1092,
      "Fran": 1093,
      "May": 1094,
      "Ph": 1095,
      "tober": 1096,
      "lege": 1097,
      "auth": 1098,
      "October": 1099,
      "14": 1100,
      "Be": 1101,
      "His": 1102,
      "school": 1103,
      "ors": 1104,
      "dep": 1105,
      "rib": 1106,
      "competed": 1107,
      "can": 1108,
      "uen": 1109,
      "ual": 1110,
      "ress": 1111,
      "bel": 1112,
      "coun": 1113,
      "tain": 1114,
      "ward": 1115,
      "ari": 1116,
      "class": 1117,
      "ific": 1118,
      "John": 1119,
      "Eur": 1120,
      "Fe": 1121,
      "ck": 1122,
      "ff": 1123,
      "ofess": 1124,
      "ried": 1125,
      "ounty": 1126,
      "appear": 1127,
      "ivision": 1128,
      "near": 1129,
      "prom": 1130,
      "ony": 1131,
      "adu": 1132,
      "desc": 1133,
      "eviction": 1134,
      "Part": 1135,
      "River": 1136,
      "Sept": 1137,
      "US": 1138,
      "back": 1139,
      "based": 1140,
      "po": 1141,
      "hen": 1142,
      "studi": 1143,
      "erson": 1144,
      "plac": 1145,
      "State": 1146,
      "series": 1147,
      "located": 1148,
      "ternational": 1149,
      "Dem": 1150,
      "Gu": 1151,
      "Mo": 1152,
      "kill": 1153,
      "red": 1154,
      "rat": 1155,
      "refer": 1156,
      "ized": 1157,
      "September": 1158,
      "Can": 1159,
      "War": 1160,
      "acc": 1161,
      "ures": 1162,
      "char": 1163,
      "ular": 1164,
      "League": 1165,
      "augh": 1166,
      "gram": 1167,
      "received": 1168,
      "Ne": 1169,
      "band": 1170,
      "ister": 1171,
      "2016": 1172,
      "ilitary": 1173,
      "Gen": 1174,
      "lin": 1175,
      "so": 1176,
      "ital": 1177,
      "reat": 1178,
      "than": 1179,
      "ents": 1180,
      "igin": 1181,
      "States": 1182,
      "Senator": 1183,
      "Bo": 1184,
      "South": 1185,
      "ext": 1186,
      "2017": 1187,
      "try": 1188,
      "final": 1189,
      "ject": 1190,
      "Port": 1191,
      "bro": 1192,
      "hist": 1193,
      "order": 1194,
      "place": 1195,
      "died": 1196,
      "embers": 1197,
      "Europ": 1198,
      "Ac": 1199,
      "Cent": 1200,
      "football": 1201,
      "jo": 1202,
      "ash": 1203,
      "ism": 1204,
      "Ind": 1205,
      "aint": 1206,
      "published": 1207,
      "Min": 1208,
      "Tur": 1209,
      "mb": 1210,
      "ured": 1211,
      "imes": 1212,
      "open": 1213,
      "000": 1214,
      "ology": 1215,
      "support": 1216,
      "alth": 1217,
      "omin": 1218,
      "start": 1219,
      "ott": 1220,
      "ended": 1221,
      "contin": 1222,
      "weightlif": 1223,
      "called": 1224,
      "weightlifter": 1225,
      "West": 1226,
      "ling": 1227,
      "women": 1228,
      "ref": 1229,
      "devel": 1230,
      "thern": 1231,
      "aff": 1232,
      "included": 1233,
      "general": 1234,
      "Democ": 1235,
      "Dep": 1236,
      "run": 1237,
      "sm": 1238,
      "iving": 1239,
      "such": 1240,
      "gradu": 1241,
      "record": 1242,
      "single": 1243,
      "Austral": 1244,
      "city": 1245,
      "ham": 1246,
      "members": 1247,
      "six": 1248,
      "icip": 1249,
      "suc": 1250,
      "build": 1251,
      "Her": 1252,
      "Mid": 1253,
      "School": 1254,
      "Tr": 1255,
      "York": 1256,
      "face": 1257,
      "origin": 1258,
      "took": 1259,
      "left": 1260,
      "former": 1261,
      "liament": 1262,
      "bruary": 1263,
      "February": 1264,
      "II": 1265,
      "ped": 1266,
      "reet": 1267,
      "ley": 1268,
      "ilt": 1269,
      "emp": 1270,
      "osp": 1271,
      "General": 1272,
      "Democrat": 1273,
      "ais": 1274,
      "district": 1275,
      "ek": 1276,
      "fun": 1277,
      "ana": 1278,
      "arm": 1279,
      "played": 1280,
      "Ass": 1281,
      "stru": 1282,
      "stitut": 1283,
      "Li": 1284,
      "ner": 1285,
      "resident": 1286,
      "worked": 1287,
      "College": 1288,
      "describ": 1289,
      "develop": 1290,
      "Cork": 1291,
      "hy": 1292,
      "sol": 1293,
      "water": 1294,
      "ze": 1295,
      "began": 1296,
      "aged": 1297,
      "death": 1298,
      "estab": 1299,
      "teams": 1300,
      "species": 1301,
      "ield": 1302,
      "did": 1303,
      "ica": 1304,
      "include": 1305,
      "11": 1306,
      "CA": 1307,
      "North": 1308,
      "fac": 1309,
      "ron": 1310,
      "erv": 1311,
      "190": 1312,
      "both": 1313,
      "igned": 1314,
      "appoint": 1315,
      "local": 1316,
      "Royal": 1317,
      "1952": 1318,
      "position": 1319,
      "County": 1320,
      "Lac": 1321,
      "clo": 1322,
      "could": 1323,
      "dem": 1324,
      "ury": 1325,
      "exp": 1326,
      "2015": 1327,
      "return": 1328,
      "author": 1329,
      "0s": 1330,
      "25": 1331,
      "Ex": 1332,
      "cap": 1333,
      "ffer": 1334,
      "hand": 1335,
      "na": 1336,
      "nor": 1337,
      "ama": 1338,
      "ists": 1339,
      "built": 1340,
      "English": 1341,
      "30": 1342,
      "Man": 1343,
      "Or": 1344,
      "last": 1345,
      "right": 1346,
      "ician": 1347,
      "ildr": 1348,
      "ired": 1349,
      "avy": 1350,
      "program": 1351,
      "club": 1352,
      "audi": 1353,
      "grap": 1354,
      "angu": 1355,
      "mark": 1356,
      "rench": 1357,
      "continu": 1358,
      "24": 1359,
      "French": 1360,
      "Russ": 1361,
      "lit": 1362,
      "inc": 1363,
      "claim": 1364,
      "aking": 1365,
      "Army": 1366,
      "eller": 1367,
      "view": 1368,
      "Party": 1369,
      "ildren": 1370,
      "City": 1371,
      "Ed": 1372,
      "how": 1373,
      "home": 1374,
      "mid": 1375,
      "bert": 1376,
      "umb": 1377,
      "Chr": 1378,
      "activ": 1379,
      "public": 1380,
      "..": 1381,
      "Lond": 1382,
      "Sw": 1383,
      "hav": 1384,
      "ien": 1385,
      "ler": 1386,
      "law": 1387,
      "same": 1388,
      "ys": 1389,
      "road": 1390,
      "ross": 1391,
      "coming": 1392,
      "And": 1393,
      "politician": 1394,
      "moved": 1395,
      "self": 1396,
      "Republ": 1397,
      "Geor": 1398,
      "London": 1399,
      "23": 1400,
      "Division": 1401,
      "Football": 1402,
      "went": 1403,
      "ins": 1404,
      "aster": 1405,
      "stud": 1406,
      "rest": 1407,
      "area": 1408,
      "profess": 1409,
      "president": 1410,
      "Bel": 1411,
      "ada": 1412,
      "children": 1413,
      "ivil": 1414,
      "ird": 1415,
      "ung": 1416,
      "ages": 1417,
      "resp": 1418,
      "ajor": 1419,
      "German": 1420,
      "Indian": 1421,
      "Mal": 1422,
      "ae": 1423,
      "ey": 1424,
      "point": 1425,
      "ern": 1426,
      "ised": 1427,
      "read": 1428,
      "oman": 1429,
      "ford": 1430,
      "ause": 1431,
      "ountain": 1432,
      "Jewish": 1433,
      "Am": 1434,
      "During": 1435,
      "Lake": 1436,
      "Que": 1437,
      "bre": 1438,
      "cil": 1439,
      "long": 1440,
      "military": 1441,
      "rid": 1442,
      "vo": 1443,
      "along": 1444,
      "company": 1445,
      "lie": 1446,
      "ministr": 1447,
      "title": 1448,
      "Co": 1449,
      "House": 1450,
      "Wh": 1451,
      "post": 1452,
      "vot": 1453,
      "west": 1454,
      "iven": 1455,
      "ribut": 1456,
      "qual": 1457,
      "ially": 1458,
      "lands": 1459,
      "vious": 1460,
      "promot": 1461,
      "European": 1462,
      "El": 1463,
      "Nor": 1464,
      "ged": 1465,
      "get": 1466,
      "ient": 1467,
      "ning": 1468,
      "yn": 1469,
      "ines": 1470,
      "anc": 1471,
      "debut": 1472,
      "early": 1473,
      "ock": 1474,
      "ified": 1475,
      "188": 1476,
      "Ste": 1477,
      "Te": 1478,
      "fel": 1479,
      "father": 1480,
      "ger": 1481,
      "round": 1482,
      "ually": 1483,
      "around": 1484,
      "ald": 1485,
      "ise": 1486,
      "itte": 1487,
      "ility": 1488,
      "church": 1489,
      "result": 1490,
      "commun": 1491,
      "political": 1492,
      "join": 1493,
      "appointed": 1494,
      "field": 1495,
      "light": 1496,
      "langu": 1497,
      "named": 1498,
      "ru": 1499,
      "era": 1500,
      "formed": 1501,
      "ided": 1502,
      "dec": 1503,
      "ocial": 1504,
      "ourn": 1505,
      "ants": 1506,
      "press": 1507,
      "Comp": 1508,
      "Mich": 1509,
      "dom": 1510,
      "vill": 1511,
      "ales": 1512,
      "alian": 1513,
      "emen": 1514,
      "def": 1515,
      "Parliament": 1516,
      "written": 1517,
      "placed": 1518,
      "Coun": 1519,
      "ched": 1520,
      "each": 1521,
      "national": 1522,
      "uk": 1523,
      "ven": 1524,
      "world": 1525,
      "ural": 1526,
      "There": 1527,
      "cept": 1528,
      "ety": 1529,
      "Art": 1530,
      "Italian": 1531,
      "ording": 1532,
      "housem": 1533,
      "success": 1534,
      "From": 1535,
      "Sup": 1536,
      "Tom": 1537,
      "fact": 1538,
      "iness": 1539,
      "ali": 1540,
      "requ": 1541,
      "tot": 1542,
      "come": 1543,
      "2014": 1544,
      "Jews": 1545,
      "People": 1546,
      "killed": 1547,
      "building": 1548,
      "Cup": 1549,
      "District": 1550,
      "Ir": 1551,
      "Pal": 1552,
      "lim": 1553,
      "ned": 1554,
      "north": 1555,
      "ata": 1556,
      "beg": 1557,
      "ides": 1558,
      "contr": 1559,
      "show": 1560,
      "aft": 1561,
      "que": 1562,
      "duc": 1563,
      "All": 1564,
      "town": 1565,
      "described": 1566,
      "President": 1567,
      "care": 1568,
      "oon": 1569,
      "test": 1570,
      "ves": 1571,
      "Indi": 1572,
      "elected": 1573,
      "life": 1574,
      "Turkey": 1575,
      "aur": 1576,
      "high": 1577,
      "lab": 1578,
      "line": 1579,
      "ster": 1580,
      "championship": 1581,
      "ained": 1582,
      "earch": 1583,
      "viol": 1584,
      "surv": 1585,
      "director": 1586,
      "Syrian": 1587,
      "Portug": 1588,
      "Christ": 1589,
      "Me": 1590,
      "Mon": 1591,
      "Sec": 1592,
      "UK": 1593,
      "fur": 1594,
      "five": 1595,
      "ium": 1596,
      "ks": 1597,
      "major": 1598,
      "educ": 1599,
      "enant": 1600,
      "issu": 1601,
      "rew": 1602,
      "stem": 1603,
      "station": 1604,
      "usiness": 1605,
      "loy": 1606,
      "Char": 1607,
      "announ": 1608,
      "previous": 1609,
      "addition": 1610,
      "21": 1611,
      "Educ": 1612,
      "Iran": 1613,
      "iev": 1614,
      "ience": 1615,
      "mod": 1616,
      "pop": 1617,
      "rich": 1618,
      "win": 1619,
      "another": 1620,
      "utenant": 1621,
      "what": 1622,
      "189": 1623,
      "works": 1624,
      "colle": 1625,
      "ible": 1626,
      "currently": 1627,
      "country": 1628,
      "small": 1629,
      "ospital": 1630,
      "ittee": 1631,
      "22": 1632,
      "Bar": 1633,
      "Cast": 1634,
      "Og": 1635,
      "Sch": 1636,
      "Saudi": 1637,
      "Yemen": 1638,
      "best": 1639,
      "cover": 1640,
      "ious": 1641,
      "nomin": 1642,
      "pass": 1643,
      "enn": 1644,
      "omb": 1645,
      "ette": 1646,
      "ower": 1647,
      "illion": 1648,
      "exper": 1649,
      "ments": 1650,
      "ending": 1651,
      "serving": 1652,
      "large": 1653,
      "No": 1654,
      "ax": 1655,
      "came": 1656,
      "camp": 1657,
      "har": 1658,
      "put": 1659,
      "ison": 1660,
      "third": 1661,
      "ached": 1662,
      "complet": 1663,
      "award": 1664,
      "ociation": 1665,
      "Har": 1666,
      "King": 1667,
      "Mor": 1668,
      "cit": 1669,
      "dist": 1670,
      "ij": 1671,
      "mit": 1672,
      "person": 1673,
      "vent": 1674,
      "ering": 1675,
      "reen": 1676,
      "remain": 1677,
      "oung": 1678,
      "International": 1679,
      "reported": 1680,
      "Democratic": 1681,
      "Saint": 1682,
      "ble": 1683,
      "cas": 1684,
      "given": 1685,
      "rac": 1686,
      "ats": 1687,
      "sec": 1688,
      "champion": 1689,
      "ively": 1690,
      "2012": 1691,
      "ife": 1692,
      "ctions": 1693,
      "2008": 1694,
      "Senate": 1695,
      "Senior": 1696,
      "Hamp": 1697,
      "Pik": 1698,
      "cast": 1699,
      "hal": 1700,
      "iam": 1701,
      "tar": 1702,
      "uch": 1703,
      "vers": 1704,
      "these": 1705,
      "stand": 1706,
      "chn": 1707,
      "rop": 1708,
      "room": 1709,
      "uses": 1710,
      "ically": 1711,
      "lower": 1712,
      "itions": 1713,
      "board": 1714,
      "village": 1715,
      "Cour": 1716,
      "Dr": 1717,
      "dle": 1718,
      "now": 1719,
      "ose": 1720,
      "sk": 1721,
      "ature": 1722,
      "orp": 1723,
      "ander": 1724,
      "chart": 1725,
      "particip": 1726,
      "Canada": 1727,
      "100": 1728,
      "Mus": 1729,
      "Tex": 1730,
      "lake": 1731,
      "pur": 1732,
      "vari": 1733,
      "differ": 1734,
      "like": 1735,
      "ought": 1736,
      "married": 1737,
      "Park": 1738,
      "ches": 1739,
      "Commission": 1740,
      "officers": 1741,
      "match": 1742,
      "started": 1743,
      "total": 1744,
      "India": 1745,
      "Hampshire": 1746,
      "26": 1747,
      "One": 1748,
      "When": 1749,
      "bur": 1750,
      "civil": 1751,
      "just": 1752,
      "rad": 1753,
      "sen": 1754,
      "adem": 1755,
      "ots": 1756,
      "deg": 1757,
      "project": 1758,
      "2010": 1759,
      "party": 1760,
      "letree": 1761,
      "because": 1762,
      "inning": 1763,
      "brother": 1764,
      "Ogletree": 1765,
      "Jean": 1766,
      "Ru": 1767,
      "ms": 1768,
      "night": 1769,
      "next": 1770,
      "ris": 1771,
      "sent": 1772,
      "site": 1773,
      "hes": 1774,
      "ene": 1775,
      "ars": 1776,
      "ices": 1777,
      "semb": 1778,
      "conom": 1779,
      "ody": 1780,
      "service": 1781,
      "founded": 1782,
      "England": 1783,
      "very": 1784,
      "invest": 1785,
      "created": 1786,
      "returned": 1787,
      "professional": 1788,
      "joined": 1789,
      "Texas": 1790,
      "Ab": 1791,
      "Cap": 1792,
      "De": 1793,
      "We": 1794,
      "den": 1795,
      "daugh": 1796,
      "gun": 1797,
      "ha": 1798,
      "iod": 1799,
      "lack": 1800,
      "mot": 1801,
      "met": 1802,
      "anish": 1803,
      "ange": 1804,
      "ately": 1805,
      "ality": 1806,
      "isl": 1807,
      "ste": 1808,
      "uty": 1809,
      "ries": 1810,
      "pect": 1811,
      "2013": 1812,
      "rank": 1813,
      "region": 1814,
      "depend": 1815,
      "charac": 1816,
      "continued": 1817,
      "having": 1818,
      "Education": 1819,
      "50": 1820,
      "FC": 1821,
      "Will": 1822,
      "business": 1823,
      "ca": 1824,
      "count": 1825,
      "due": 1826,
      "few": 1827,
      "rain": 1828,
      "uel": 1829,
      "wro": 1830,
      "zer": 1831,
      "eded": 1832,
      "arch": 1833,
      "entered": 1834,
      "los": 1835,
      "ovel": 1836,
      "short": 1837,
      "week": 1838,
      "retary": 1839,
      "Syria": 1840,
      "Phil": 1841,
      "history": 1842,
      "wrote": 1843,
      "29": 1844,
      "Dav": 1845,
      "gy": 1846,
      "hip": 1847,
      "hold": 1848,
      "pri": 1849,
      "sim": 1850,
      "ting": 1851,
      "yle": 1852,
      "ared": 1853,
      "ille": 1854,
      "olv": 1855,
      "Church": 1856,
      "ours": 1857,
      "overall": 1858,
      "ief": 1859,
      "represented": 1860,
      "lieutenant": 1861,
      "announced": 1862,
      "East": 1863,
      "Good": 1864,
      "How": 1865,
      "Res": 1866,
      "Sk": 1867,
      "bor": 1868,
      "case": 1869,
      "less": 1870,
      "mass": 1871,
      "million": 1872,
      "turn": 1873,
      "times": 1874,
      "uge": 1875,
      "ream": 1876,
      "role": 1877,
      "imin": 1878,
      "constit": 1879,
      "ution": 1880,
      "artment": 1881,
      "track": 1882,
      "regiment": 1883,
      "formation": 1884,
      "directed": 1885,
      "produced": 1886,
      "system": 1887,
      "laun": 1888,
      "organiz": 1889,
      "Acc": 1890,
      "Department": 1891,
      "fellow": 1892,
      "language": 1893,
      "Council": 1894,
      "Air": 1895,
      "Jer": 1896,
      "Jap": 1897,
      "Lou": 1898,
      "Music": 1899,
      "Rev": 1900,
      "San": 1901,
      "dam": 1902,
      "flo": 1903,
      "pat": 1904,
      "sport": 1905,
      "south": 1906,
      "international": 1907,
      "astern": 1908,
      "lect": 1909,
      "story": 1910,
      "among": 1911,
      "acher": 1912,
      "constru": 1913,
      "research": 1914,
      "Chin": 1915,
      "ource": 1916,
      "manag": 1917,
      "Street": 1918,
      "oney": 1919,
      "izens": 1920,
      "meet": 1921,
      "Championships": 1922,
      "France": 1923,
      "Australia": 1924,
      "survived": 1925,
      "Court": 1926,
      "Japan": 1927,
      "28": 1928,
      "Che": 1929,
      "Hen": 1930,
      "Med": 1931,
      "Per": 1932,
      "ba": 1933,
      "game": 1934,
      "ko": 1935,
      "sw": 1936,
      "sou": 1937,
      "vict": 1938,
      "ories": 1939,
      "allow": 1940,
      "section": 1941,
      "forces": 1942,
      "even": 1943,
      "anti": 1944,
      "compan": 1945,
      "ailed": 1946,
      "visit": 1947,
      "special": 1948,
      "fourth": 1949,
      "fund": 1950,
      "Republican": 1951,
      "points": 1952,
      "promoted": 1953,
      "According": 1954,
      "Lov": 1955,
      "Ox": 1956,
      "Sing": 1957,
      "bi": 1958,
      "gest": 1959,
      "ić": 1960,
      "mult": 1961,
      "novel": 1962,
      "ple": 1963,
      "tle": 1964,
      "ón": 1965,
      "ara": 1966,
      "tour": 1967,
      "olic": 1968,
      "chang": 1969,
      "China": 1970,
      "mann": 1971,
      "awards": 1972,
      "Ang": 1973,
      "Leg": 1974,
      "Thom": 1975,
      "month": 1976,
      "course": 1977,
      "help": 1978,
      "Central": 1979,
      "Australian": 1980,
      "sembly": 1981,
      "investig": 1982,
      "--": 1983,
      "Cath": 1984,
      "cle": 1985,
      "crit": 1986,
      "fif": 1987,
      "late": 1988,
      "mo": 1989,
      "take": 1990,
      "young": 1991,
      "ini": 1992,
      "theast": 1993,
      "ense": 1994,
      "esh": 1995,
      "irang": 1996,
      "log": 1997,
      "Inc": 1998,
      "artist": 1999,
      "tele": 2000,
      "avel": 2001,
      "2011": 2002,
      "quar": 2003,
      "Italy": 2004,
      "period": 2005,
      "player": 2006,
      "Committee": 2007,
      "surface": 2008,
      "elections": 2009,
      "useum": 2010,
      "establish": 2011,
      "Russia": 2012,
      "liter": 2013,
      "(\"": 2014,
      "27": 2015,
      "Don": 2016,
      "La": 2017,
      "Mart": 2018,
      "Qu": 2019,
      "Wil": 2020,
      "bal": 2021,
      "body": 2022,
      "down": 2023,
      "econom": 2024,
      "fri": 2025,
      "foc": 2026,
      "host": 2027,
      "lished": 2028,
      "nia": 2029,
      "woman": 2030,
      "inj": 2031,
      "ery": 2032,
      "atives": 2033,
      "ena": 2034,
      "lex": 2035,
      "stated": 2036,
      "become": 2037,
      "uman": 2038,
      "ians": 2039,
      "proper": 2040,
      "ify": 2041,
      "working": 2042,
      "indust": 2043,
      "genus": 2044,
      "icket": 2045,
      "century": 2046,
      "involv": 2047,
      "asket": 2048,
      "featured": 2049,
      "Moirang": 2050,
      "histor": 2051,
      "established": 2052,
      "housemates": 2053,
      "Irish": 2054,
      "nominated": 2055,
      "daughter": 2056,
      "constituen": 2057,
      "Thomas": 2058,
      "Ath": 2059,
      "Horn": 2060,
      "Kar": 2061,
      "Kur": 2062,
      "Mir": 2063,
      "Sal": 2064,
      "Wood": 2065,
      "base": 2066,
      "got": 2067,
      "hon": 2068,
      "ll": 2069,
      "mi": 2070,
      "rol": 2071,
      "sess": 2072,
      "sign": 2073,
      "ane": 2074,
      "ert": 2075,
      "tourn": 2076,
      "league": 2077,
      "ival": 2078,
      "idae": 2079,
      "agre": 2080,
      "ulation": 2081,
      "attended": 2082,
      "indo": 2083,
      "wood": 2084,
      "lock": 2085,
      "Polit": 2086,
      "consid": 2087,
      "George": 2088,
      "further": 2089,
      "awarded": 2090,
      "friend": 2091,
      "Athlet": 2092,
      "tournament": 2093,
      "\")": 2094,
      "31": 2095,
      "Bill": 2096,
      "Cam": 2097,
      "Des": 2098,
      "Lu": 2099,
      "Mad": 2100,
      "Mountain": 2101,
      "Not": 2102,
      "Serv": 2103,
      "bomb": 2104,
      "iet": 2105,
      "king": 2106,
      "mother": 2107,
      "rd": 2108,
      "sit": 2109,
      "tes": 2110,
      "za": 2111,
      "itar": 2112,
      "reached": 2113,
      "street": 2114,
      "using": 2115,
      "concer": 2116,
      "ump": 2117,
      "aining": 2118,
      "compos": 2119,
      "plays": 2120,
      "1999": 2121,
      "Shire": 2122,
      "fect": 2123,
      "engine": 2124,
      "ification": 2125,
      "onym": 2126,
      "refuge": 2127,
      "claimed": 2128,
      "activities": 2129,
      "completed": 2130,
      "half": 2131,
      "degree": 2132,
      "character": 2133,
      "CE": 2134,
      "Do": 2135,
      "Ha": 2136,
      "High": 2137,
      "Ke": 2138,
      "Mun": 2139,
      "Navy": 2140,
      "Sag": 2141,
      "crow": 2142,
      "hit": 2143,
      "hib": 2144,
      "ming": 2145,
      "nat": 2146,
      "sum": 2147,
      "saw": 2148,
      "tor": 2149,
      "ère": 2150,
      "eds": 2151,
      "oration": 2152,
      "rem": 2153,
      "oud": 2154,
      "fort": 2155,
      "These": 2156,
      "ids": 2157,
      "igan": 2158,
      "without": 2159,
      "Institut": 2160,
      "ript": 2161,
      "pec": 2162,
      "aching": 2163,
      "2007": 2164,
      "1982": 2165,
      "1983": 2166,
      "1987": 2167,
      "Shindo": 2168,
      "vision": 2169,
      "interest": 2170,
      "leaders": 2171,
      "appeared": 2172,
      "While": 2173,
      "Michigan": 2174,
      "different": 2175,
      "William": 2176,
      "David": 2177,
      "asketball": 2178,
      "1st": 2179,
      "Br": 2180,
      "Ber": 2181,
      "Bur": 2182,
      "Def": 2183,
      "Hol": 2184,
      "Mu": 2185,
      "Member": 2186,
      "Pri": 2187,
      "Some": 2188,
      "To": 2189,
      "Wall": 2190,
      "Women": 2191,
      "blower": 2192,
      "ness": 2193,
      "pen": 2194,
      "via": 2195,
      "wife": 2196,
      "atin": 2197,
      "acre": 2198,
      "administr": 2199,
      "irc": 2200,
      "utive": 2201,
      "apt": 2202,
      "Arts": 2203,
      "gether": 2204,
      "assist": 2205,
      "playing": 2206,
      "1996": 2207,
      "ference": 2208,
      "ators": 2209,
      "doctor": 2210,
      "writer": 2211,
      "Scott": 2212,
      "Regional": 2213,
      "current": 2214,
      "studied": 2215,
      "demon": 2216,
      "graph": 2217,
      "community": 2218,
      "Catholic": 2219,
      "Hornblower": 2220,
      "()": 2221,
      "Ap": 2222,
      "By": 2223,
      "Fl": 2224,
      "Law": 2225,
      "Mc": 2226,
      "MCA": 2227,
      "Off": 2228,
      "Source": 2229,
      "fire": 2230,
      "hus": 2231,
      "rally": 2232,
      "sto": 2233,
      "sch": 2234,
      "sus": 2235,
      "tri": 2236,
      "van": 2237,
      "wards": 2238,
      "heavy": 2239,
      "ico": 2240,
      "thing": 2241,
      "sequ": 2242,
      "term": 2243,
      "iga": 2244,
      "agaz": 2245,
      "ute": 2246,
      "Studi": 2247,
      "away": 2248,
      "187": 2249,
      "office": 2250,
      "2009": 2251,
      "medi": 2252,
      "disc": 2253,
      "coal": 2254,
      "events": 2255,
      "Association": 2256,
      "however": 2257,
      "students": 2258,
      "Palest": 2259,
      "control": 2260,
      "various": 2261,
      "Athletics": 2262,
      "Cali": 2263,
      "Ser": 2264,
      "Sun": 2265,
      "Since": 2266,
      "Social": 2267,
      "Tran": 2268,
      "YMCA": 2269,
      "cor": 2270,
      "cand": 2271,
      "cult": 2272,
      "east": 2273,
      "ière": 2274,
      "val": 2275,
      "wind": 2276,
      "init": 2277,
      "independ": 2278,
      "atter": 2279,
      "alc": 2280,
      "ola": 2281,
      "ela": 2282,
      "irl": 2283,
      "auto": 2284,
      "prison": 2285,
      "keep": 2286,
      "nect": 2287,
      "2006": 2288,
      "Assembly": 2289,
      "1929": 2290,
      "1968": 2291,
      "Arabs": 2292,
      "Regiment": 2293,
      "transl": 2294,
      "uenay": 2295,
      "aught": 2296,
      "graduated": 2297,
      "Northern": 2298,
      "education": 2299,
      "However": 2300,
      "launched": 2301,
      "Chinese": 2302,
      "Political": 2303,
      "Saguenay": 2304,
      "Dire": 2305,
      "Gl": 2306,
      "Games": 2307,
      "Has": 2308,
      "Hung": 2309,
      "Id": 2310,
      "Up": 2311,
      "ban": 2312,
      "fr": 2313,
      "free": 2314,
      "ga": 2315,
      "gian": 2316,
      "lot": 2317,
      "master": 2318,
      "sed": 2319,
      "ties": 2320,
      "wat": 2321,
      "ani": 2322,
      "atus": 2323,
      "estern": 2324,
      "though": 2325,
      "those": 2326,
      "style": 2327,
      "chair": 2328,
      "2000": 2329,
      "ishop": 2330,
      "Its": 2331,
      "ogn": 2332,
      "elect": 2333,
      "spir": 2334,
      "Paraly": 2335,
      "designed": 2336,
      "craft": 2337,
      "seven": 2338,
      "official": 2339,
      "every": 2340,
      "songs": 2341,
      "ociety": 2342,
      "leading": 2343,
      "Spanish": 2344,
      "Club": 2345,
      "studio": 2346,
      "Board": 2347,
      "Midlands": 2348,
      "original": 2349,
      "Quebec": 2350,
      "citizens": 2351,
      "Henry": 2352,
      "Bro": 2353,
      "Cr": 2354,
      "Mil": 2355,
      "Met": 2356,
      "Sam": 2357,
      "Str": 2358,
      "bank": 2359,
      "gin": 2360,
      "gather": 2361,
      "great": 2362,
      "ma": 2363,
      "mas": 2364,
      "mountain": 2365,
      "pite": 2366,
      "power": 2367,
      "ville": 2368,
      "wall": 2369,
      "ya": 2370,
      "ored": 2371,
      "aran": 2372,
      "told": 2373,
      "still": 2374,
      "fornia": 2375,
      "change": 2376,
      "elle": 2377,
      "ivière": 2378,
      "aging": 2379,
      "lost": 2380,
      "aper": 2381,
      "ains": 2382,
      "earned": 2383,
      "pez": 2384,
      "ground": 2385,
      "merged": 2386,
      "bron": 2387,
      "medal": 2388,
      "rail": 2389,
      "istry": 2390,
      "officer": 2391,
      "competition": 2392,
      "Prov": 2393,
      "ength": 2394,
      "Germany": 2395,
      "related": 2396,
      "asked": 2397,
      "full": 2398,
      "Academ": 2399,
      "footballer": 2400,
      "opened": 2401,
      "Anderson": 2402,
      "vote": 2403,
      "Super": 2404,
      "violence": 2405,
      "Secretary": 2406,
      "issued": 2407,
      "chnology": 2408,
      "Goodrich": 2409,
      "demonstr": 2410,
      "California": 2411,
      "candid": 2412,
      "Fin": 2413,
      "Government": 2414,
      "Hot": 2415,
      "Ire": 2416,
      "Jac": 2417,
      "List": 2418,
      "Later": 2419,
      "Most": 2420,
      "You": 2421,
      "cup": 2422,
      "del": 2423,
      "mm": 2424,
      "make": 2425,
      "mouth": 2426,
      "miss": 2427,
      "mob": 2428,
      "net": 2429,
      "saf": 2430,
      "social": 2431,
      "ta": 2432,
      "vide": 2433,
      "rey": 2434,
      "together": 2435,
      "amb": 2436,
      "olution": 2437,
      "see": 2438,
      "els": 2439,
      "defe": 2440,
      "sure": 2441,
      "exhib": 2442,
      "ipp": 2443,
      "prim": 2444,
      "1980": 2445,
      "recogn": 2446,
      "Road": 2447,
      "onlyinclude": 2448,
      "America": 2449,
      "release": 2450,
      "direct": 2451,
      "Grand": 2452,
      "days": 2453,
      "development": 2454,
      "soldi": 2455,
      "ront": 2456,
      "umbent": 2457,
      "Swed": 2458,
      "break": 2459,
      "covered": 2460,
      "Kingdom": 2461,
      "champions": 2462,
      "crowd": 2463,
      "Ireland": 2464,
      "Bie": 2465,
      "Fir": 2466,
      "Film": 2467,
      "Geller": 2468,
      "Hospital": 2469,
      "James": 2470,
      "Ló": 2471,
      "Na": 2472,
      "Pa": 2473,
      "Po": 2474,
      "Pat": 2475,
      "Pet": 2476,
      "Vir": 2477,
      "Walk": 2478,
      "aign": 2479,
      "basketball": 2480,
      "fem": 2481,
      "han": 2482,
      "ials": 2483,
      "river": 2484,
      "tak": 2485,
      "wide": 2486,
      "án": 2487,
      "inary": 2488,
      "1920": 2489,
      "child": 2490,
      "roy": 2491,
      "import": 2492,
      "confir": 2493,
      "rian": 2494,
      "tex": 2495,
      "teacher": 2496,
      "plan": 2497,
      "protest": 2498,
      "ney": 2499,
      "2001": 2500,
      "draw": 2501,
      "airs": 2502,
      "commission": 2503,
      "finish": 2504,
      "formal": 2505,
      "singer": 2506,
      "Jose": 2507,
      "Peter": 2508,
      "listed": 2509,
      "Second": 2510,
      "Russian": 2511,
      "...": 2512,
      "Republic": 2513,
      "ournal": 2514,
      "Company": 2515,
      "Portugal": 2516,
      "construction": 2517,
      "fifth": 2518,
      "refugees": 2519,
      "Institute": 2520,
      "husband": 2521,
      "heavyweight": 2522,
      "agazine": 2523,
      "Director": 2524,
      "Bieber": 2525,
      "First": 2526,
      "López": 2527,
      "40": 2528,
      "><": 2529,
      "Award": 2530,
      "CP": 2531,
      "Dan": 2532,
      "Rec": 2533,
      "Sou": 2534,
      "Wyn": 2535,
      "ael": 2536,
      "bed": 2537,
      "batt": 2538,
      "dou": 2539,
      "eight": 2540,
      "fight": 2541,
      "games": 2542,
      "mad": 2543,
      "much": 2544,
      "pan": 2545,
      "sis": 2546,
      "surn": 2547,
      "uese": 2548,
      "you": 2549,
      "here": 2550,
      "infl": 2551,
      "onel": 2552,
      "army": 2553,
      "ington": 2554,
      "throw": 2555,
      "ily": 2556,
      "acy": 2557,
      "ivid": 2558,
      "empt": 2559,
      "ush": 2560,
      "conf": 2561,
      "ets": 2562,
      "ope": 2563,
      "appro": 2564,
      "teen": 2565,
      "diff": 2566,
      "areas": 2567,
      "weap": 2568,
      "lik": 2569,
      "Comet": 2570,
      "2003": 2571,
      "ords": 2572,
      "leton": 2573,
      "media": 2574,
      "Para": 2575,
      "1956": 2576,
      "effect": 2577,
      "Plat": 2578,
      "rica": 2579,
      "organis": 2580,
      "ordered": 2581,
      "Center": 2582,
      "opening": 2583,
      "Liber": 2584,
      "middle": 2585,
      "beginning": 2586,
      "Portuguese": 2587,
      "Castle": 2588,
      "companies": 2589,
      "television": 2590,
      "testers": 2591,
      "Wynette": 2592,
      "Act": 2593,
      "Bal": 2594,
      "Bud": 2595,
      "Dev": 2596,
      "LA": 2597,
      "Los": 2598,
      "Museum": 2599,
      "Pan": 2600,
      "Ren": 2601,
      "division": 2602,
      "fall": 2603,
      "hours": 2604,
      "money": 2605,
      "pi": 2606,
      "pm": 2607,
      "sil": 2608,
      "say": 2609,
      "squ": 2610,
      "stop": 2611,
      "tw": 2612,
      "uter": 2613,
      "von": 2614,
      "vir": 2615,
      "analy": 2616,
      "ones": 2617,
      "alleg": 2618,
      "rep": 2619,
      "icke": 2620,
      "icles": 2621,
      "least": 2622,
      "level": 2623,
      "ivate": 2624,
      "ros": 2625,
      "ems": 2626,
      "immedi": 2627,
      "concl": 2628,
      "ument": 2629,
      "avi": 2630,
      "auba": 2631,
      "epis": 2632,
      "Ann": 2633,
      "2004": 2634,
      "1984": 2635,
      "1990": 2636,
      "1991": 2637,
      "1993": 2638,
      "rael": 2639,
      "strong": 2640,
      "Profess": 2641,
      "Force": 2642,
      "toponym": 2643,
      "Israel": 2644,
      "Police": 2645,
      "Minister": 2646,
      "Ministry": 2647,
      "graduate": 2648,
      "originally": 2649,
      "developed": 2650,
      "facility": 2651,
      "close": 2652,
      "explos": 2653,
      "authorities": 2654,
      "iences": 2655,
      "respond": 2656,
      "respons": 2657,
      "Queen": 2658,
      "decided": 2659,
      "career": 2660,
      "Pikauba": 2661,
      "islative": 2662,
      "economic": 2663,
      "constituency": 2664,
      "Kurd": 2665,
      "coalition": 2666,
      "surname": 2667,
      ",\"": 2668,
      "68": 2669,
      "Ak": 2670,
      "Big": 2671,
      "Batt": 2672,
      "Found": 2673,
      "Go": 2674,
      "Hist": 2675,
      "MA": 2676,
      "My": 2677,
      "SI": 2678,
      "Tourn": 2679,
      "bas": 2680,
      "cher": 2681,
      "circ": 2682,
      "ei": 2683,
      "ges": 2684,
      "hab": 2685,
      "hospital": 2686,
      "mur": 2687,
      "uation": 2688,
      "wid": 2689,
      "winn": 2690,
      "ances": 2691,
      "alway": 2692,
      "ands": 2693,
      "real": 2694,
      "iche": 2695,
      "enter": 2696,
      "across": 2697,
      "forman": 2698,
      "unch": 2699,
      "imate": 2700,
      "dead": 2701,
      "confl": 2702,
      "uture": 2703,
      "shot": 2704,
      "iana": 2705,
      "Health": 2706,
      "osen": 2707,
      "180": 2708,
      "owned": 2709,
      "polic": 2710,
      "individ": 2711,
      "screen": 2712,
      "raz": 2713,
      "phys": 2714,
      "179": 2715,
      "contribut": 2716,
      "Price": 2717,
      "fully": 2718,
      "court": 2719,
      "Guards": 2720,
      "empor": 2721,
      "Charles": 2722,
      "target": 2723,
      "countries": 2724,
      "Louis": 2725,
      "months": 2726,
      "involved": 2727,
      "Billboard": 2728,
      "Academy": 2729,
      "video": 2730,
      "Tournament": 2731,
      ".,": 2732,
      "51": 2733,
      "Den": 2734,
      "Falc": 2735,
      "Men": 2736,
      "Mos": 2737,
      "Out": 2738,
      "ST": 2739,
      "Ze": 2740,
      "aut": 2741,
      "bar": 2742,
      "cis": 2743,
      "dest": 2744,
      "date": 2745,
      "fig": 2746,
      "iated": 2747,
      "ka": 2748,
      "making": 2749,
      "rap": 2750,
      "zh": 2751,
      "atic": 2752,
      "aring": 2753,
      "aries": 2754,
      "review": 2755,
      "ira": 2756,
      "territ": 2757,
      "und": 2758,
      "usal": 2759,
      "istic": 2760,
      "respect": 2761,
      "comb": 2762,
      "ateg": 2763,
      "exist": 2764,
      "expl": 2765,
      "express": 2766,
      "anted": 2767,
      "associ": 2768,
      "performan": 2769,
      "ize": 2770,
      "players": 2771,
      "1989": 2772,
      "1994": 2773,
      "1995": 2774,
      "recre": 2775,
      "regular": 2776,
      "Africa": 2777,
      "cricke": 2778,
      "newsp": 2779,
      "1948": 2780,
      "1928": 2781,
      "prem": 2782,
      "Arabia": 2783,
      "ological": 2784,
      "going": 2785,
      "Administr": 2786,
      "belong": 2787,
      "account": 2788,
      "icipality": 2789,
      "pedo": 2790,
      "northeast": 2791,
      "clubs": 2792,
      "Michael": 2793,
      "modern": 2794,
      "campaign": 2795,
      "tourism": 2796,
      "changed": 2797,
      "establishment": 2798,
      "session": 2799,
      "CEO": 2800,
      "soldiers": 2801,
      "Falcón": 2802,
      "cricketer": 2803,
      "33": 2804,
      "46": 2805,
      "60": 2806,
      "Bu": 2807,
      "Bay": 2808,
      "Hay": 2809,
      "Lab": 2810,
      "Mount": 2811,
      "Military": 2812,
      "Other": 2813,
      "Pass": 2814,
      "Sto": 2815,
      "ao": 2816,
      "bl": 2817,
      "cross": 2818,
      "gl": 2819,
      "gar": 2820,
      "good": 2821,
      "hom": 2822,
      "hood": 2823,
      "ius": 2824,
      "rican": 2825,
      "signed": 2826,
      "vol": 2827,
      "zen": 2828,
      "once": 2829,
      "ark": 2830,
      "armed": 2831,
      "thod": 2832,
      "ention": 2833,
      "amin": 2834,
      "sex": 2835,
      "forced": 2836,
      "usually": 2837,
      "aves": 2838,
      "iang": 2839,
      "plied": 2840,
      "process": 2841,
      "ources": 2842,
      "tract": 2843,
      "2002": 2844,
      "1992": 2845,
      "1997": 2846,
      "retired": 2847,
      "design": 2848,
      "finished": 2849,
      "posed": 2850,
      "follows": 2851,
      "1927": 2852,
      "himself": 2853,
      "movement": 2854,
      "carried": 2855,
      "consist": 2856,
      "operations": 2857,
      "features": 2858,
      "believ": 2859,
      "studies": 2860,
      "Turk": 2861,
      "recorded": 2862,
      "arms": 2863,
      "rights": 2864,
      "ellerup": 2865,
      "ready": 2866,
      "qualified": 2867,
      "burg": 2868,
      "critic": 2869,
      "Wilson": 2870,
      "torpedo": 2871,
      "Walker": 2872,
      "confirmed": 2873,
      "Bishop": 2874,
      "Du": 2875,
      "Ear": 2876,
      "FA": 2877,
      "Im": 2878,
      "Kil": 2879,
      "Kong": 2880,
      "Lo": 2881,
      "Log": 2882,
      "Mul": 2883,
      "Ram": 2884,
      "Rich": 2885,
      "Sur": 2886,
      "Ton": 2887,
      "Tor": 2888,
      "Tam": 2889,
      "Tay": 2890,
      "Town": 2891,
      "Ur": 2892,
      "burn": 2893,
      "far": 2894,
      "foot": 2895,
      "hol": 2896,
      "happ": 2897,
      "ique": 2898,
      "nd": 2899,
      "paint": 2900,
      "uth": 2901,
      "wa": 2902,
      "erve": 2903,
      "arres": 2904,
      "itor": 2905,
      "itive": 2906,
      "icut": 2907,
      "thur": 2908,
      "ami": 2909,
      "1919": 2910,
      "seat": 2911,
      "Their": 2912,
      "unity": 2913,
      "ota": 2914,
      "usion": 2915,
      "loon": 2916,
      "condu": 2917,
      "ett": 2918,
      "within": 2919,
      "berg": 2920,
      "ably": 2921,
      "riot": 2922,
      "riots": 2923,
      "arts": 2924,
      "akh": 2925,
      "occer": 2926,
      "peak": 2927,
      "iple": 2928,
      "udon": 2929,
      "private": 2930,
      "upon": 2931,
      "range": 2932,
      "1988": 2933,
      "science": 2934,
      "command": 2935,
      "Robert": 2936,
      "African": 2937,
      "1974": 2938,
      "presented": 2939,
      "does": 2940,
      "arrived": 2941,
      "transfer": 2942,
      "Sea": 2943,
      "attacked": 2944,
      "Francis": 2945,
      "Beach": 2946,
      "although": 2947,
      "sixth": 2948,
      "graphy": 2949,
      "market": 2950,
      "alding": 2951,
      "request": 2952,
      "Meudon": 2953,
      "Iranian": 2954,
      "collection": 2955,
      "iji": 2956,
      "remained": 2957,
      "Pika": 2958,
      "massacre": 2959,
      "Jerusal": 2960,
      "Legislative": 2961,
      "property": 2962,
      "gathered": 2963,
      "railway": 2964,
      "defeated": 2965,
      "text": 2966,
      "immediately": 2967,
      "Em": 2968,
      "Egy": 2969,
      "FI": 2970,
      "Fer": 2971,
      "Gold": 2972,
      "Hong": 2973,
      "Kr": 2974,
      "Mas": 2975,
      "Pand": 2976,
      "With": 2977,
      "Yum": 2978,
      "bach": 2979,
      "cat": 2980,
      "find": 2981,
      "ky": 2982,
      "living": 2983,
      "mission": 2984,
      "non": 2985,
      "pay": 2986,
      "purch": 2987,
      "san": 2988,
      "sound": 2989,
      "tic": 2990,
      "taking": 2991,
      "taught": 2992,
      "ues": 2993,
      "wound": 2994,
      "yo": 2995,
      "zz": 2996,
      "ano": 2997,
      "aled": 2998,
      "reelection": 2999,
      "icle": 3000,
      "icult": 3001,
      "lete": 3002,
      "ential": 3003,
      "adium": 3004,
      "chief": 3005,
      "rock": 3006,
      "bek": 3007,
      "becoming": 3008,
      "idence": 3009,
      "cture": 3010,
      "ceeded": 3011,
      "depart": 3012,
      "resent": 3013,
      "ula": 3014,
      "ull": 3015,
      "aval": 3016,
      "plann": 3017,
      "protesters": 3018,
      "occurr": 3019,
      "udge": 3020,
      "ecutive": 3021,
      "performed": 3022,
      "action": 3023,
      "box": 3024,
      "attempt": 3025,
      "ordan": 3026,
      "1985": 3027,
      "regard": 3028,
      "ika": 3029,
      "phil": 3030,
      "1934": 3031,
      "Connect": 3032,
      "crew": 3033,
      "production": 3034,
      "guest": 3035,
      "groups": 3036,
      "Carol": 3037,
      "Spalding": 3038,
      "Adela": 3039,
      "throughout": 3040,
      "alkin": 3041,
      "wenty": 3042,
      "defending": 3043,
      "housemate": 3044,
      "standing": 3045,
      "Muslim": 3046,
      "stead": 3047,
      "caused": 3048,
      "turned": 3049,
      "Incumbent": 3050,
      "literature": 3051,
      "industry": 3052,
      "pecially": 3053,
      "Transport": 3054,
      "waters": 3055,
      "Jerusalem": 3056,
      "Egypt": 3057,
      "Connecticut": 3058,
      "Adelaide": 3059,
      "88": 3060,
      "AC": 3061,
      "AS": 3062,
      "Alex": 3063,
      "Ben": 3064,
      "Band": 3065,
      "But": 3066,
      "Cop": 3067,
      "Cong": 3068,
      "Gall": 3069,
      "Great": 3070,
      "Just": 3071,
      "Kir": 3072,
      "Long": 3073,
      "Mac": 3074,
      "Mex": 3075,
      "Nig": 3076,
      "Pu": 3077,
      "Rang": 3078,
      "Roman": 3079,
      "Uk": 3080,
      "Val": 3081,
      "Zy": 3082,
      "bell": 3083,
      "county": 3084,
      "fam": 3085,
      "food": 3086,
      "hot": 3087,
      "hous": 3088,
      "kes": 3089,
      "lived": 3090,
      "mach": 3091,
      "nec": 3092,
      "oir": 3093,
      "pers": 3094,
      "past": 3095,
      "sold": 3096,
      "talk": 3097,
      "voc": 3098,
      "wing": 3099,
      "ino": 3100,
      "inst": 3101,
      "aning": 3102,
      "orr": 3103,
      "orter": 3104,
      "ences": 3105,
      "alion": 3106,
      "alia": 3107,
      "especially": 3108,
      "reach": 3109,
      "staff": 3110,
      "entire": 3111,
      "access": 3112,
      "idge": 3113,
      "ctive": 3114,
      "look": 3115,
      "decl": 3116,
      "ops": 3117,
      "ape": 3118,
      "ulf": 3119,
      "akes": 3120,
      "occup": 3121,
      "Chair": 3122,
      "ender": 3123,
      "Arthur": 3124,
      "lier": 3125,
      "2005": 3126,
      "others": 3127,
      "1998": 3128,
      "raised": 3129,
      "meant": 3130,
      "aircraft": 3131,
      "commander": 3132,
      "college": 3133,
      "collab": 3134,
      "know": 3135,
      "cricket": 3136,
      "mpic": 3137,
      "1944": 3138,
      "cerem": 3139,
      "1930": 3140,
      "Group": 3141,
      "selves": 3142,
      "renamed": 3143,
      "cars": 3144,
      "proved": 3145,
      "provided": 3146,
      "attacks": 3147,
      "tained": 3148,
      "nearby": 3149,
      "generally": 3150,
      "Deputy": 3151,
      "Edward": 3152,
      "popular": 3153,
      "version": 3154,
      "Skellerup": 3155,
      "floor": 3156,
      "victim": 3157,
      "multiple": 3158,
      "injured": 3159,
      "considered": 3160,
      "Office": 3161,
      "discuss": 3162,
      "candidate": 3163,
      "Swedish": 3164,
      "Paul": 3165,
      "Virgin": 3166,
      "Professor": 3167,
      "either": 3168,
      "arrested": 3169,
      "Ukrain": 3170,
      "Zyga": 3171,
      "2nd": 3172,
      "Awards": 3173,
      "Bac": 3174,
      "Civil": 3175,
      "Corp": 3176,
      "Dar": 3177,
      "Est": 3178,
      "Fur": 3179,
      "Gar": 3180,
      "Hill": 3181,
      "Jon": 3182,
      "Jordan": 3183,
      "Kh": 3184,
      "Luc": 3185,
      "More": 3186,
      "Rap": 3187,
      "Som": 3188,
      "Sub": 3189,
      "Sass": 3190,
      "TV": 3191,
      "Tun": 3192,
      "UN": 3193,
      "Vo": 3194,
      "Western": 3195,
      "don": 3196,
      "fres": 3197,
      "journal": 3198,
      "lam": 3199,
      "live": 3200,
      "nock": 3201,
      "oto": 3202,
      "ray": 3203,
      "rul": 3204,
      "rics": 3205,
      "tis": 3206,
      "health": 3207,
      "ened": 3208,
      "icular": 3209,
      "oute": 3210,
      "stat": 3211,
      "stream": 3212,
      "ilar": 3213,
      "aded": 3214,
      "urer": 3215,
      "sey": 3216,
      "seen": 3217,
      "ires": 3218,
      "iding": 3219,
      "undr": 3220,
      "istan": 3221,
      "defeat": 3222,
      "ability": 3223,
      "estry": 3224,
      "ava": 3225,
      "plat": 3226,
      "prop": 3227,
      "prote": 3228,
      "aka": 3229,
      "occas": 3230,
      "illa": 3231,
      "mental": 3232,
      "outside": 3233,
      "pract": 3234,
      "firm": 3235,
      "ustr": 3236,
      "ports": 3237,
      "particular": 3238,
      "Mark": 3239,
      "1986": 3240,
      "ansas": 3241,
      "spent": 3242,
      "phone": 3243,
      "169": 3244,
      "gency": 3245,
      "crimin": 3246,
      "1977": 3247,
      "ailing": 3248,
      "1942": 3249,
      "officials": 3250,
      "mainly": 3251,
      "atherine": 3252,
      "themselves": 3253,
      "door": 3254,
      "uck": 3255,
      "writing": 3256,
      "submar": 3257,
      "province": 3258,
      "producer": 3259,
      "arrang": 3260,
      "legal": 3261,
      "albums": 3262,
      "matches": 3263,
      "titled": 3264,
      "towards": 3265,
      "Class": 3266,
      "Neh": 3267,
      "hammad": 3268,
      "CAA": 3269,
      "northern": 3270,
      "Christmas": 3271,
      "senior": 3272,
      "organization": 3273,
      "meeting": 3274,
      "Japanese": 3275,
      "southern": 3276,
      "Oxford": 3277,
      "Angel": 3278,
      "Moirang_": 3279,
      "Palestine": 3280,
      "primary": 3281,
      "taken": 3282,
      "Foundation": 3283,
      "emporary": 3284,
      "recreational": 3285,
      "Congress": 3286,
      "Sassun": 3287,
      "\"\"": 3288,
      "37": 3289,
      "47": 3290,
      "57": 3291,
      "Ag": 3292,
      "Bl": 3293,
      "Bear": 3294,
      "Cow": 3295,
      "Dis": 3296,
      "Dave": 3297,
      "Ele": 3298,
      "Fort": 3299,
      "Gulf": 3300,
      "Mk": 3301,
      "Mod": 3302,
      "Oh": 3303,
      "Rivière": 3304,
      "black": 3305,
      "cus": 3306,
      "cement": 3307,
      "equ": 3308,
      "fone": 3309,
      "flow": 3310,
      "gress": 3311,
      "hop": 3312,
      "human": 3313,
      "ji": 3314,
      "lig": 3315,
      "length": 3316,
      "nel": 3317,
      "never": 3318,
      "pow": 3319,
      "ske": 3320,
      "yan": 3321,
      "inent": 3322,
      "aney": 3323,
      "anfone": 3324,
      "eration": 3325,
      "erous": 3326,
      "ening": 3327,
      "arian": 3328,
      "almost": 3329,
      "ision": 3330,
      "often": 3331,
      "reve": 3332,
      "lear": 3333,
      "threat": 3334,
      "stars": 3335,
      "ades": 3336,
      "advis": 3337,
      "secur": 3338,
      "chosen": 3339,
      "emer": 3340,
      "igr": 3341,
      "agement": 3342,
      "whom": 3343,
      "Inter": 3344,
      "ockey": 3345,
      "Chal": 3346,
      "trad": 3347,
      "odes": 3348,
      "grand": 3349,
      "ights": 3350,
      "association": 3351,
      "elled": 3352,
      "active": 3353,
      "notable": 3354,
      "brary": 3355,
      "drug": 3356,
      "letter": 3357,
      "scient": 3358,
      "method": 3359,
      "common": 3360,
      "colonel": 3361,
      "Columb": 3362,
      "1921": 3363,
      "aji": 3364,
      "interview": 3365,
      "parliament": 3366,
      "centre": 3367,
      "receiving": 3368,
      "Phanfone": 3369,
      "appearance": 3370,
      "poet": 3371,
      "Europe": 3372,
      "Middle": 3373,
      "student": 3374,
      "ridge": 3375,
      "Stein": 3376,
      "languages": 3377,
      "previously": 3378,
      "motor": 3379,
      "manager": 3380,
      "Services": 3381,
      "Defense": 3382,
      "Scottish": 3383,
      "Haswell": 3384,
      "Paralympics": 3385,
      "safe": 3386,
      "episodes": 3387,
      "territory": 3388,
      "performance": 3389,
      "Mulaney": 3390,
      "Yummy": 3391,
      "watershed": 3392,
      "Virginia": 3393,
      "38": 3394,
      "Bi": 3395,
      "Best": 3396,
      "Bank": 3397,
      "Braz": 3398,
      "Ev": 3399,
      "Eastern": 3400,
      "Gauth": 3401,
      "Galkin": 3402,
      "IV": 3403,
      "Ig": 3404,
      "KR": 3405,
      "Kang": 3406,
      "Kansas": 3407,
      "MP": 3408,
      "Mary": 3409,
      "Nap": 3410,
      "NCAA": 3411,
      "Publ": 3412,
      "Raj": 3413,
      "SS": 3414,
      "Sm": 3415,
      "Su": 3416,
      "Society": 3417,
      "Ter": 3418,
      "Wag": 3419,
      "Wales": 3420,
      "bot": 3421,
      "block": 3422,
      "cop": 3423,
      "failed": 3424,
      "future": 3425,
      "gave": 3426,
      "girl": 3427,
      "hig": 3428,
      "lic": 3429,
      "lives": 3430,
      "latter": 3431,
      "mes": 3432,
      "mus": 3433,
      "pot": 3434,
      "prec": 3435,
      "route": 3436,
      "slog": 3437,
      "yer": 3438,
      "zone": 3439,
      "heim": 3440,
      "theme": 3441,
      "eding": 3442,
      "edition": 3443,
      "ora": 3444,
      "iting": 3445,
      "reason": 3446,
      "icated": 3447,
      "staging": 3448,
      "iled": 3449,
      "accept": 3450,
      "adi": 3451,
      "adian": 3452,
      "sector": 3453,
      "seek": 3454,
      "force": 3455,
      "emor": 3456,
      "university": 3457,
      "agen": 3458,
      "ership": 3459,
      "utes": 3460,
      "ophy": 3461,
      "opposition": 3462,
      "white": 3463,
      "comes": 3464,
      "ria": 3465,
      "should": 3466,
      "aver": 3467,
      "aving": 3468,
      "earth": 3469,
      "Chic": 3470,
      "pected": 3471,
      "managed": 3472,
      "merc": 3473,
      "computer": 3474,
      "oglin": 3475,
      "Andr": 3476,
      "noted": 3477,
      "achiev": 3478,
      "serves": 3479,
      "ization": 3480,
      "sched": 3481,
      "marnock": 3482,
      "meaning": 3483,
      "Shiji": 3484,
      "ikh": 3485,
      "phoon": 3486,
      "166": 3487,
      "minister": 3488,
      "singles": 3489,
      "1970": 3490,
      "1975": 3491,
      "visits": 3492,
      "tene": 3493,
      "move": 3494,
      "subject": 3495,
      "subsequ": 3496,
      "relation": 3497,
      "Scot": 3498,
      "Polish": 3499,
      "books": 3500,
      "added": 3501,
      "Represent": 3502,
      "schools": 3503,
      "council": 3504,
      "III": 3505,
      "employ": 3506,
      "capt": 3507,
      "1887": 3508,
      "Technology": 3509,
      "results": 3510,
      "contract": 3511,
      "Christian": 3512,
      "Montene": 3513,
      "archite": 3514,
      "quarter": 3515,
      "historical": 3516,
      "Notable": 3517,
      "Municipality": 3518,
      "Berlin": 3519,
      "Apica": 3520,
      "aranop": 3521,
      "Jacob": 3522,
      "directly": 3523,
      "important": 3524,
      "weapons": 3525,
      "likely": 3526,
      "Platoon": 3527,
      "viron": 3528,
      "Kilmarnock": 3529,
      "Pandit": 3530,
      "occurred": 3531,
      "Niger": 3532,
      "ceremony": 3533,
      "Ohio": 3534,
      "Steinmann": 3535,
      "Brazil": 3536,
      "Gauthier": 3537,
      "Public": 3538,
      "slogans": 3539,
      "35": 3540,
      "45": 3541,
      "52": 3542,
      "54": 3543,
      "AL": 3544,
      "BC": 3545,
      "Born": 3546,
      "Fed": 3547,
      "GO": 3548,
      "Ham": 3549,
      "Hunt": 3550,
      "Ira": 3551,
      "Jos": 3552,
      "Ma": 3553,
      "Mit": 3554,
      "Mic": 3555,
      "Net": 3556,
      "Over": 3557,
      "Run": 3558,
      "Rally": 3559,
      "Sol": 3560,
      "Scho": 3561,
      "blo": 3562,
      "bury": 3563,
      "corn": 3564,
      "doc": 3565,
      "done": 3566,
      "fear": 3567,
      "gas": 3568,
      "ho": 3569,
      "ike": 3570,
      "nar": 3571,
      "names": 3572,
      "osh": 3573,
      "ograph": 3574,
      "ps": 3575,
      "ping": 3576,
      "tro": 3577,
      "tribut": 3578,
      "uals": 3579,
      "vice": 3580,
      "winning": 3581,
      "youth": 3582,
      "ink": 3583,
      "incre": 3584,
      "institut": 3585,
      "instead": 3586,
      "edited": 3587,
      "atics": 3588,
      "ester": 3589,
      "itzer": 3590,
      "anded": 3591,
      "olk": 3592,
      "1918": 3593,
      "adapt": 3594,
      "separ": 3595,
      "sets": 3596,
      "seats": 3597,
      "irth": 3598,
      "behav": 3599,
      "lyrics": 3600,
      "ayi": 3601,
      "ima": 3602,
      "imp": 3603,
      "ago": 3604,
      "agent": 3605,
      "rial": 3606,
      "artists": 3607,
      "uled": 3608,
      "iano": 3609,
      "iance": 3610,
      "evac": 3611,
      "ples": 3612,
      "aki": 3613,
      "illustr": 3614,
      "ift": 3615,
      "ques": 3616,
      "Union": 3617,
      "Univers": 3618,
      "awai": 3619,
      "oger": 3620,
      "neigh": 3621,
      "bridge": 3622,
      "ordin": 3623,
      "medical": 3624,
      "chose": 3625,
      "Asian": 3626,
      "Room": 3627,
      "coach": 3628,
      "Aff": 3629,
      "chess": 3630,
      "1971": 3631,
      "1976": 3632,
      "1979": 3633,
      "veh": 3634,
      "followed": 3635,
      "1926": 3636,
      "Prime": 3637,
      "1937": 3638,
      "1960": 3639,
      "1969": 3640,
      "largest": 3641,
      "submerged": 3642,
      "Sciences": 3643,
      "sych": 3644,
      "Island": 3645,
      "goal": 3646,
      "sett": 3647,
      "Canadian": 3648,
      "according": 3649,
      "running": 3650,
      "succeeded": 3651,
      "voy": 3652,
      "communic": 3653,
      "begin": 3654,
      "label": 3655,
      "participated": 3656,
      "similar": 3657,
      "plement": 3658,
      "concern": 3659,
      "administrative": 3660,
      "schol": 3661,
      "independent": 3662,
      "translated": 3663,
      "organisation": 3664,
      "responded": 3665,
      "Kurdish": 3666,
      "murder": 3667,
      "conflict": 3668,
      "physical": 3669,
      "figures": 3670,
      "newspaper": 3671,
      "Turkish": 3672,
      "hotel": 3673,
      "machine": 3674,
      "fresh": 3675,
      "security": 3676,
      "Chalais": 3677,
      "relationship": 3678,
      "Iraq": 3679,
      "José": 3680,
      "9th": 3681,
      "Ay": 3682,
      "Ash": 3683,
      "BS": 3684,
      "Bor": 3685,
      "Bol": 3686,
      "Bad": 3687,
      "Cur": 3688,
      "Camp": 3689,
      "Cze": 3690,
      "Dou": 3691,
      "Dubl": 3692,
      "Dinn": 3693,
      "Fore": 3694,
      "Follow": 3695,
      "Gra": 3696,
      "Human": 3697,
      "Lord": 3698,
      "Latin": 3699,
      "Nile": 3700,
      "Ray": 3701,
      "So": 3702,
      "Sir": 3703,
      "Sov": 3704,
      "Times": 3705,
      "Wend": 3706,
      "bri": 3707,
      "cam": 3708,
      "cies": 3709,
      "ded": 3710,
      "data": 3711,
      "gent": 3712,
      "grow": 3713,
      "lor": 3714,
      "mix": 3715,
      "ny": 3716,
      "nation": 3717,
      "rn": 3718,
      "sl": 3719,
      "sal": 3720,
      "information": 3721,
      "oned": 3722,
      "oring": 3723,
      "ande": 3724,
      "andy": 3725,
      "reed": 3726,
      "rees": 3727,
      "repe": 3728,
      "rebel": 3729,
      "tom": 3730,
      "step": 3731,
      "ilities": 3732,
      "acqu": 3733,
      "1916": 3734,
      "ura": 3735,
      "forward": 3736,
      "emus": 3737,
      "idi": 3738,
      "unit": 3739,
      "ays": 3740,
      "imal": 3741,
      "aga": 3742,
      "love": 3743,
      "det": 3744,
      "deal": 3745,
      "compl": 3746,
      "artel": 3747,
      "Head": 3748,
      "proble": 3749,
      "Chance": 3750,
      "Chief": 3751,
      "tra": 3752,
      "travel": 3753,
      "gren": 3754,
      "ends": 3755,
      "quart": 3756,
      "Under": 3757,
      "pring": 3758,
      "fired": 3759,
      "pert": 3760,
      "perform": 3761,
      "whose": 3762,
      "owner": 3763,
      "duction": 3764,
      "driver": 3765,
      "Alpert": 3766,
      "score": 3767,
      "span": 3768,
      "commit": 3769,
      "ensive": 3770,
      "177": 3771,
      "contest": 3772,
      "vey": 3773,
      "1940": 3774,
      "1943": 3775,
      "1946": 3776,
      "Command": 3777,
      "certain": 3778,
      "secondary": 3779,
      "founder": 3780,
      "prepar": 3781,
      "1938": 3782,
      "Conference": 3783,
      "moving": 3784,
      "Arabic": 3785,
      "Region": 3786,
      "syn": 3787,
      "deputy": 3788,
      "below": 3789,
      "charge": 3790,
      "recording": 3791,
      "emple": 3792,
      "Assist": 3793,
      "Like": 3794,
      "solo": 3795,
      "programs": 3796,
      "professor": 3797,
      "Belt": 3798,
      "Country": 3799,
      "venue": 3800,
      "population": 3801,
      "hark": 3802,
      "casual": 3803,
      "civilians": 3804,
      "Love": 3805,
      "quarters": 3806,
      "focus": 3807,
      "Luther": 3808,
      "Service": 3809,
      "natov": 3810,
      "Brand": 3811,
      "mobile": 3812,
      "Joseph": 3813,
      "></": 3814,
      "fighting": 3815,
      "Histor": 3816,
      "individuals": 3817,
      "Columbia": 3818,
      "Ignatov": 3819,
      "Wagner": 3820,
      "Representatives": 3821,
      "Affairs": 3822,
      "Czech": 3823,
      "Dublin": 3824,
      "Dinnayi": 3825,
      "Foreign": 3826,
      "Following": 3827,
      "(;": 3828,
      "90": 3829,
      "=\"": 3830,
      "Av": 3831,
      "Dun": 3832,
      "EP": 3833,
      "Ep": 3834,
      "Eren": 3835,
      "Fr": 3836,
      "Gi": 3837,
      "Hon": 3838,
      "IP": 3839,
      "Ives": 3840,
      "Jr": 3841,
      "Mot": 3842,
      "Master": 3843,
      "Magazine": 3844,
      "Ow": 3845,
      "Press": 3846,
      "RA": 3847,
      "RE": 3848,
      "Rac": 3849,
      "Ros": 3850,
      "Rail": 3851,
      "Sev": 3852,
      "Ta": 3853,
      "Talb": 3854,
      "Vis": 3855,
      "Wol": 3856,
      "Work": 3857,
      "Wang": 3858,
      "Wind": 3859,
      "cel": 3860,
      "drop": 3861,
      "gro": 3862,
      "grew": 3863,
      "hana": 3864,
      "ja": 3865,
      "jing": 3866,
      "ki": 3867,
      "mir": 3868,
      "mun": 3869,
      "nine": 3870,
      "sister": 3871,
      "task": 3872,
      "wor": 3873,
      "walk": 3874,
      "én": 3875,
      "intern": 3876,
      "onom": 3877,
      "oral": 3878,
      "arily": 3879,
      "ala": 3880,
      "isen": 3881,
      "itation": 3882,
      "repr": 3883,
      "replaced": 3884,
      "thous": 3885,
      "ston": 3886,
      "illy": 3887,
      "oli": 3888,
      "19th": 3889,
      "chap": 3890,
      "impro": 3891,
      "agog": 3892,
      "conference": 3893,
      "apers": 3894,
      "Hebron": 3895,
      "climate": 3896,
      "super": 3897,
      "endant": 3898,
      "Stadium": 3899,
      "Arch": 3900,
      "Armen": 3901,
      "iction": 3902,
      "ranch": 3903,
      "need": 3904,
      "partner": 3905,
      "brought": 3906,
      "drama": 3907,
      "Alb": 3908,
      "1981": 3909,
      "intro": 3910,
      "retire": 3911,
      "Lead": 3912,
      "rather": 3913,
      "spread": 3914,
      "committee": 3915,
      "Rober": 3916,
      "atory": 3917,
      "minutes": 3918,
      "1932": 3919,
      "overnor": 3920,
      "1966": 3921,
      "Cont": 3922,
      "Thang": 3923,
      "park": 3924,
      "central": 3925,
      "warning": 3926,
      "leader": 3927,
      "Script": 3928,
      "Register": 3929,
      "guitar": 3930,
      "Place": 3931,
      "transport": 3932,
      "organized": 3933,
      "helped": 3934,
      "Before": 3935,
      "ificant": 3936,
      "places": 3937,
      "broad": 3938,
      "funeral": 3939,
      "residents": 3940,
      "faced": 3941,
      "closed": 3942,
      "captain": 3943,
      "study": 3944,
      "restaur": 3945,
      "presidential": 3946,
      "Belle": 3947,
      "fordshire": 3948,
      "voice": 3949,
      "fields": 3950,
      "successful": 3951,
      "vention": 3952,
      "radio": 3953,
      "Philipp": 3954,
      "Lovell": 3955,
      "Donald": 3956,
      "significant": 3957,
      "Despite": 3958,
      "Province": 3959,
      "female": 3960,
      "winners": 3961,
      "Louisiana": 3962,
      "Richard": 3963,
      "Francisco": 3964,
      "department": 3965,
      "Mexico": 3966,
      "famous": 3967,
      "Angeles": 3968,
      "Smith": 3969,
      "Schoen": 3970,
      "awaii": 3971,
      "Soviet": 3972,
      "Lutheran": 3973,
      "Talbot": 3974,
      "\":": 3975,
      ".”": 3976,
      "41": 3977,
      "500": 3978,
      "Ah": 3979,
      "Catherine": 3980,
      "Dream": 3981,
      "Green": 3982,
      "HE": 3983,
      "IB": 3984,
      "Il": 3985,
      "Kö": 3986,
      "Kim": 3987,
      "Kore": 3988,
      "Laur": 3989,
      "Liga": 3990,
      "Mat": 3991,
      "Mah": 3992,
      "Open": 3993,
      "Prem": 3994,
      "Rol": 3995,
      "Roc": 3996,
      "Sa": 3997,
      "Sat": 3998,
      "Saf": 3999,
      "Sche": 4000,
      "Savi": 4001,
      "Tel": 4002,
      "Tro": 4003,
      "Two": 4004,
      "Tai": 4005,
      "Uz": 4006,
      "Wal": 4007,
      "Winter": 4008,
      "Youth": 4009,
      "birth": 4010,
      "cal": 4011,
      "dro": 4012,
      "dig": 4013,
      "fed": 4014,
      "fle": 4015,
      "fro": 4016,
      "fish": 4017,
      "front": 4018,
      "hur": 4019,
      "hard": 4020,
      "hang": 4021,
      "hind": 4022,
      "hundr": 4023,
      "hockey": 4024,
      "jun": 4025,
      "ken": 4026,
      "mel": 4027,
      "mate": 4028,
      "mosp": 4029,
      "pun": 4030,
      "race": 4031,
      "sales": 4032,
      "sources": 4033,
      "ua": 4034,
      "varanop": 4035,
      "wear": 4036,
      "ár": 4037,
      "onto": 4038,
      "oro": 4039,
      "asz": 4040,
      "oft": 4041,
      "ito": 4042,
      "reme": 4043,
      "iced": 4044,
      "leave": 4045,
      "stor": 4046,
      "stri": 4047,
      "stage": 4048,
      "states": 4049,
      "1917": 4050,
      "ady": 4051,
      "urb": 4052,
      "urity": 4053,
      "elig": 4054,
      "eman": 4055,
      "imar": 4056,
      "cts": 4057,
      "deb": 4058,
      "dete": 4059,
      "concept": 4060,
      "ova": 4061,
      "shop": 4062,
      "shore": 4063,
      "techn": 4064,
      "teaching": 4065,
      "aved": 4066,
      "avail": 4067,
      "plom": 4068,
      "aker": 4069,
      "aud": 4070,
      "Stan": 4071,
      "Star": 4072,
      "Staff": 4073,
      "ubber": 4074,
      "outlet": 4075,
      "assign": 4076,
      "wealth": 4077,
      "orney": 4078,
      "upcoming": 4079,
      "actions": 4080,
      "preserv": 4081,
      "Another": 4082,
      "Anton": 4083,
      "services": 4084,
      "ugg": 4085,
      "ulty": 4086,
      "march": 4087,
      "spot": 4088,
      "recently": 4089,
      "Paris": 4090,
      "conditions": 4091,
      "finally": 4092,
      "annah": 4093,
      "annual": 4094,
      "regional": 4095,
      "167": 4096,
      "168": 4097,
      "ctoral": 4098,
      "eventually": 4099,
      "aho": 4100,
      "ements": 4101,
      "sons": 4102,
      "specific": 4103,
      "politics": 4104,
      "1936": 4105,
      "Cons": 4106,
      "10th": 4107,
      "parents": 4108,
      "Junior": 4109,
      "evicted": 4110,
      "relig": 4111,
      "Islam": 4112,
      "mostly": 4113,
      "consult": 4114,
      "Cardiff": 4115,
      "operational": 4116,
      "counter": 4117,
      "Trump": 4118,
      "Assad": 4119,
      "1905": 4120,
      "1906": 4121,
      "Order": 4122,
      "Organ": 4123,
      "Swiss": 4124,
      "Switzer": 4125,
      "Andrew": 4126,
      "Georgian": 4127,
      "votes": 4128,
      "Support": 4129,
      "educated": 4130,
      "model": 4131,
      "personal": 4132,
      "Commissioner": 4133,
      "Captain": 4134,
      "tracks": 4135,
      "management": 4136,
      "Medical": 4137,
      "allowed": 4138,
      "funding": 4139,
      "Mirbach": 4140,
      "agreed": 4141,
      "friends": 4142,
      "leadership": 4143,
      "Muhammad": 4144,
      "automat": 4145,
      "Idaho": 4146,
      "Brother": 4147,
      "Records": 4148,
      "double": 4149,
      "Renoir": 4150,
      "analysis": 4151,
      "always": 4152,
      "destroy": 4153,
      "premier": 4154,
      "Tonna": 4155,
      "purchased": 4156,
      "wounded": 4157,
      "planned": 4158,
      "Zygaena": 4159,
      "revealed": 4160,
      "musical": 4161,
      "ALGO": 4162,
      "troops": 4163,
      "brief": 4164,
      "Thangjing": 4165,
      "restaurant": 4166,
      "Saviola": 4167,
      "Uzbek": 4168,
      "Switzerland": 4169,
      "ALGOL": 4170,
      "02": 4171,
      "43": 4172,
      "48": 4173,
      "59": 4174,
      "Are": 4175,
      "Ba": 4176,
      "Bas": 4177,
      "Brian": 4178,
      "Cit": 4179,
      "Danish": 4180,
      "Erd": 4181,
      "Fel": 4182,
      "Fred": 4183,
      "Gy": 4184,
      "Haji": 4185,
      "IC": 4186,
      "Jhark": 4187,
      "Ken": 4188,
      "Kaz": 4189,
      "Lam": 4190,
      "Lunch": 4191,
      "Make": 4192,
      "Ol": 4193,
      "Oper": 4194,
      "Pers": 4195,
      "SX": 4196,
      "Tet": 4197,
      "Tri": 4198,
      "Way": 4199,
      "border": 4200,
      "cell": 4201,
      "div": 4202,
      "fare": 4203,
      "gate": 4204,
      "ggest": 4205,
      "judge": 4206,
      "kind": 4207,
      "kick": 4208,
      "lap": 4209,
      "mers": 4210,
      "mater": 4211,
      "mond": 4212,
      "rt": 4213,
      "sat": 4214,
      "tell": 4215,
      "table": 4216,
      "ufact": 4217,
      "vac": 4218,
      "wan": 4219,
      "ön": 4220,
      "heard": 4221,
      "inem": 4222,
      "anth": 4223,
      "ati": 4224,
      "orse": 4225,
      "ority": 4226,
      "orated": 4227,
      "enlisted": 4228,
      "aland": 4229,
      "aling": 4230,
      "already": 4231,
      "aso": 4232,
      "asp": 4233,
      "itself": 4234,
      "omet": 4235,
      "stab": 4236,
      "stories": 4237,
      "iles": 4238,
      "adult": 4239,
      "sele": 4240,
      "chi": 4241,
      "chant": 4242,
      "termin": 4243,
      "imately": 4244,
      "cele": 4245,
      "istics": 4246,
      "conne": 4247,
      "overs": 4248,
      "comed": 4249,
      "articles": 4250,
      "shout": 4251,
      "earlier": 4252,
      "dies": 4253,
      "suffer": 4254,
      "suggest": 4255,
      "peace": 4256,
      "aux": 4257,
      "manufact": 4258,
      "pred": 4259,
      "prof": 4260,
      "pray": 4261,
      "print": 4262,
      "serious": 4263,
      "186": 4264,
      "actor": 4265,
      "ogan": 4266,
      "Anna": 4267,
      "boy": 4268,
      "Mars": 4269,
      "script": 4270,
      "discovered": 4271,
      "spok": 4272,
      "despite": 4273,
      "colspan": 4274,
      "photo": 4275,
      "1958": 4276,
      "crimes": 4277,
      "poss": 4278,
      "officially": 4279,
      "aze": 4280,
      "better": 4281,
      "Prop": 4282,
      "Production": 4283,
      "creating": 4284,
      "larger": 4285,
      "Science": 4286,
      "Isab": 4287,
      "legisl": 4288,
      "Play": 4289,
      "Spade": 4290,
      "operation": 4291,
      "Frank": 4292,
      "prominent": 4293,
      "pose": 4294,
      "Centre": 4295,
      "1908": 4296,
      "explo": 4297,
      "Georg": 4298,
      "Amrit": 4299,
      "Housemate": 4300,
      "voted": 4301,
      "quality": 4302,
      "qualify": 4303,
      "Artemus": 4304,
      "required": 4305,
      "shows": 4306,
      "Charlot": 4307,
      "passed": 4308,
      "experience": 4309,
      "races": 4310,
      "secretary": 4311,
      "Weimar": 4312,
      "Revolution": 4313,
      "damage": 4314,
      "flood": 4315,
      "sports": 4316,
      "multi": 4317,
      "literary": 4318,
      "hosted": 4319,
      "honor": 4320,
      "roles": 4321,
      "Studies": 4322,
      "Studios": 4323,
      "independence": 4324,
      "Hungary": 4325,
      "Metro": 4326,
      "bronze": 4327,
      "Finland": 4328,
      "exhibition": 4329,
      "recognized": 4330,
      "influ": 4331,
      "conclusion": 4332,
      "responsible": 4333,
      "SICP": 4334,
      "respectively": 4335,
      "believed": 4336,
      "Ursus": 4337,
      "transferred": 4338,
      "Golden": 4339,
      "victims": 4340,
      "Nehru": 4341,
      "ligul": 4342,
      "skeleton": 4343,
      "Scotland": 4344,
      "settled": 4345,
      "scholar": 4346,
      "Wendell": 4347,
      "grenade": 4348,
      "Assistant": 4349,
      "retirement": 4350,
      "Roberts": 4351,
      "Premier": 4352,
      "available": 4353,
      "Erdogan": 4354,
      "Jharkhand": 4355,
      "Kazakh": 4356,
      "3rd": 4357,
      "4th": 4358,
      "8th": 4359,
      "800": 4360,
      "Brom": 4361,
      "Bond": 4362,
      "CD": 4363,
      "Cor": 4364,
      "Cas": 4365,
      "Cross": 4366,
      "DF": 4367,
      "Dend": 4368,
      "Die": 4369,
      "Gor": 4370,
      "Gay": 4371,
      "Girl": 4372,
      "Hand": 4373,
      "Hoc": 4374,
      "Hold": 4375,
      "Hawaii": 4376,
      "Kø": 4377,
      "Kon": 4378,
      "Kok": 4379,
      "Loc": 4380,
      "Lower": 4381,
      "Lane": 4382,
      "Mong": 4383,
      "Nat": 4384,
      "Nag": 4385,
      "Pre": 4386,
      "Pier": 4387,
      "Qat": 4388,
      "Rights": 4389,
      "RRE": 4390,
      "Sem": 4391,
      "Sant": 4392,
      "Soccer": 4393,
      "Tu": 4394,
      "Tenn": 4395,
      "Temple": 4396,
      "Wis": 4397,
      "Wild": 4398,
      "Wash": 4399,
      "Zion": 4400,
      "aia": 4401,
      "ahead": 4402,
      "bin": 4403,
      "ben": 4404,
      "bes": 4405,
      "big": 4406,
      "bour": 4407,
      "cost": 4408,
      "da": 4409,
      "din": 4410,
      "fan": 4411,
      "fav": 4412,
      "gold": 4413,
      "iro": 4414,
      "joint": 4415,
      "kar": 4416,
      "mn": 4417,
      "mem": 4418,
      "milit": 4419,
      "magazine": 4420,
      "nak": 4421,
      "oil": 4422,
      "ode": 4423,
      "ply": 4424,
      "phen": 4425,
      "sor": 4426,
      "society": 4427,
      "tt": 4428,
      "uated": 4429,
      "wit": 4430,
      "wel": 4431,
      "yr": 4432,
      "ńsk": 4433,
      "oni": 4434,
      "onse": 4435,
      "attract": 4436,
      "ising": 4437,
      "iter": 4438,
      "too": 4439,
      "ioned": 4440,
      "stay": 4441,
      "adv": 4442,
      "semi": 4443,
      "20th": 4444,
      "behind": 4445,
      "emper": 4446,
      "imated": 4447,
      "agh": 4448,
      "conserv": 4449,
      "constitut": 4450,
      "consec": 4451,
      "romaia": 4452,
      "aband": 4453,
      "ović": 4454,
      "appe": 4455,
      "umn": 4456,
      "estival": 4457,
      "evidence": 4458,
      "ateur": 4459,
      "diplom": 4460,
      "Chan": 4461,
      "except": 4462,
      "aug": 4463,
      "essary": 4464,
      "Argent": 4465,
      "quake": 4466,
      "compil": 4467,
      "compared": 4468,
      "uded": 4469,
      "acting": 4470,
      "liber": 4471,
      "itional": 4472,
      "offers": 4473,
      "offrey": 4474,
      "Ant": 4475,
      "ships": 4476,
      "Comic": 4477,
      "attention": 4478,
      "Alf": 4479,
      "Also": 4480,
      "Although": 4481,
      "scored": 4482,
      "means": 4483,
      "Shaw": 4484,
      "identified": 4485,
      "includes": 4486,
      "anning": 4487,
      "annel": 4488,
      "ikko": 4489,
      "phy": 4490,
      "minute": 4491,
      "1955": 4492,
      "positive": 4493,
      "Commiss": 4494,
      "severe": 4495,
      "offices": 4496,
      "1924": 4497,
      "typ": 4498,
      "typhoon": 4499,
      "1965": 4500,
      "1046": 4501,
      "Forces": 4502,
      "selling": 4503,
      "invited": 4504,
      "musicology": 4505,
      "provides": 4506,
      "Islands": 4507,
      "Plan": 4508,
      "helor": 4509,
      "Johnson": 4510,
      "nearly": 4511,
      "Book": 4512,
      "joy": 4513,
      "starting": 4514,
      "lington": 4515,
      "affil": 4516,
      "runs": 4517,
      "deaths": 4518,
      "didn": 4519,
      "positions": 4520,
      "Management": 4521,
      "programming": 4522,
      "incident": 4523,
      "claims": 4524,
      "Chris": 4525,
      "activity": 4526,
      "response": 4527,
      "Malloy": 4528,
      "alongside": 4529,
      "ributed": 4530,
      "promotion": 4531,
      "ancient": 4532,
      "domest": 4533,
      "limited": 4534,
      "issues": 4535,
      "additional": 4536,
      "Barn": 4537,
      "experiment": 4538,
      "Moran": 4539,
      "mitted": 4540,
      "Ruiz": 4541,
      "guns": 4542,
      "ranked": 4543,
      "Philip": 4544,
      "Jersey": 4545,
      "investigation": 4546,
      "clear": 4547,
      "balloon": 4548,
      "Madrid": 4549,
      "bombing": 4550,
      "engineer": 4551,
      "stock": 4552,
      "Palestin": 4553,
      "cultural": 4554,
      "window": 4555,
      "spirit": 4556,
      "battalion": 4557,
      "doub": 4558,
      "Liberation": 4559,
      "rossing": 4560,
      "Denmark": 4561,
      "Zealand": 4562,
      "existence": 4563,
      "Administration": 4564,
      "Earth": 4565,
      "FIFA": 4566,
      "Justice": 4567,
      "necessary": 4568,
      "declared": 4569,
      "Chairman": 4570,
      "Ukrainian": 4571,
      "propeller": 4572,
      "submarine": 4573,
      "Kangle": 4574,
      "scheduled": 4575,
      "subsequently": 4576,
      "architect": 4577,
      "blood": 4578,
      "adaptation": 4579,
      "rebels": 4580,
      "Brandis": 4581,
      "Owen": 4582,
      "Several": 4583,
      "Schoenus": 4584,
      "digital": 4585,
      "frozen": 4586,
      "celebr": 4587,
      "Charlotte": 4588,
      "Dendromaia": 4589,
      "Hocquart": 4590,
      "Køpi": 4591,
      "'\"": 4592,
      "/>": 4593,
      "32": 4594,
      "58": 4595,
      "Az": 4596,
      "Ali": 4597,
      "Bos": 4598,
      "Bah": 4599,
      "Count": 4600,
      "Di": 4601,
      "Der": 4602,
      "Dign": 4603,
      "EE": 4604,
      "Eag": 4605,
      "Far": 4606,
      "Foot": 4607,
      "Foger": 4608,
      "God": 4609,
      "Ho": 4610,
      "Here": 4611,
      "Home": 4612,
      "Java": 4613,
      "Ko": 4614,
      "Kat": 4615,
      "Ly": 4616,
      "Line": 4617,
      "Lie": 4618,
      "Main": 4619,
      "Mans": 4620,
      "Major": 4621,
      "Naval": 4622,
      "Old": 4623,
      "PA": 4624,
      "Pie": 4625,
      "Penn": 4626,
      "RT": 4627,
      "Rat": 4628,
      "Rad": 4629,
      "SA": 4630,
      "Sher": 4631,
      "Spec": 4632,
      "Tan": 4633,
      "Tal": 4634,
      "Young": 4635,
      "athe": 4636,
      "bow": 4637,
      "cing": 4638,
      "cut": 4639,
      "corp": 4640,
      "domin": 4641,
      "drew": 4642,
      "ech": 4643,
      "eastern": 4644,
      "gang": 4645,
      "hi": 4646,
      "iour": 4647,
      "jan": 4648,
      "javel": 4649,
      "km": 4650,
      "ls": 4651,
      "lan": 4652,
      "mis": 4653,
      "museum": 4654,
      "nis": 4655,
      "nam": 4656,
      "psych": 4657,
      "rence": 4658,
      "sar": 4659,
      "sac": 4660,
      "sailed": 4661,
      "trop": 4662,
      "twenty": 4663,
      "uit": 4664,
      "vin": 4665,
      "instru": 4666,
      "onn": 4667,
      "onia": 4668,
      "ato": 4669,
      "atmosp": 4670,
      "ises": 4671,
      "itt": 4672,
      "rev": 4673,
      "icol": 4674,
      "tol": 4675,
      "thus": 4676,
      "star": 4677,
      "stone": 4678,
      "starr": 4679,
      "ilty": 4680,
      "academ": 4681,
      "accompan": 4682,
      "1900": 4683,
      "ador": 4684,
      "ading": 4685,
      "adop": 4686,
      "seem": 4687,
      "cha": 4688,
      "ching": 4689,
      "eless": 4690,
      "ivals": 4691,
      "embr": 4692,
      "unist": 4693,
      "unknown": 4694,
      "unique": 4695,
      "ayette": 4696,
      "imens": 4697,
      "implement": 4698,
      "losing": 4699,
      "deleg": 4700,
      "aba": 4701,
      "abama": 4702,
      "Information": 4703,
      "progress": 4704,
      "Cho": 4705,
      "Chand": 4706,
      "Chap": 4707,
      "iller": 4708,
      "suit": 4709,
      "examin": 4710,
      "executive": 4711,
      "expected": 4712,
      "ipur": 4713,
      "quot": 4714,
      "web": 4715,
      "Anne": 4716,
      "boats": 4717,
      "negot": 4718,
      "ously": 4719,
      "bring": 4720,
      "draft": 4721,
      "Alabama": 4722,
      "ulture": 4723,
      "meas": 4724,
      "spired": 4725,
      "aired": 4726,
      "seasons": 4727,
      "format": 4728,
      "chell": 4729,
      "news": 4730,
      "newly": 4731,
      "1973": 4732,
      "1978": 4733,
      "1949": 4734,
      "underwater": 4735,
      "object": 4736,
      "prevent": 4737,
      "1939": 4738,
      "That": 4739,
      "surround": 4740,
      "Britain": 4741,
      "Forest": 4742,
      "movie": 4743,
      "caller": 4744,
      "calling": 4745,
      "Engine": 4746,
      "thematics": 4747,
      "iography": 4748,
      "foreign": 4749,
      "create": 4750,
      "flight": 4751,
      "relations": 4752,
      "cycl": 4753,
      "consin": 4754,
      "representative": 4755,
      "address": 4756,
      "background": 4757,
      "Moh": 4758,
      "referred": 4759,
      "accident": 4760,
      "accused": 4761,
      "soon": 4762,
      "ashion": 4763,
      "graduating": 4764,
      "Exchange": 4765,
      "marked": 4766,
      "little": 4767,
      "Edson": 4768,
      "activist": 4769,
      "publications": 4770,
      "ienna": 4771,
      "White": 4772,
      "ancial": 4773,
      "debuted": 4774,
      "Teh": 4775,
      "lightweight": 4776,
      "factory": 4777,
      "northwest": 4778,
      "Security": 4779,
      "smaller": 4780,
      "passing": 4781,
      "Muscat": 4782,
      "eneur": 4783,
      "metres": 4784,
      "Research": 4785,
      "visiting": 4786,
      "Martin": 4787,
      "agreement": 4788,
      "situation": 4789,
      "summit": 4790,
      "Burk": 4791,
      "doctorate": 4792,
      "Hungarian": 4793,
      "chairman": 4794,
      "electric": 4795,
      "Paralympic": 4796,
      "demonstration": 4797,
      "difficult": 4798,
      "Panama": 4799,
      "width": 4800,
      "combat": 4801,
      "associated": 4802,
      "Logistic": 4803,
      "sanctions": 4804,
      "Egyptian": 4805,
      "houses": 4806,
      "Furth": 4807,
      "platform": 4808,
      "practice": 4809,
      "Modern": 4810,
      "Naples": 4811,
      "emorial": 4812,
      "Montenegro": 4813,
      "Mitchell": 4814,
      "document": 4815,
      "narrow": 4816,
      "behaviour": 4817,
      "voyage": 4818,
      "mixed": 4819,
      "repeated": 4820,
      "casualties": 4821,
      "repreneur": 4822,
      "Album": 4823,
      "Laurent": 4824,
      "eligible": 4825,
      "premiered": 4826,
      "Propst": 4827,
      "Georgia": 4828,
      "Amritsar": 4829,
      "ligulatus": 4830,
      "Wisconsin": 4831,
      "Washington": 4832,
      "Fogerty": 4833,
      "JavaScript": 4834,
      "Special": 4835,
      "javelin": 4836,
      "starring": 4837,
      "/><": 4838,
      "01": 4839,
      "36": 4840,
      "56": 4841,
      "Abu": 4842,
      "Azer": 4843,
      "Avenue": 4844,
      "Business": 4845,
      "Black": 4846,
      "Bridge": 4847,
      "Del": 4848,
      "Dist": 4849,
      "Dak": 4850,
      "Due": 4851,
      "EA": 4852,
      "Emp": 4853,
      "Gri": 4854,
      "Galway": 4855,
      "Ghana": 4856,
      "HM": 4857,
      "Hou": 4858,
      "Hall": 4859,
      "JS": 4860,
      "Kier": 4861,
      "LC": 4862,
      "Lanc": 4863,
      "Lloy": 4864,
      "Life": 4865,
      "Mass": 4866,
      "Maim": 4867,
      "Mandy": 4868,
      "PS": 4869,
      "Pak": 4870,
      "Post": 4871,
      "PLA": 4872,
      "Ry": 4873,
      "Ran": 4874,
      "Rivers": 4875,
      "Rais": 4876,
      "Sand": 4877,
      "Sim": 4878,
      "Sus": 4879,
      "Sab": 4880,
      "Song": 4881,
      "Sett": 4882,
      "Sports": 4883,
      "Top": 4884,
      "Tok": 4885,
      "Trib": 4886,
      "Vienna": 4887,
      "Wat": 4888,
      "Year": 4889,
      "Your": 4890,
      "bid": 4891,
      "bound": 4892,
      "bai": 4893,
      "card": 4894,
      "ding": 4895,
      "dleton": 4896,
      "fans": 4897,
      "farm": 4898,
      "fashion": 4899,
      "gal": 4900,
      "gation": 4901,
      "hr": 4902,
      "ithe": 4903,
      "jur": 4904,
      "jiang": 4905,
      "ker": 4906,
      "ked": 4907,
      "lac": 4908,
      "lers": 4909,
      "mut": 4910,
      "max": 4911,
      "migr": 4912,
      "ners": 4913,
      "pict": 4914,
      "piano": 4915,
      "rum": 4916,
      "ses": 4917,
      "sides": 4918,
      "sought": 4919,
      "somet": 4920,
      "tim": 4921,
      "tie": 4922,
      "treat": 4923,
      "western": 4924,
      "ía": 4925,
      "šen": 4926,
      "hev": 4927,
      "heav": 4928,
      "ined": 4929,
      "inal": 4930,
      "theastern": 4931,
      "edge": 4932,
      "editor": 4933,
      "atap": 4934,
      "argu": 4935,
      "isa": 4936,
      "island": 4937,
      "replac": 4938,
      "ionally": 4939,
      "thin": 4940,
      "stan": 4941,
      "amateur": 4942,
      "ols": 4943,
      "1912": 4944,
      "uries": 4945,
      "secr": 4946,
      "forestry": 4947,
      "cht": 4948,
      "chyan": 4949,
      "iry": 4950,
      "irol": 4951,
      "imum": 4952,
      "agn": 4953,
      "agon": 4954,
      "lob": 4955,
      "loss": 4956,
      "deck": 4957,
      "consecr": 4958,
      "ove": 4959,
      "apore": 4960,
      "rie": 4961,
      "estimated": 4962,
      "shall": 4963,
      "occur": 4964,
      "exam": 4965,
      "Arn": 4966,
      "prais": 4967,
      "princ": 4968,
      "portray": 4969,
      "acted": 4970,
      "ogne": 4971,
      "Anth": 4972,
      "notes": 4973,
      "parties": 4974,
      "electoral": 4975,
      "serve": 4976,
      "duced": 4977,
      "reek": 4978,
      "scene": 4979,
      "choose": 4980,
      "rett": 4981,
      "appar": 4982,
      "location": 4983,
      "feel": 4984,
      "coordin": 4985,
      "News": 4986,
      "rying": 4987,
      "oldest": 4988,
      "1950": 4989,
      "1951": 4990,
      "Cologne": 4991,
      "1970s": 4992,
      "1941": 4993,
      "1947": 4994,
      "Community": 4995,
      "ibility": 4996,
      "1925": 4997,
      "aza": 4998,
      "tyard": 4999,
      "1963": 5000,
      "1967": 5001,
      "Conserv": 5002,
      "12th": 5003,
      "Forester": 5004,
      "Program": 5005,
      "ologist": 5006,
      "parent": 5007,
      "themes": 5008,
      "Atl": 5009,
      "Att": 5010,
      "ways": 5011,
      "write": 5012,
      "mayor": 5013,
      "providing": 5014,
      "jected": 5015,
      "reports": 5016,
      "settle": 5017,
      "Spain": 5018,
      "headquarters": 5019,
      "tower": 5020,
      "appearances": 5021,
      "poor": 5022,
      "Guer": 5023,
      "Both": 5024,
      "Indust": 5025,
      "supported": 5026,
      "supporting": 5027,
      "otting": 5028,
      "continue": 5029,
      "buildings": 5030,
      "Middleton": 5031,
      "Trust": 5032,
      "roads": 5033,
      "voters": 5034,
      "ukh": 5035,
      "Supreme": 5036,
      "Mont": 5037,
      "furt": 5038,
      "majority": 5039,
      "expert": 5040,
      "remains": 5041,
      "participate": 5042,
      "variety": 5043,
      "civilian": 5044,
      "degrees": 5045,
      "projects": 5046,
      "enez": 5047,
      "Cape": 5048,
      "weeks": 5049,
      "prize": 5050,
      "Reserve": 5051,
      "lecturer": 5052,
      "Chess": 5053,
      "Singapore": 5054,
      "bike": 5055,
      "changes": 5056,
      "Martres": 5057,
      "industrial": 5058,
      "constituencies": 5059,
      "Mirza": 5060,
      "baseball": 5061,
      "kingdom": 5062,
      "composed": 5063,
      "Haack": 5064,
      "Keep": 5065,
      "interests": 5066,
      "assistant": 5067,
      "Lawrence": 5068,
      "Upon": 5069,
      "Brook": 5070,
      "walls": 5071,
      "protests": 5072,
      "middleweight": 5073,
      "alleged": 5074,
      "Israeli": 5075,
      "Battle": 5076,
      "circulation": 5077,
      "ategic": 5078,
      "consisted": 5079,
      "conducted": 5080,
      "philos": 5081,
      "occupation": 5082,
      "criminal": 5083,
      "equip": 5084,
      "powered": 5085,
      "parliamentary": 5086,
      "Bihar": 5087,
      "potential": 5088,
      "earthquake": 5089,
      "mercial": 5090,
      "Nigeria": 5091,
      "concerns": 5092,
      "hundred": 5093,
      "junior": 5094,
      "punish": 5095,
      "Persian": 5096,
      "rtchyan": 5097,
      "Isabelle": 5098,
      "Bromley": 5099,
      "domestic": 5100,
      "Kangleirol": 5101,
      "Dignan": 5102,
      "Lieutenant": 5103,
      "tropical": 5104,
      "accompanied": 5105,
      "Chooglin": 5106,
      "Azerbai": 5107,
      "Empire": 5108,
      "Kieran": 5109,
      "Lloyd": 5110,
      "Maimi": 5111,
      "\"),": 5112,
      ")\"": 5113,
      "53": 5114,
      "80": 5115,
      "95": 5116,
      "=|": 5117,
      "AF": 5118,
      "Ale": 5119,
      "Amb": 5120,
      "Bat": 5121,
      "Bir": 5122,
      "Bec": 5123,
      "Broad": 5124,
      "Bern": 5125,
      "Bapt": 5126,
      "CB": 5127,
      "Call": 5128,
      "Card": 5129,
      "Clar": 5130,
      "Chen": 5131,
      "Cartel": 5132,
      "Dut": 5133,
      "Diam": 5134,
      "ED": 5135,
      "Er": 5136,
      "Es": 5137,
      "Eli": 5138,
      "Fre": 5139,
      "Finn": 5140,
      "Fried": 5141,
      "Faso": 5142,
      "Hal": 5143,
      "Hus": 5144,
      "Houth": 5145,
      "IM": 5146,
      "If": 5147,
      "Jab": 5148,
      "Jaze": 5149,
      "Kay": 5150,
      "Kén": 5151,
      "Lenn": 5152,
      "Mr": 5153,
      "Mur": 5154,
      "Mov": 5155,
      "Memorial": 5156,
      "Nan": 5157,
      "Nil": 5158,
      "Nath": 5159,
      "Pard": 5160,
      "Sil": 5161,
      "TC": 5162,
      "Tour": 5163,
      "Tang": 5164,
      "Twenty": 5165,
      "Van": 5166,
      "Zur": 5167,
      "aun": 5168,
      "bon": 5169,
      "bann": 5170,
      "cot": 5171,
      "cia": 5172,
      "categ": 5173,
      "ees": 5174,
      "eigh": 5175,
      "fill": 5176,
      "fought": 5177,
      "hour": 5178,
      "jump": 5179,
      "kin": 5180,
      "lav": 5181,
      "lah": 5182,
      "lvan": 5183,
      "mill": 5184,
      "might": 5185,
      "ni": 5186,
      "nom": 5187,
      "nob": 5188,
      "narr": 5189,
      "nature": 5190,
      "oy": 5191,
      "path": 5192,
      "paper": 5193,
      "ror": 5194,
      "rup": 5195,
      "rang": 5196,
      "rivière": 5197,
      "sun": 5198,
      "skill": 5199,
      "soccer": 5200,
      "tel": 5201,
      "tax": 5202,
      "va": 5203,
      "winter": 5204,
      "wanted": 5205,
      "zi": 5206,
      "zo": 5207,
      "zon": 5208,
      "ão": 5209,
      "ébec": 5210,
      "ür": 5211,
      "inde": 5212,
      "inqu": 5213,
      "inspired": 5214,
      "atively": 5215,
      "oria": 5216,
      "environ": 5217,
      "align": 5218,
      "altern": 5219,
      "altit": 5220,
      "asing": 5221,
      "astr": 5222,
      "ashev": 5223,
      "isher": 5224,
      "escap": 5225,
      "itch": 5226,
      "reign": 5227,
      "removed": 5228,
      "thy": 5229,
      "store": 5230,
      "entrepreneur": 5231,
      "aces": 5232,
      "aches": 5233,
      "olus": 5234,
      "1914": 5235,
      "ado": 5236,
      "adesh": 5237,
      "eler": 5238,
      "elar": 5239,
      "beat": 5240,
      "beth": 5241,
      "lying": 5242,
      "ida": 5243,
      "ider": 5244,
      "unal": 5245,
      "unus": 5246,
      "units": 5247,
      "univers": 5248,
      "aya": 5249,
      "agric": 5250,
      "byshire": 5251,
      "deep": 5252,
      "const": 5253,
      "convict": 5254,
      "connect": 5255,
      "ables": 5256,
      "utor": 5257,
      "why": 5258,
      "ová": 5259,
      "eston": 5260,
      "article": 5261,
      "alled": 5262,
      "allies": 5263,
      "aine": 5264,
      "technology": 5265,
      "ević": 5266,
      "plus": 5267,
      "plant": 5268,
      "plants": 5269,
      "earn": 5270,
      "propos": 5271,
      "Champion": 5272,
      "osun": 5273,
      "excl": 5274,
      "exiled": 5275,
      "traff": 5276,
      "training": 5277,
      "granted": 5278,
      "Stud": 5279,
      "quick": 5280,
      "complete": 5281,
      "assy": 5282,
      "elling": 5283,
      "icted": 5284,
      "actress": 5285,
      "actually": 5286,
      "ogami": 5287,
      "offs": 5288,
      "needed": 5289,
      "brand": 5290,
      "duo": 5291,
      "izes": 5292,
      "attached": 5293,
      "Marie": 5294,
      "driving": 5295,
      "inda": 5296,
      "1980s": 5297,
      "idea": 5298,
      "scoring": 5299,
      "Leik": 5300,
      "raise": 5301,
      "Asia": 5302,
      "identify": 5303,
      "strength": 5304,
      "spect": 5305,
      "speaking": 5306,
      "coast": 5307,
      "color": 5308,
      "ensus": 5309,
      "knock": 5310,
      "gener": 5311,
      "1957": 5312,
      "films": 5313,
      "chester": 5314,
      "Colomb": 5315,
      "aily": 5316,
      "visited": 5317,
      "1945": 5318,
      "Communist": 5319,
      "unting": 5320,
      "cert": 5321,
      "obtained": 5322,
      "founding": 5323,
      "1922": 5324,
      "tennis": 5325,
      "Prince": 5326,
      "Pratap": 5327,
      "1935": 5328,
      "1930s": 5329,
      "1962": 5330,
      "1964": 5331,
      "iera": 5332,
      "Through": 5333,
      "intercept": 5334,
      "icks": 5335,
      "Proton": 5336,
      "direction": 5337,
      "rown": 5338,
      "provide": 5339,
      "Peace": 5340,
      "produce": 5341,
      "sylvan": 5342,
      "Johann": 5343,
      "Poland": 5344,
      "consists": 5345,
      "operated": 5346,
      "Adashev": 5347,
      "courtyard": 5348,
      "featuring": 5349,
      "tainment": 5350,
      "Guard": 5351,
      "Portage": 5352,
      "refused": 5353,
      "function": 5354,
      "Associ": 5355,
      "Library": 5356,
      "describes": 5357,
      "facilities": 5358,
      "1907": 5359,
      "Executive": 5360,
      "capital": 5361,
      "audience": 5362,
      "Malays": 5363,
      "Elpro": 5364,
      "Team": 5365,
      "Teacher": 5366,
      "felt": 5367,
      "joining": 5368,
      "decision": 5369,
      "succession": 5370,
      "towns": 5371,
      "issue": 5372,
      "Barb": 5373,
      "Morales": 5374,
      "pursu": 5375,
      "Ruby": 5376,
      "Week": 5377,
      "holds": 5378,
      "borough": 5379,
      "organizations": 5380,
      "Revival": 5381,
      "funded": 5382,
      "Singles": 5383,
      "Québec": 5384,
      "focuses": 5385,
      "involvement": 5386,
      "Camosun": 5387,
      "itarian": 5388,
      "controlled": 5389,
      "Serb": 5390,
      "Series": 5391,
      "initi": 5392,
      "Miles": 5393,
      "Hotel": 5394,
      "Naito": 5395,
      "childhood": 5396,
      "commissioner": 5397,
      "formalized": 5398,
      "Southern": 5399,
      "saying": 5400,
      "square": 5401,
      "twice": 5402,
      "reporter": 5403,
      "concluded": 5404,
      "toponymie": 5405,
      "policy": 5406,
      "Denisen": 5407,
      "Stokes": 5408,
      "Imran": 5409,
      "Tammy": 5410,
      "happened": 5411,
      "painting": 5412,
      "paintings": 5413,
      "Carolina": 5414,
      "Bandiera": 5415,
      "Gallery": 5416,
      "Rangers": 5417,
      "Bacelar": 5418,
      "Corporation": 5419,
      "Again": 5420,
      "watersheds": 5421,
      "accepted": 5422,
      "Chicago": 5423,
      "Federation": 5424,
      "Michel": 5425,
      "Network": 5426,
      "neighbor": 5427,
      "vehicles": 5428,
      "camera": 5429,
      "acquired": 5430,
      "problems": 5431,
      "Railway": 5432,
      "miral": 5433,
      "Armenia": 5434,
      "introduced": 5435,
      "Korean": 5436,
      "varanopids": 5437,
      "Antonio": 5438,
      "religious": 5439,
      "destroyed": 5440,
      "Uzbekistan": 5441,
      "Citizens": 5442,
      "selected": 5443,
      "comedy": 5444,
      "shouted": 5445,
      "Gaynor": 5446,
      "Qatar": 5447,
      "Zionist": 5448,
      "abandoned": 5449,
      "Chanelle": 5450,
      "Palestinian": 5451,
      "Brandisová": 5452,
      "Derbyshire": 5453,
      "Eagle": 5454,
      "Burkina": 5455,
      "Laurentides": 5456,
      "Dakota": 5457,
      "Sabha": 5458,
      "Tribunal": 5459,
      "Arnold": 5460,
      "Atlant": 5461,
      "Azerbaijan": 5462,
      "Baptist": 5463,
      "Dutch": 5464,
      "Diamond": 5465,
      "Finnish": 5466,
      "Houthi": 5467,
      "Jazeera": 5468,
      "altitude": 5469,
      "Denisenko": 5470,
      "\").": 5471,
      "34": 5472,
      "64": 5473,
      "70": 5474,
      "75": 5475,
      "98": 5476,
      "Agr": 5477,
      "BO": 5478,
      "Bul": 5479,
      "Bens": 5480,
      "Buc": 5481,
      "Bagh": 5482,
      "CH": 5483,
      "Cat": 5484,
      "Catin": 5485,
      "DR": 5486,
      "Dub": 5487,
      "Down": 5488,
      "Dele": 5489,
      "Domin": 5490,
      "Gal": 5491,
      "Governor": 5492,
      "Hug": 5493,
      "Hannah": 5494,
      "Ily": 5495,
      "Iow": 5496,
      "JD": 5497,
      "Joffrey": 5498,
      "Kas": 5499,
      "Kath": 5500,
      "Lin": 5501,
      "Lak": 5502,
      "Lady": 5503,
      "Ms": 5504,
      "Mel": 5505,
      "Miss": 5506,
      "Maur": 5507,
      "Naz": 5508,
      "NAS": 5509,
      "Nasz": 5510,
      "Pope": 5511,
      "Ron": 5512,
      "Riche": 5513,
      "Rima": 5514,
      "Sar": 5515,
      "Sad": 5516,
      "Sop": 5517,
      "Sask": 5518,
      "Spring": 5519,
      "Tar": 5520,
      "Tit": 5521,
      "Ul": 5522,
      "Vol": 5523,
      "Vict": 5524,
      "Vran": 5525,
      "Vert": 5526,
      "WF": 5527,
      "XI": 5528,
      "_Moirang_": 5529,
      "aer": 5530,
      "bol": 5531,
      "bad": 5532,
      "bill": 5533,
      "bast": 5534,
      "ci": 5535,
      "cu": 5536,
      "cited": 5537,
      "cities": 5538,
      "cause": 5539,
      "dy": 5540,
      "dan": 5541,
      "dated": 5542,
      "divis": 5543,
      "dark": 5544,
      "fa": 5545,
      "frequ": 5546,
      "fuel": 5547,
      "give": 5548,
      "gained": 5549,
      "gaining": 5550,
      "iy": 5551,
      "iew": 5552,
      "kay": 5553,
      "kut": 5554,
      "kept": 5555,
      "len": 5556,
      "laid": 5557,
      "mere": 5558,
      "mine": 5559,
      "muses": 5560,
      "ois": 5561,
      "pil": 5562,
      "pret": 5563,
      "soft": 5564,
      "til": 5565,
      "tun": 5566,
      "tier": 5567,
      "tmann": 5568,
      "uan": 5569,
      "uana": 5570,
      "uven": 5571,
      "ucture": 5572,
      "ved": 5573,
      "wart": 5574,
      "wild": 5575,
      "worth": 5576,
      "yard": 5577,
      "ály": 5578,
      "”,": 5579,
      "”.": 5580,
      "hest": 5581,
      "heart": 5582,
      "inces": 5583,
      "inside": 5584,
      "inhab": 5585,
      "inaug": 5586,
      "ori": 5587,
      "ency": 5588,
      "aru": 5589,
      "aria": 5590,
      "alg": 5591,
      "asy": 5592,
      "itary": 5593,
      "icy": 5594,
      "inger": 5595,
      "thank": 5596,
      "stations": 5597,
      "stey": 5598,
      "stained": 5599,
      "status": 5600,
      "entry": 5601,
      "aman": 5602,
      "amich": 5603,
      "olished": 5604,
      "1913": 5605,
      "advan": 5606,
      "urs": 5607,
      "seg": 5608,
      "elop": 5609,
      "royal": 5610,
      "tery": 5611,
      "eme": 5612,
      "lyn": 5613,
      "imb": 5614,
      "agg": 5615,
      "loons": 5616,
      "isten": 5617,
      "withdraw": 5618,
      "abon": 5619,
      "restr": 5620,
      "reserv": 5621,
      "resolution": 5622,
      "opport": 5623,
      "ovo": 5624,
      "apest": 5625,
      "applied": 5626,
      "uments": 5627,
      "shared": 5628,
      "therlands": 5629,
      "earning": 5630,
      "Chaz": 5631,
      "lder": 5632,
      "icht": 5633,
      "ipal": 5634,
      "trig": 5635,
      "trail": 5636,
      "iful": 5637,
      "odg": 5638,
      "mentioned": 5639,
      "Staf": 5640,
      "merchant": 5641,
      "outbreak": 5642,
      "complex": 5643,
      "assigned": 5644,
      "orning": 5645,
      "awar": 5646,
      "oke": 5647,
      "ogamich": 5648,
      "library": 5649,
      "presence": 5650,
      "offer": 5651,
      "Anstey": 5652,
      "osty": 5653,
      "polo": 5654,
      "Maria": 5655,
      "Margar": 5656,
      "dram": 5657,
      "Alam": 5658,
      "inders": 5659,
      "1990s": 5660,
      "inton": 5661,
      "apped": 5662,
      "Lee": 5663,
      "dismiss": 5664,
      "spons": 5665,
      "recent": 5666,
      "struck": 5667,
      "speed": 5668,
      "fected": 5669,
      "knew": 5670,
      "1954": 5671,
      "credited": 5672,
      "Common": 5673,
      "undergraduate": 5674,
      "understanding": 5675,
      "observ": 5676,
      "foundation": 5677,
      "numerous": 5678,
      "type": 5679,
      "Pradesh": 5680,
      "1960s": 5681,
      "surfaced": 5682,
      "maintain": 5683,
      "Proble": 5684,
      "System": 5685,
      "ouple": 5686,
      "Gram": 5687,
      "sell": 5688,
      "inner": 5689,
      "invent": 5690,
      "suppress": 5691,
      "musicians": 5692,
      "effort": 5693,
      "Olympic": 5694,
      "flag": 5695,
      "symb": 5696,
      "transition": 5697,
      "Carlos": 5698,
      "Austrian": 5699,
      "Report": 5700,
      "Mayor": 5701,
      "Hispan": 5702,
      "depth": 5703,
      "deploy": 5704,
      "appears": 5705,
      "pool": 5706,
      "Moham": 5707,
      "Neag": 5708,
      "Netherlands": 5709,
      "otti": 5710,
      "emphas": 5711,
      "hydro": 5712,
      "solid": 5713,
      "demands": 5714,
      "returning": 5715,
      "Manuel": 5716,
      "incorp": 5717,
      "politicians": 5718,
      "Among": 5719,
      "Amtmann": 5720,
      "Coast": 5721,
      "posts": 5722,
      "Stephen": 5723,
      "communities": 5724,
      "villages": 5725,
      "showed": 5726,
      "Alliance": 5727,
      "models": 5728,
      "1895": 5729,
      "nomination": 5730,
      "harmon": 5731,
      "distance": 5732,
      "cases": 5733,
      "sky": 5734,
      "Abd": 5735,
      "Abdi": 5736,
      "characters": 5737,
      "uela": 5738,
      "shortly": 5739,
      "Philos": 5740,
      "prior": 5741,
      "meetings": 5742,
      "soul": 5743,
      "funds": 5744,
      "Woodburn": 5745,
      "honour": 5746,
      "consider": 5747,
      "engineering": 5748,
      "Doctor": 5749,
      "Defence": 5750,
      "Holy": 5751,
      "administration": 5752,
      "doctoral": 5753,
      "susp": 5754,
      "culture": 5755,
      "valley": 5756,
      "prisoners": 5757,
      "keeping": 5758,
      "Stra": 5759,
      "Strategic": 5760,
      "Provosty": 5761,
      "deliver": 5762,
      "Naisten": 5763,
      "1920s": 5764,
      "finishing": 5765,
      "weapon": 5766,
      "Ballet": 5767,
      "Budaun": 5768,
      "Budapest": 5769,
      "silver": 5770,
      "squad": 5771,
      "Akkay": 5772,
      "History": 5773,
      "widely": 5774,
      "individual": 5775,
      "autiful": 5776,
      "crosses": 5777,
      "tractor": 5778,
      "designated": 5779,
      "Loyal": 5780,
      "Survey": 5781,
      "Tayside": 5782,
      "conduct": 5783,
      "collaboration": 5784,
      "Corps": 5785,
      "Garrett": 5786,
      "statement": 5787,
      "particularly": 5788,
      "Mkrtchyan": 5789,
      "scientific": 5790,
      "highest": 5791,
      "Andrade": 5792,
      "captured": 5793,
      "corner": 5794,
      "institutions": 5795,
      "separate": 5796,
      "agogue": 5797,
      "Leader": 5798,
      "broadcast": 5799,
      "Roches": 5800,
      "preserved": 5801,
      "Islamic": 5802,
      "Basel": 5803,
      "inema": 5804,
      "Girls": 5805,
      "Konheim": 5806,
      "Local": 5807,
      "Wildlife": 5808,
      "favor": 5809,
      "appeal": 5810,
      "affiliated": 5811,
      "Piekut": 5812,
      "Ratabon": 5813,
      "academic": 5814,
      "Albums": 5815,
      "ithel": 5816,
      "picture": 5817,
      "Attorney": 5818,
      "Lennon": 5819,
      "Twenty20": 5820,
      "eighth": 5821,
      "rupt": 5822,
      "Iowa": 5823,
      "Naszály": 5824,
      "Saskat": 5825,
      "Vranić": 5826,
      "ogamichiche": 5827,
      "Akkaynak": 5828,
      "Naszályi": 5829,
      "\";": 5830,
      "(,": 5831,
      "().": 5832,
      "//": 5833,
      "65": 5834,
      "6ix": 5835,
      "://": 5836,
      "AT": 5837,
      "Aé": 5838,
      "Ach": 5839,
      "Auth": 5840,
      "Alder": 5841,
      "Bh": 5842,
      "Ban": 5843,
      "Bet": 5844,
      "Bris": 5845,
      "Bunch": 5846,
      "BBC": 5847,
      "Cab": 5848,
      "Circ": 5849,
      "Divis": 5850,
      "Dale": 5851,
      "Dmit": 5852,
      "Each": 5853,
      "Esc": 5854,
      "Ebu": 5855,
      "Econom": 5856,
      "Elect": 5857,
      "Fac": 5858,
      "Five": 5859,
      "F13": 5860,
      "Frid": 5861,
      "Gut": 5862,
      "Gib": 5863,
      "Hu": 5864,
      "Hin": 5865,
      "Hel": 5866,
      "Ja": 5867,
      "Jaff": 5868,
      "Journal": 5869,
      "Kun": 5870,
      "LL": 5871,
      "Lat": 5872,
      "Land": 5873,
      "Lim": 5874,
      "Lew": 5875,
      "Mer": 5876,
      "Mam": 5877,
      "Many": 5878,
      "Mike": 5879,
      "Night": 5880,
      "Nash": 5881,
      "Nicol": 5882,
      "OS": 5883,
      "Op": 5884,
      "Oce": 5885,
      "Ober": 5886,
      "PD": 5887,
      "Prom": 5888,
      "Pop": 5889,
      "Page": 5890,
      "Ric": 5891,
      "Rubber": 5892,
      "Sri": 5893,
      "Sud": 5894,
      "Sport": 5895,
      "Tac": 5896,
      "Tim": 5897,
      "Tot": 5898,
      "Tong": 5899,
      "Tele": 5900,
      "Vá": 5901,
      "Vij": 5902,
      "WI": 5903,
      "Wel": 5904,
      "Yaz": 5905,
      "Yuen": 5906,
      "Zab": 5907,
      "_Part": 5908,
      "_Thangjing": 5909,
      "abet": 5910,
      "bs": 5911,
      "bay": 5912,
      "bers": 5913,
      "bant": 5914,
      "billion": 5915,
      "bishop": 5916,
      "couple": 5917,
      "dale": 5918,
      "dimin": 5919,
      "daily": 5920,
      "fal": 5921,
      "fit": 5922,
      "fic": 5923,
      "figh": 5924,
      "gre": 5925,
      "ging": 5926,
      "gall": 5927,
      "gain": 5928,
      "gated": 5929,
      "gely": 5930,
      "gives": 5931,
      "hid": 5932,
      "hair": 5933,
      "horse": 5934,
      "htt": 5935,
      "ias": 5936,
      "iade": 5937,
      "ión": 5938,
      "iya": 5939,
      "lay": 5940,
      "mic": 5941,
      "mist": 5942,
      "mall": 5943,
      "morning": 5944,
      "oid": 5945,
      "pao": 5946,
      "rc": 5947,
      "rue": 5948,
      "spl": 5949,
      "saved": 5950,
      "src": 5951,
      "tation": 5952,
      "tend": 5953,
      "tank": 5954,
      "temporary": 5955,
      "ule": 5956,
      "var": 5957,
      "vine": 5958,
      "wr": 5959,
      "wick": 5960,
      "yev": 5961,
      "your": 5962,
      "zent": 5963,
      "zens": 5964,
      "ás": 5965,
      "ün": 5966,
      "čević": 5967,
      "ņš": 5968,
      "ūmi": 5969,
      "’,": 5970,
      "hearing": 5971,
      "inity": 5972,
      "instr": 5973,
      "anim": 5974,
      "theat": 5975,
      "theater": 5976,
      "ergy": 5977,
      "atures": 5978,
      "eno": 5979,
      "enough": 5980,
      "enced": 5981,
      "arrest": 5982,
      "esc": 5983,
      "essee": 5984,
      "ita": 5985,
      "items": 5986,
      "reated": 5987,
      "rebell": 5988,
      "ingu": 5989,
      "oubi": 5990,
      "ou_Thangjing": 5991,
      "ommers": 5992,
      "leaving": 5993,
      "tha": 5994,
      "thou_Thangjing": 5995,
      "sty": 5996,
      "amount": 5997,
      "amweight": 5998,
      "acres": 5999,
      "1910": 6000,
      "adj": 6001,
      "seas": 6002,
      "forest": 6003,
      "forts": 6004,
      "forcement": 6005,
      "chw": 6006,
      "Theater": 6007,
      "tershire": 6008,
      "tertainment": 6009,
      "bey": 6010,
      "bear": 6011,
      "lywood": 6012,
      "une": 6013,
      "unte": 6014,
      "igence": 6015,
      "imi": 6016,
      "imov": 6017,
      "improved": 6018,
      "immigr": 6019,
      "ctic": 6020,
      "agu": 6021,
      "ager": 6022,
      "lov": 6023,
      "isted": 6024,
      "determin": 6025,
      "convers": 6026,
      "etc": 6027,
      "above": 6028,
      "resear": 6029,
      "reserve": 6030,
      "uting": 6031,
      "Intern": 6032,
      "Independ": 6033,
      "commercial": 6034,
      "aps": 6035,
      "umed": 6036,
      "rik": 6037,
      "rio": 6038,
      "riers": 6039,
      "riage": 6040,
      "este": 6041,
      "ulated": 6042,
      "tegr": 6043,
      "eves": 6044,
      "plic": 6045,
      "plans": 6046,
      "prob": 6047,
      "prox": 6048,
      "proce": 6049,
      "proposed": 6050,
      "illery": 6051,
      "extra": 6052,
      "arden": 6053,
      "trou": 6054,
      "train": 6055,
      "trade": 6056,
      "iah": 6057,
      "auke": 6058,
      "manipur": 6059,
      "grant": 6060,
      "Station": 6061,
      "antly": 6062,
      "quest": 6063,
      "outimi": 6064,
      "epSub": 6065,
      "prime": 6066,
      "firing": 6067,
      "elli": 6068,
      "awa": 6069,
      "ogy": 6070,
      "acks": 6071,
      "lib": 6072,
      "parts": 6073,
      "ownership": 6074,
      "shel": 6075,
      "elev": 6076,
      "attend": 6077,
      "orders": 6078,
      "lets": 6079,
      "letters": 6080,
      "intendant": 6081,
      "ultane": 6082,
      "iece": 6083,
      "sche": 6084,
      "Leban": 6085,
      "marched": 6086,
      "disband": 6087,
      "space": 6088,
      "identity": 6089,
      "Pars": 6090,
      "condition": 6091,
      "colony": 6092,
      "athlete": 6093,
      "Reading": 6094,
      "buy": 6095,
      "16th": 6096,
      "cestershire": 6097,
      "minor": 6098,
      "Environ": 6099,
      "Entertainment": 6100,
      "myster": 6101,
      "anyone": 6102,
      "curler": 6103,
      "contains": 6104,
      "Colonel": 6105,
      "ption": 6106,
      "presents": 6107,
      "prelim": 6108,
      "politan": 6109,
      "Prim": 6110,
      "icked": 6111,
      "Forestry": 6112,
      "Arabian": 6113,
      "calls": 6114,
      "Gradu": 6115,
      "engines": 6116,
      "Junction": 6117,
      "efforts": 6118,
      "largely": 6119,
      "Peters": 6120,
      "ivism": 6121,
      "cylin": 6122,
      "asks": 6123,
      "guilty": 6124,
      "Planning": 6125,
      "titles": 6126,
      "representation": 6127,
      "operating": 6128,
      "moned": 6129,
      "anka": 6130,
      "feature": 6131,
      "fti": 6132,
      "Phys": 6133,
      "ariat": 6134,
      "classic": 6135,
      "classification": 6136,
      "backdoor": 6137,
      "killing": 6138,
      "Boys": 6139,
      "broken": 6140,
      "records": 6141,
      "struct": 6142,
      "structure": 6143,
      "Libert": 6144,
      "closure": 6145,
      "expanded": 6146,
      "Extractor": 6147,
      "capable": 6148,
      "grapher": 6149,
      "continues": 6150,
      "restoration": 6151,
      "Malta": 6152,
      "brew": 6153,
      "Household": 6154,
      "Computer": 6155,
      "defense": 6156,
      "worldwide": 6157,
      "successfully": 6158,
      "Palace": 6159,
      "testing": 6160,
      "Educational": 6161,
      "1890": 6162,
      "collections": 6163,
      "Castro": 6164,
      "Schommers": 6165,
      "Yemeni": 6166,
      "passes": 6167,
      "completely": 6168,
      "Moroc": 6169,
      "distributed": 6170,
      "remaining": 6171,
      "racy": 6172,
      "raclit": 6173,
      "secret": 6174,
      "castle": 6175,
      "participation": 6176,
      "Musik": 6177,
      "burgh": 6178,
      "justice": 6179,
      "risk": 6180,
      "Debor": 6181,
      "holding": 6182,
      "priest": 6183,
      "simultane": 6184,
      "Airport": 6185,
      "amongst": 6186,
      "Singh": 6187,
      "investigate": 6188,
      "moy": 6189,
      "youngest": 6190,
      "focused": 6191,
      "historian": 6192,
      "Karol": 6193,
      "wooden": 6194,
      "Desande": 6195,
      "composition": 6196,
      "Keithel": 6197,
      "summoned": 6198,
      "Mufti": 6199,
      "Prize": 6200,
      "assistance": 6201,
      "initially": 6202,
      "Idlib": 6203,
      "mathematics": 6204,
      "grounds": 6205,
      "Jacques": 6206,
      "network": 6207,
      "importance": 6208,
      "commissioned": 6209,
      "influen": 6210,
      "approx": 6211,
      "Develop": 6212,
      "silent": 6213,
      "explosion": 6214,
      "Kurds": 6215,
      "Battalion": 6216,
      "chers": 6217,
      "conflu": 6218,
      "targets": 6219,
      "STIM": 6220,
      "zhong": 6221,
      "expressed": 6222,
      "Stock": 6223,
      "sexual": 6224,
      "criticized": 6225,
      "Duke": 6226,
      "Taylor": 6227,
      "Fermoy": 6228,
      "Krist": 6229,
      "Krūmi": 6230,
      "Masters": 6231,
      "attempts": 6232,
      "regarding": 6233,
      "guests": 6234,
      "Copa": 6235,
      "entirely": 6236,
      "collabor": 6237,
      "Ukraine": 6238,
      "Bachelor": 6239,
      "Jonoubi": 6240,
      "Tunis": 6241,
      "occasions": 6242,
      "arranged": 6243,
      "arrangement": 6244,
      "Moirang_Kangleirol": 6245,
      "KR3": 6246,
      "higher": 6247,
      "preceding": 6248,
      "Chicoutimi": 6249,
      "tributary": 6250,
      "Universiade": 6251,
      "Boris": 6252,
      "performing": 6253,
      "Historic": 6254,
      "Aviv": 6255,
      "Racing": 6256,
      "thousands": 6257,
      "improvis": 6258,
      "HESTIM": 6259,
      "IBM": 6260,
      "Stanley": 6261,
      "assignments": 6262,
      "consultant": 6263,
      "automatically": 6264,
      "Fellow": 6265,
      "Makee": 6266,
      "Tetraclit": 6267,
      "suffered": 6268,
      "Previous": 6269,
      "Pierre": 6270,
      "Tennessee": 6271,
      "diplomatic": 6272,
      "Commissar": 6273,
      "Pennsylvan": 6274,
      "adopted": 6275,
      "Engineering": 6276,
      "Tehran": 6277,
      "maximum": 6278,
      "sometimes": 6279,
      "Anthony": 6280,
      "equipment": 6281,
      "Eliza": 6282,
      "Husse": 6283,
      "Kénogamichiche": 6284,
      "narrative": 6285,
      "universities": 6286,
      "Leikai": 6287,
      "Dubai": 6288,
      "advanced": 6289,
      "Commonwealth": 6290,
      "Loyalist": 6291,
      "Bristol": 6292,
      "Ebuthou_Thangjing": 6293,
      "Faculty": 6294,
      "Friday": 6295,
      "Nashville": 6296,
      "PageExtractor": 6297,
      "Yazidi": 6298,
      "_Part_": 6299,
      "bantamweight": 6300,
      "http": 6301,
      "aukee": 6302,
      "epSubPageExtractor": 6303,
      "preliminary": 6304,
      "Deborah": 6305,
      "Development": 6306,
      "Krūmiņš": 6307,
      "Pennsylvania": 6308,
      "!\"": 6309,
      "\"|": 6310,
      "09": 6311,
      "300": 6312,
      "42": 6313,
      "44": 6314,
      "55": 6315,
      "6th": 6316,
      "87": 6317,
      "Au": 6318,
      "Aut": 6319,
      "Aqu": 6320,
      "Agu": 6321,
      "Agency": 6322,
      "Bü": 6323,
      "Blo": 6324,
      "Bak": 6325,
      "Bost": 6326,
      "Beng": 6327,
      "Bush": 6328,
      "Ce": 6329,
      "Cro": 6330,
      "Corn": 6331,
      "Cell": 6332,
      "Cele": 6333,
      "Cinema": 6334,
      "Det": 6335,
      "Dyer": 6336,
      "ES": 6337,
      "Emer": 6338,
      "Eug": 6339,
      "Eric": 6340,
      "Event": 6341,
      "Fon": 6342,
      "Four": 6343,
      "Free": 6344,
      "Food": 6345,
      "Father": 6346,
      "Front": 6347,
      "Future": 6348,
      "Festival": 6349,
      "Glo": 6350,
      "Gess": 6351,
      "Greg": 6352,
      "Graz": 6353,
      "HS": 6354,
      "Hy": 6355,
      "Hé": 6356,
      "Hom": 6357,
      "Having": 6358,
      "Heves": 6359,
      "Ib": 6360,
      "Jam": 6361,
      "Jall": 6362,
      "Judge": 6363,
      "Ka": 6364,
      "Kel": 6365,
      "KBO": 6366,
      "Lot": 6367,
      "Liver": 6368,
      "Living": 6369,
      "Má": 6370,
      "Mang": 6371,
      "Maj": 6372,
      "Nak": 6373,
      "Nations": 6374,
      "OM": 6375,
      "Our": 6376,
      "Ori": 6377,
      "Ped": 6378,
      "Pen": 6379,
      "Pac": 6380,
      "Pur": 6381,
      "Pere": 6382,
      "Point": 6383,
      "Psy": 6384,
      "Pash": 6385,
      "PST": 6386,
      "Red": 6387,
      "Rag": 6388,
      "Round": 6389,
      "Sav": 6390,
      "Sex": 6391,
      "Sult": 6392,
      "Six": 6393,
      "Soci": 6394,
      "SDF": 6395,
      "Ty": 6396,
      "Tad": 6397,
      "Tir": 6398,
      "Troy": 6399,
      "Tcha": 6400,
      "UV": 6401,
      "Ut": 6402,
      "Vin": 6403,
      "Ver": 6404,
      "Vel": 6405,
      "Vid": 6406,
      "Viet": 6407,
      "Whe": 6408,
      "Wor": 6409,
      "Wake": 6410,
      "Woman": 6411,
      "Yer": 6412,
      "Yur": 6413,
      "Zom": 6414,
      "Zhang": 6415,
      "_Ebuthou_Thangjing": 6416,
      "bit": 6417,
      "bud": 6418,
      "cow": 6419,
      "cash": 6420,
      "caught": 6421,
      "crossing": 6422,
      "dd": 6423,
      "dance": 6424,
      "dress": 6425,
      "dimens": 6426,
      "eor": 6427,
      "eth": 6428,
      "fict": 6429,
      "fake": 6430,
      "fied": 6431,
      "fix": 6432,
      "giving": 6433,
      "gars": 6434,
      "hin": 6435,
      "hall": 6436,
      "horn": 6437,
      "hired": 6438,
      "iers": 6439,
      "iop": 6440,
      "ients": 6441,
      "jer": 6442,
      "juven": 6443,
      "jeno": 6444,
      "kott": 6445,
      "lon": 6446,
      "lakes": 6447,
      "mal": 6448,
      "must": 6449,
      "male": 6450,
      "makes": 6451,
      "ng": 6452,
      "nic": 6453,
      "nut": 6454,
      "nations": 6455,
      "native": 6456,
      "oe": 6457,
      "pin": 6458,
      "pon": 6459,
      "pages": 6460,
      "rick": 6461,
      "sack": 6462,
      "save": 6463,
      "source": 6464,
      "sailing": 6465,
      "tort": 6466,
      "tub": 6467,
      "tree": 6468,
      "tied": 6469,
      "tien": 6470,
      "temper": 6471,
      "vian": 6472,
      "wed": 6473,
      "xin": 6474,
      "yards": 6475,
      "zha": 6476,
      "ination": 6477,
      "indu": 6478,
      "anom": 6479,
      "eron": 6480,
      "orre": 6481,
      "orus": 6482,
      "orrow": 6483,
      "oratory": 6484,
      "ensure": 6485,
      "encounter": 6486,
      "enjoy": 6487,
      "ardi": 6488,
      "alam": 6489,
      "alone": 6490,
      "alph": 6491,
      "asa": 6492,
      "ases": 6493,
      "asium": 6494,
      "assembly": 6495,
      "ishes": 6496,
      "itz": 6497,
      "itable": 6498,
      "itled": 6499,
      "itants": 6500,
      "anding": 6501,
      "and_Ebuthou_Thangjing": 6502,
      "rear": 6503,
      "reli": 6504,
      "reform": 6505,
      "rector": 6506,
      "reality": 6507,
      "remove": 6508,
      "icit": 6509,
      "touch": 6510,
      "oming": 6511,
      "lech": 6512,
      "lection": 6513,
      "thir": 6514,
      "stra": 6515,
      "stating": 6516,
      "iland": 6517,
      "illo": 6518,
      "ilio": 6519,
      "urban": 6520,
      "search": 6521,
      "forec": 6522,
      "chy": 6523,
      "chan": 6524,
      "chance": 6525,
      "chron": 6526,
      "channel": 6527,
      "elder": 6528,
      "elco": 6529,
      "Then": 6530,
      "iva": 6531,
      "ivas": 6532,
      "ivated": 6533,
      "terms": 6534,
      "beach": 6535,
      "behalf": 6536,
      "becomes": 6537,
      "uns": 6538,
      "unorganized": 6539,
      "image": 6540,
      "agues": 6541,
      "istance": 6542,
      "dev": 6543,
      "consequ": 6544,
      "ettle": 6545,
      "abs": 6546,
      "abuse": 6547,
      "resc": 6548,
      "resigned": 6549,
      "uties": 6550,
      "oplan": 6551,
      "ovsky": 6552,
      "Inn": 6553,
      "comics": 6554,
      "shar": 6555,
      "share": 6556,
      "shaft": 6557,
      "shmi": 6558,
      "shape": 6559,
      "avoid": 6560,
      "evan": 6561,
      "Hebrew": 6562,
      "proclaimed": 6563,
      "akia": 6564,
      "ishing": 6565,
      "Chlo": 6566,
      "Chile": 6567,
      "Chikko": 6568,
      "suck": 6569,
      "suff": 6570,
      "osa": 6571,
      "oss": 6572,
      "osaur": 6573,
      "exec": 6574,
      "examp": 6575,
      "excess": 6576,
      "trust": 6577,
      "trained": 6578,
      "affected": 6579,
      "grin": 6580,
      "herit": 6581,
      "heric": 6582,
      "merges": 6583,
      "Around": 6584,
      "Armed": 6585,
      "Araru": 6586,
      "ubice": 6587,
      "overseas": 6588,
      "serial": 6589,
      "sertation": 6590,
      "angel": 6591,
      "ported": 6592,
      "1837": 6593,
      "1857": 6594,
      "eces": 6595,
      "perial": 6596,
      "ranjeno": 6597,
      "oker": 6598,
      "okkott": 6599,
      "whole": 6600,
      "offensive": 6601,
      "boat": 6602,
      "boards": 6603,
      "boys": 6604,
      "note": 6605,
      "oussac": 6606,
      "iversary": 6607,
      "Marc": 6608,
      "Marines": 6609,
      "Marshall": 6610,
      "Albert": 6611,
      "indicated": 6612,
      "ordinary": 6613,
      "medium": 6614,
      "intens": 6615,
      "ultural": 6616,
      "scr": 6617,
      "scar": 6618,
      "chooglin": 6619,
      "apple": 6620,
      "displaced": 6621,
      "dissertation": 6622,
      "meters": 6623,
      "Shrop": 6624,
      "recru": 6625,
      "Paragu": 6626,
      "strugg": 6627,
      "commended": 6628,
      "feather": 6629,
      "financial": 6630,
      "code": 6631,
      "cooperation": 6632,
      "annon": 6633,
      "cold": 6634,
      "colleg": 6635,
      "collap": 6636,
      "regime": 6637,
      "ikovsky": 6638,
      "Real": 6639,
      "cred": 6640,
      "crime": 6641,
      "cheese": 6642,
      "check": 6643,
      "contained": 6644,
      "contemporary": 6645,
      "Collin": 6646,
      "aham": 6647,
      "Commander": 6648,
      "specified": 6649,
      "azar": 6650,
      "ilding": 6651,
      "1931": 6652,
      "1933": 6653,
      "Convention": 6654,
      "survey": 6655,
      "someone": 6656,
      "something": 6657,
      "Syl": 6658,
      "engaged": 6659,
      "doing": 6660,
      "dozen": 6661,
      "numbered": 6662,
      "suppl": 6663,
      "supplied": 6664,
      "carrying": 6665,
      "150": 6666,
      "families": 6667,
      "Regina": 6668,
      "Places": 6669,
      "Sebast": 6670,
      "representatives": 6671,
      "attackers": 6672,
      "Franz": 6673,
      "classes": 6674,
      "poems": 6675,
      "Guang": 6676,
      "reference": 6677,
      "Nezha": 6678,
      "Box": 6679,
      "Minor": 6680,
      "starts": 6681,
      "refers": 6682,
      "Democrats": 6683,
      "describing": 6684,
      "developing": 6685,
      "11th": 6686,
      "Exper": 6687,
      "handling": 6688,
      "lasted": 6689,
      "incumbent": 6690,
      "Edgars": 6691,
      "ienced": 6692,
      "lawyer": 6693,
      "Belgian": 6694,
      "reading": 6695,
      "voter": 6696,
      "1881": 6697,
      "1884": 6698,
      "1886": 6699,
      "resulting": 6700,
      "uka": 6701,
      "Irvine": 6702,
      "Christchurch": 6703,
      "Secret": 6704,
      "announcement": 6705,
      "experienced": 6706,
      "Harold": 6707,
      "Morris": 6708,
      "distin": 6709,
      "personnel": 6710,
      "racing": 6711,
      "standard": 6712,
      "brothers": 6713,
      "rises": 6714,
      "daughters": 6715,
      "pects": 6716,
      "businessman": 6717,
      "causes": 6718,
      "Davis": 6719,
      "patron": 6720,
      "southwest": 6721,
      "Courtney": 6722,
      "sworn": 6723,
      "evening": 6724,
      "visitor": 6725,
      "Angl": 6726,
      "logistics": 6727,
      "balloons": 6728,
      "properties": 6729,
      "situated": 6730,
      "onymous": 6731,
      "mingham": 6732,
      "ouda": 6733,
      "interested": 6734,
      "Burlington": 6735,
      "Holmes": 6736,
      "Prix": 6737,
      "Prior": 6738,
      "Flinders": 6739,
      "Offic": 6740,
      "1878": 6741,
      "correspond": 6742,
      "initial": 6743,
      "everyone": 6744,
      "Cricket": 6745,
      "missing": 6746,
      "safety": 6747,
      "ambig": 6748,
      "seeing": 6749,
      "exhibitions": 6750,
      "Filmfare": 6751,
      "takes": 6752,
      "teachers": 6753,
      "Daniel": 6754,
      "Southeast": 6755,
      "battle": 6756,
      "confront": 6757,
      "falls": 6758,
      "pieces": 6759,
      "twel": 6760,
      "allegations": 6761,
      "episode": 6762,
      "explosives": 6763,
      "habilit": 6764,
      "winner": 6765,
      "policies": 6766,
      "reviewed": 6767,
      "associate": 6768,
      "newspapers": 6769,
      "Administrator": 6770,
      "Labour": 6771,
      "glas": 6772,
      "glass": 6773,
      "homeless": 6774,
      "Toronto": 6775,
      "zzly": 6776,
      "icultural": 6777,
      "avalry": 6778,
      "planning": 6779,
      "regarded": 6780,
      "Alexander": 6781,
      "Kiram": 6782,
      "Romanian": 6783,
      "vocals": 6784,
      "looked": 6785,
      "Dargan": 6786,
      "Further": 6787,
      "Morey": 6788,
      "Voiland": 6789,
      "journalist": 6790,
      "healthcare": 6791,
      "protect": 6792,
      "occasionally": 6793,
      "submarines": 6794,
      "emerged": 6795,
      "traditional": 6796,
      "methods": 6797,
      "Evans": 6798,
      "blocked": 6799,
      "girls": 6800,
      "agency": 6801,
      "average": 6802,
      "capture": 6803,
      "Federal": 6804,
      "ographical": 6805,
      "Ayres": 6806,
      "Douglas": 6807,
      "committed": 6808,
      "contested": 6809,
      "Dunmore": 6810,
      "worship": 6811,
      "walked": 6812,
      "thousand": 6813,
      "Philippine": 6814,
      "Roland": 6815,
      "Safed": 6816,
      "calm": 6817,
      "hurst": 6818,
      "wearing": 6819,
      "strikes": 6820,
      "possible": 6821,
      "Holding": 6822,
      "mnasium": 6823,
      "ński": 6824,
      "consecutive": 6825,
      "liberal": 6826,
      "Herefordshire": 6827,
      "Chapter": 6828,
      "negoti": 6829,
      "cycles": 6830,
      "Grizzly": 6831,
      "HMS": 6832,
      "Songs": 6833,
      "šenje": 6834,
      "argued": 6835,
      "Batelco": 6836,
      "Birmingham": 6837,
      "Because": 6838,
      "Cardinal": 6839,
      "Friedrich": 6840,
      "Pardubice": 6841,
      "Tangany": 6842,
      "nomine": 6843,
      "quickly": 6844,
      "Colombian": 6845,
      "Barbara": 6846,
      "Bensouda": 6847,
      "Ilya": 6848,
      "JDT": 6849,
      "Richey": 6850,
      "inhabitants": 6851,
      "inaugural": 6852,
      "Staffordshire": 6853,
      "Margaret": 6854,
      "Problem": 6855,
      "deployed": 6856,
      "Jaffa": 6857,
      "Total": 6858,
      "Vijaya": 6859,
      "Welsh": 6860,
      "Zabranjeno": 6861,
      "inguished": 6862,
      "cylinder": 6863,
      "influenced": 6864,
      "zhongjiang": 6865,
      "Elizabeth": 6866,
      "Boston": 6867,
      "Celebr": 6868,
      "Jallian": 6869,
      "Psycho": 6870,
      "Tadoussac": 6871,
      "Tchaikovsky": 6872,
      "UVF": 6873,
      "Worcestershire": 6874,
      "fictional": 6875,
      "tienne": 6876,
      "alphabet": 6877,
      "and_Ebuthou_Thangjing_Part_": 6878,
      "Chikkodi": 6879,
      "example": 6880,
      "Araruama": 6881,
      "okkottur": 6882,
      "Shropshire": 6883,
      "Paraguay": 6884,
      "featherweight": 6885,
      "Collins": 6886,
      "%),": 6887,
      "(-": 6888,
      "(),": 6889,
      "39": 6890,
      "7th": 6891,
      "92": 6892,
      "AR": 6893,
      "Ace": 6894,
      "Amar": 6895,
      "Astr": 6896,
      "Apos": 6897,
      "BA": 6898,
      "BT": 6899,
      "Bes": 6900,
      "Bre": 6901,
      "Bri": 6902,
      "Bell": 6903,
      "Bron": 6904,
      "Basketball": 6905,
      "Billy": 6906,
      "CM": 6907,
      "Ca": 6908,
      "Cost": 6909,
      "Caj": 6910,
      "CSX": 6911,
      "Ciro": 6912,
      "Creek": 6913,
      "Dh": 6914,
      "Dá": 6915,
      "Dow": 6916,
      "Daly": 6917,
      "Daugh": 6918,
      "Diet": 6919,
      "Dorr": 6920,
      "Every": 6921,
      "Fat": 6922,
      "Fact": 6923,
      "Fair": 6924,
      "Fier": 6925,
      "Gand": 6926,
      "Get": 6927,
      "Gab": 6928,
      "Gilm": 6929,
      "HK": 6930,
      "Hor": 6931,
      "Hans": 6932,
      "IT": 6933,
      "Jack": 6934,
      "KMs": 6935,
      "Kovo": 6936,
      "Lt": 6937,
      "Lor": 6938,
      "Lar": 6939,
      "Las": 6940,
      "Laf": 6941,
      "Lok": 6942,
      "Lions": 6943,
      "Mes": 6944,
      "Mest": 6945,
      "Mater": 6946,
      "Mach": 6947,
      "Minn": 6948,
      "MLA": 6949,
      "Mikh": 6950,
      "Munting": 6951,
      "NG": 6952,
      "Num": 6953,
      "Nev": 6954,
      "Nob": 6955,
      "Next": 6956,
      "Notting": 6957,
      "Of": 6958,
      "Ok": 6959,
      "Oric": 6960,
      "PM": 6961,
      "Pict": 6962,
      "Pyr": 6963,
      "Rod": 6964,
      "Rome": 6965,
      "SC": 6966,
      "Si": 6967,
      "Sel": 6968,
      "Sau": 6969,
      "SED": 6970,
      "Szent": 6971,
      "Ten": 6972,
      "Tamil": 6973,
      "UE": 6974,
      "Ve": 6975,
      "Venez": 6976,
      "Water": 6977,
      "Yas": 6978,
      "Zagre": 6979,
      "aq": 6980,
      "aul": 6981,
      "bac": 6982,
      "bul": 6983,
      "bler": 6984,
      "branch": 6985,
      "cul": 6986,
      "cards": 6987,
      "cott": 6988,
      "cient": 6989,
      "cartel": 6990,
      "ds": 6991,
      "dal": 6992,
      "diving": 6993,
      "dream": 6994,
      "eu": 6995,
      "fre": 6996,
      "fest": 6997,
      "fair": 6998,
      "fiel": 6999,
      "flower": 7000,
      "folk": 7001,
      "für": 7002,
      "gow": 7003,
      "gone": 7004,
      "governor": 7005,
      "hn": 7006,
      "hu": 7007,
      "hat": 7008,
      "hou": 7009,
      "haching": 7010,
      "horr": 7011,
      "iar": 7012,
      "iber": 7013,
      "jö": 7014,
      "jar": 7015,
      "kg": 7016,
      "kit": 7017,
      "kne": 7018,
      "lad": 7019,
      "lau": 7020,
      "mil": 7021,
      "mag": 7022,
      "mount": 7023,
      "math": 7024,
      "mph": 7025,
      "males": 7026,
      "nit": 7027,
      "nian": 7028,
      "nership": 7029,
      "pal": 7030,
      "pap": 7031,
      "page": 7032,
      "rant": 7033,
      "rical": 7034,
      "rural": 7035,
      "rubber": 7036,
      "sa": 7037,
      "size": 7038,
      "sula": 7039,
      "tens": 7040,
      "tail": 7041,
      "tty": 7042,
      "tese": 7043,
      "twin": 7044,
      "vest": 7045,
      "wi": 7046,
      "wig": 7047,
      "words": 7048,
      "waukee": 7049,
      "xic": 7050,
      "youn": 7051,
      "yok": 7052,
      "ycot": 7053,
      "zim": 7054,
      "ée": 7055,
      "inet": 7056,
      "incess": 7057,
      "informed": 7058,
      "indirectly": 7059,
      "anne": 7060,
      "anpur": 7061,
      "erted": 7062,
      "oning": 7063,
      "online": 7064,
      "eda": 7065,
      "edes": 7066,
      "editions": 7067,
      "eness": 7068,
      "enlar": 7069,
      "enidae": 7070,
      "arity": 7071,
      "aler": 7072,
      "asion": 7073,
      "asmine": 7074,
      "asgow": 7075,
      "isol": 7076,
      "itals": 7077,
      "itude": 7078,
      "andar": 7079,
      "rejected": 7080,
      "tos": 7081,
      "toll": 7082,
      "oul": 7083,
      "lean": 7084,
      "think": 7085,
      "stadium": 7086,
      "entitled": 7087,
      "acent": 7088,
      "acional": 7089,
      "acier": 7090,
      "olph": 7091,
      "1915": 7092,
      "1911": 7093,
      "adt": 7094,
      "advoc": 7095,
      "admitted": 7096,
      "admiral": 7097,
      "uro": 7098,
      "uris": 7099,
      "urge": 7100,
      "urday": 7101,
      "sea": 7102,
      "sem": 7103,
      "seized": 7104,
      "seems": 7105,
      "chay": 7106,
      "chall": 7107,
      "choral": 7108,
      "else": 7109,
      "iring": 7110,
      "tered": 7111,
      "bee": 7112,
      "beam": 7113,
      "emot": 7114,
      "unspecified": 7115,
      "igi": 7116,
      "ayalam": 7117,
      "imen": 7118,
      "imag": 7119,
      "imprison": 7120,
      "ctives": 7121,
      "agan": 7122,
      "oted": 7123,
      "oting": 7124,
      "ersh": 7125,
      "ceased": 7126,
      "dek": 7127,
      "defin": 7128,
      "abl": 7129,
      "abled": 7130,
      "abric": 7131,
      "abolished": 7132,
      "resources": 7133,
      "residence": 7134,
      "opin": 7135,
      "whaling": 7136,
      "comment": 7137,
      "apol": 7138,
      "apted": 7139,
      "approved": 7140,
      "estate": 7141,
      "estuary": 7142,
      "shown": 7143,
      "ulum": 7144,
      "ulate": 7145,
      "iant": 7146,
      "pled": 7147,
      "illes": 7148,
      "illness": 7149,
      "suits": 7150,
      "oslav": 7151,
      "exoplan": 7152,
      "ichi": 7153,
      "true": 7154,
      "aude": 7155,
      "oda": 7156,
      "gran": 7157,
      "grange": 7158,
      "Stoney": 7159,
      "Until": 7160,
      "compound": 7161,
      "assador": 7162,
      "assumed": 7163,
      "weather": 7164,
      "aware": 7165,
      "eck": 7166,
      "amps": 7167,
      "permitted": 7168,
      "activism": 7169,
      "ogle": 7170,
      "Shetty": 7171,
      "offering": 7172,
      "bodies": 7173,
      "landed": 7174,
      "landsc": 7175,
      "erald": 7176,
      "notice": 7177,
      "eleven": 7178,
      "Marine": 7179,
      "driven": 7180,
      "Alan": 7181,
      "intended": 7182,
      "ultimately": 7183,
      "ansion": 7184,
      "afterno": 7185,
      "Ley": 7186,
      "marriage": 7187,
      "Only": 7188,
      "dise": 7189,
      "discour": 7190,
      "discover": 7191,
      "disput": 7192,
      "meen": 7193,
      "mechan": 7194,
      "Sha": 7195,
      "airship": 7196,
      "commod": 7197,
      "speak": 7198,
      "speech": 7199,
      "terns": 7200,
      "Roth": 7201,
      "anna": 7202,
      "anny": 7203,
      "coln": 7204,
      "colon": 7205,
      "Reilly": 7206,
      "Sena": 7207,
      "ensen": 7208,
      "1950s": 7209,
      "myth": 7210,
      "chef": 7211,
      "178": 7212,
      "17th": 7213,
      "ledge": 7214,
      "Collection": 7215,
      "1972": 7216,
      "visual": 7217,
      "founders": 7218,
      "1961": 7219,
      "competing": 7220,
      "Constitut": 7221,
      "125": 7222,
      "Three": 7223,
      "surpr": 7224,
      "maintained": 7225,
      "songwriter": 7226,
      "interior": 7227,
      "intervention": 7228,
      "icking": 7229,
      "Form": 7230,
      "Former": 7231,
      "Forbes": 7232,
      "Protest": 7233,
      "Syn": 7234,
      "Gray": 7235,
      "Groning": 7236,
      "dozens": 7237,
      "sels": 7238,
      "verted": 7239,
      "musician": 7240,
      "musicologist": 7241,
      "receive": 7242,
      "efan": 7243,
      "15th": 7244,
      "subs": 7245,
      "134": 7246,
      "13th": 7247,
      "relatives": 7248,
      "Augustana": 7249,
      "leads": 7250,
      "products": 7251,
      "nooker": 7252,
      "guard": 7253,
      "Policy": 7254,
      "therefore": 7255,
      "transform": 7256,
      "See": 7257,
      "Seas": 7258,
      "goes": 7259,
      "goals": 7260,
      "udeau": 7261,
      "Austin": 7262,
      "Austria": 7263,
      "courts": 7264,
      "headed": 7265,
      "Gehr": 7266,
      "Claude": 7267,
      "authors": 7268,
      "cancer": 7269,
      "Cancer": 7270,
      "extrem": 7271,
      "smugg": 7272,
      "sixteen": 7273,
      "Trute": 7274,
      "Trudeau": 7275,
      "origins": 7276,
      "formerly": 7277,
      "ospitals": 7278,
      "districts": 7279,
      "armament": 7280,
      "Liiga": 7281,
      "faculty": 7282,
      "1901": 7283,
      "1909": 7284,
      "appointment": 7285,
      "democ": 7286,
      "expansion": 7287,
      "Express": 7288,
      "programmes": 7289,
      "continuing": 7290,
      "claiming": 7291,
      "umble": 7292,
      "insky": 7293,
      "Indians": 7294,
      "Maltese": 7295,
      "Malayalam": 7296,
      "longer": 7297,
      "ministry": 7298,
      "1883": 7299,
      "resulted": 7300,
      "rule": 7301,
      "factors": 7302,
      "Palais": 7303,
      "begun": 7304,
      "highlight": 7305,
      "surviving": 7306,
      "Castilla": 7307,
      "Schön": 7308,
      "enny": 7309,
      "Harless": 7310,
      "citing": 7311,
      "personality": 7312,
      "Drug": 7313,
      "participants": 7314,
      "purpose": 7315,
      "Ruth": 7316,
      "Capital": 7317,
      "denly": 7318,
      "stein": 7319,
      "ranking": 7320,
      "Review": 7321,
      "patrol": 7322,
      "patterns": 7323,
      "lectures": 7324,
      "constructor": 7325,
      "managing": 7326,
      "Medal": 7327,
      "allows": 7328,
      "novels": 7329,
      "helping": 7330,
      "critics": 7331,
      "moth": 7332,
      "Wilhel": 7333,
      "economy": 7334,
      "historic": 7335,
      "Karnat": 7336,
      "signal": 7337,
      "Luigi": 7338,
      "Madjer": 7339,
      "bombs": 7340,
      "kingham": 7341,
      "sites": 7342,
      "composer": 7343,
      "Keith": 7344,
      "Williams": 7345,
      "Brig": 7346,
      "Priy": 7347,
      "Flag": 7348,
      "stood": 7349,
      "suspected": 7350,
      "trip": 7351,
      "1879": 7352,
      "discus": 7353,
      "Trans": 7354,
      "value": 7355,
      "winds": 7356,
      "keeper": 7357,
      "Glasgow": 7358,
      "Upper": 7359,
      "seventh": 7360,
      "Milwaukee": 7361,
      "Metal": 7362,
      "Superior": 7363,
      "demonstrators": 7364,
      "candidates": 7365,
      "primarily": 7366,
      "Sweden": 7367,
      "Pookkottur": 7368,
      "Patriot": 7369,
      "Petite": 7370,
      "femin": 7371,
      "ány": 7372,
      "planet": 7373,
      "Dancer": 7374,
      "appropri": 7375,
      "effects": 7376,
      "effective": 7377,
      "Platycot": 7378,
      "Balloon": 7379,
      "Devon": 7380,
      "Devil": 7381,
      "says": 7382,
      "aviation": 7383,
      "strongest": 7384,
      "explosions": 7385,
      "basis": 7386,
      "1803": 7387,
      "contribution": 7388,
      "targeted": 7389,
      "targeting": 7390,
      "Mosque": 7391,
      "zhou": 7392,
      "respective": 7393,
      "volum": 7394,
      "believe": 7395,
      "torpedoed": 7396,
      "torpedoes": 7397,
      "Ursula": 7398,
      "holder": 7399,
      "purchase": 7400,
      "soundtrack": 7401,
      "Alexand": 7402,
      "Kirch": 7403,
      "Pušenje": 7404,
      "Valen": 7405,
      "persed": 7406,
      "accessible": 7407,
      "knowledge": 7408,
      "discussed": 7409,
      "Zygaenidae": 7410,
      "Estefan": 7411,
      "Hills": 7412,
      "Raph": 7413,
      "Rapids": 7414,
      "Somalia": 7415,
      "ruling": 7416,
      "streams": 7417,
      "protected": 7418,
      "Beard": 7419,
      "custo": 7420,
      "flows": 7421,
      "threatening": 7422,
      "grandfather": 7423,
      "interviews": 7424,
      "copies": 7425,
      "reasons": 7426,
      "seeking": 7427,
      "André": 7428,
      "subjects": 7429,
      "Montenegrin": 7430,
      "Rundek": 7431,
      "corners": 7432,
      "increasing": 7433,
      "evacuation": 7434,
      "illustrations": 7435,
      "communication": 7436,
      "murdered": 7437,
      "freshwater": 7438,
      "Curr": 7439,
      "Grainger": 7440,
      "Sochi": 7441,
      "growing": 7442,
      "detail": 7443,
      "problem": 7444,
      "Motors": 7445,
      "Wolver": 7446,
      "Windsor": 7447,
      "municipality": 7448,
      "worst": 7449,
      "internal": 7450,
      "internet": 7451,
      "chapel": 7452,
      "improve": 7453,
      "Philippines": 7454,
      "Saturday": 7455,
      "Trophy": 7456,
      "orodi": 7457,
      "storm": 7458,
      "detective": 7459,
      "technical": 7460,
      "automatic": 7461,
      "briefly": 7462,
      "Areas": 7463,
      "Gymnasium": 7464,
      "Wayne": 7465,
      "material": 7466,
      "vacant": 7467,
      "stabbed": 7468,
      "connected": 7469,
      "peaceful": 7470,
      "profit": 7471,
      "spoken": 7472,
      "exploded": 7473,
      "influence": 7474,
      "biggest": 7475,
      "karimov": 7476,
      "memory": 7477,
      "witness": 7478,
      "attracted": 7479,
      "Argentine": 7480,
      "Books": 7481,
      "Barnby": 7482,
      "Barnard": 7483,
      "doubles": 7484,
      "Bosnian": 7485,
      "Bahrain": 7486,
      "Mansfield": 7487,
      "RTE": 7488,
      "Sherlock": 7489,
      "corps": 7490,
      "atmosphere": 7491,
      "embrini": 7492,
      "website": 7493,
      "Susan": 7494,
      "Settembrini": 7495,
      "heavily": 7496,
      "replacing": 7497,
      "examples": 7498,
      "praised": 7499,
      "apparently": 7500,
      "Guerra": 7501,
      "philosophy": 7502,
      "punishment": 7503,
      "Nils": 7504,
      "skills": 7505,
      "inquiry": 7506,
      "convicted": 7507,
      "proposal": 7508,
      "intercepted": 7509,
      "Associate": 7510,
      "Malaysia": 7511,
      "Agricultural": 7512,
      "Buckingham": 7513,
      "Lincoln": 7514,
      "Lakshmi": 7515,
      "Maurice": 7516,
      "divisional": 7517,
      "frequently": 7518,
      "emetery": 7519,
      "withdrawal": 7520,
      "Chazan": 7521,
      "trailer": 7522,
      "awareness": 7523,
      "Abdikarimov": 7524,
      "Dmitry": 7525,
      "Oberhaching": 7526,
      "false": 7527,
      "fighters": 7528,
      "split": 7529,
      "instrument": 7530,
      "rebellion": 7531,
      "adjacent": 7532,
      "chwil": 7533,
      "determined": 7534,
      "Internet": 7535,
      "approximately": 7536,
      "confluence": 7537,
      "Emergency": 7538,
      "Hébert": 7539,
      "Lotan": 7540,
      "Liverpool": 7541,
      "Pacific": 7542,
      "Pereira": 7543,
      "Uttar": 7544,
      "Vincent": 7545,
      "Yerevan": 7546,
      "Zomorodi": 7547,
      "dimensions": 7548,
      "juvenile": 7549,
      "wedding": 7550,
      "anomaly": 7551,
      "absence": 7552,
      "Chloé": 7553,
      "Sebastian": 7554,
      "Anglican": 7555,
      "Tanganyika": 7556,
      "Astronom": 7557,
      "Aposto": 7558,
      "Cajuns": 7559,
      "Dáil": 7560,
      "Dorrington": 7561,
      "Factory": 7562,
      "Fierro": 7563,
      "Gandhi": 7564,
      "Gilmore": 7565,
      "Lafayette": 7566,
      "Mikhail": 7567,
      "Nottingham": 7568,
      "Oricon": 7569,
      "Pyram": 7570,
      "Saudis": 7571,
      "Yasmeen": 7572,
      "Zagreb": 7573,
      "festivals": 7574,
      "fielder": 7575,
      "younger": 7576,
      "enlarged": 7577,
      "chayat": 7578,
      "afternoon": 7579,
      "Truteau": 7580,
      "Schönberg": 7581,
      "Karnataka": 7582,
      "Platycotis": 7583,
      "\"\".": 7584,
      "'.": 7585,
      "04": 7586,
      "115": 7587,
      "5th": 7588,
      "AJ": 7589,
      "Ast": 7590,
      "Aary": 7591,
      "Abr": 7592,
      "Ball": 7593,
      "Bloc": 7594,
      "Base": 7595,
      "Brun": 7596,
      "Branch": 7597,
      "Bonn": 7598,
      "Baba": 7599,
      "BWF": 7600,
      "CF": 7601,
      "CO": 7602,
      "Cut": 7603,
      "Cos": 7604,
      "Care": 7605,
      "Crit": 7606,
      "Clif": 7607,
      "Cai": 7608,
      "Cru": 7609,
      "Census": 7610,
      "Crown": 7611,
      "Cavalry": 7612,
      "DS": 7613,
      "Dor": 7614,
      "Dur": 7615,
      "Dong": 7616,
      "Dance": 7617,
      "Dix": 7618,
      "DMA": 7619,
      "Doro": 7620,
      "DEA": 7621,
      "Danny": 7622,
      "EM": 7623,
      "ET": 7624,
      "EU": 7625,
      "Edi": 7626,
      "Eve": 7627,
      "Ern": 7628,
      "EOS": 7629,
      "Erik": 7630,
      "Famil": 7631,
      "Fern": 7632,
      "Fuk": 7633,
      "Gif": 7634,
      "Galleg": 7635,
      "GAS": 7636,
      "Gender": 7637,
      "Gersh": 7638,
      "Gilles": 7639,
      "Gerald": 7640,
      "Han": 7641,
      "Had": 7642,
      "Hur": 7643,
      "Hir": 7644,
      "Hang": 7645,
      "Hamil": 7646,
      "Iv": 7647,
      "Ian": 7648,
      "Ice": 7649,
      "IEE": 7650,
      "Jø": 7651,
      "Jin": 7652,
      "Jal": 7653,
      "Jul": 7654,
      "Jaw": 7655,
      "Jef": 7656,
      "Kam": 7657,
      "Kap": 7658,
      "Kav": 7659,
      "Kip": 7660,
      "Kham": 7661,
      "Knight": 7662,
      "Katherine": 7663,
      "Kaji": 7664,
      "Kova": 7665,
      "Lit": 7666,
      "Lau": 7667,
      "Lud": 7668,
      "Lang": 7669,
      "Louth": 7670,
      "Langu": 7671,
      "Lock": 7672,
      "Lazar": 7673,
      "Mou": 7674,
      "Mack": 7675,
      "Members": 7676,
      "Mumb": 7677,
      "Money": 7678,
      "MEP": 7679,
      "Mün": 7680,
      "NF": 7681,
      "Naf": 7682,
      "Never": 7683,
      "Nipp": 7684,
      "NAT": 7685,
      "NHS": 7686,
      "Nacional": 7687,
      "Ot": 7688,
      "Oman": 7689,
      "Osw": 7690,
      "Oola": 7691,
      "PC": 7692,
      "Pi": 7693,
      "Pas": 7694,
      "Pil": 7695,
      "Pow": 7696,
      "Past": 7697,
      "Pine": 7698,
      "Pinto": 7699,
      "Power": 7700,
      "Psych": 7701,
      "Payette": 7702,
      "RO": 7703,
      "Rom": 7704,
      "Rog": 7705,
      "Rio": 7706,
      "Rock": 7707,
      "Rho": 7708,
      "Roger": 7709,
      "Sr": 7710,
      "Spe": 7711,
      "Sound": 7712,
      "Sue": 7713,
      "Sack": 7714,
      "Sincl": 7715,
      "Sme": 7716,
      "Suc": 7717,
      "Sien": 7718,
      "Speak": 7719,
      "Sukh": 7720,
      "TW": 7721,
      "T12": 7722,
      "Tony": 7723,
      "UP": 7724,
      "Ubu": 7725,
      "Va": 7726,
      "Vent": 7727,
      "Vill": 7728,
      "Vice": 7729,
      "VIII": 7730,
      "Volk": 7731,
      "Wan": 7732,
      "Well": 7733,
      "Writ": 7734,
      "Why": 7735,
      "Ya": 7736,
      "Yu": 7737,
      "Yam": 7738,
      "Yug": 7739,
      "Zam": 7740,
      "auty": 7741,
      "bles": 7742,
      "barr": 7743,
      "bott": 7744,
      "bird": 7745,
      "blog": 7746,
      "batter": 7747,
      "biography": 7748,
      "coc": 7749,
      "cous": 7750,
      "dess": 7751,
      "dang": 7752,
      "dign": 7753,
      "dyn": 7754,
      "fast": 7755,
      "failing": 7756,
      "festival": 7757,
      "glo": 7758,
      "god": 7759,
      "gross": 7760,
      "green": 7761,
      "hill": 7762,
      "hai": 7763,
      "huge": 7764,
      "iary": 7765,
      "job": 7766,
      "ku": 7767,
      "kan": 7768,
      "kir": 7769,
      "kata": 7770,
      "lal": 7771,
      "lai": 7772,
      "liga": 7773,
      "leston": 7774,
      "mart": 7775,
      "mos": 7776,
      "miz": 7777,
      "mind": 7778,
      "mail": 7779,
      "moud": 7780,
      "miles": 7781,
      "minton": 7782,
      "nell": 7783,
      "ole": 7784,
      "pet": 7785,
      "pain": 7786,
      "pound": 7787,
      "pack": 7788,
      "pure": 7789,
      "pair": 7790,
      "piece": 7791,
      "ring": 7792,
      "rig": 7793,
      "rill": 7794,
      "rice": 7795,
      "rne": 7796,
      "sn": 7797,
      "slow": 7798,
      "soci": 7799,
      "spring": 7800,
      "tried": 7801,
      "tures": 7802,
      "trees": 7803,
      "tutor": 7804,
      "wins": 7805,
      "wicket": 7806,
      "wagen": 7807,
      "zig": 7808,
      "Étienne": 7809,
      "Ćer": 7810,
      "ли": 7811,
      "’.": 7812,
      "inf": 7813,
      "inking": 7814,
      "inspir": 7815,
      "informal": 7816,
      "infirm": 7817,
      "integr": 7818,
      "inburgh": 7819,
      "anime": 7820,
      "theless": 7821,
      "thesis": 7822,
      "erto": 7823,
      "erick": 7824,
      "ont": 7825,
      "onian": 7826,
      "ores": 7827,
      "orship": 7828,
      "orters": 7829,
      "enas": 7830,
      "ende": 7831,
      "enner": 7832,
      "energy": 7833,
      "arg": 7834,
      "arn": 7835,
      "ashed": 7836,
      "ascent": 7837,
      "assets": 7838,
      "isc": 7839,
      "isn": 7840,
      "isbury": 7841,
      "esota": 7842,
      "ofton": 7843,
      "itors": 7844,
      "rein": 7845,
      "reaching": 7846,
      "revol": 7847,
      "icate": 7848,
      "icide": 7849,
      "icient": 7850,
      "touring": 7851,
      "ouri": 7852,
      "ione": 7853,
      "leigh": 7854,
      "leans": 7855,
      "things": 7856,
      "thought": 7857,
      "sters": 7858,
      "stret": 7859,
      "stern": 7860,
      "ental": 7861,
      "entially": 7862,
      "entering": 7863,
      "ilst": 7864,
      "amber": 7865,
      "ollar": 7866,
      "adar": 7867,
      "adier": 7868,
      "adapted": 7869,
      "urm": 7870,
      "sections": 7871,
      "forew": 7872,
      "eland": 7873,
      "ivity": 7874,
      "rov": 7875,
      "roster": 7876,
      "emy": 7877,
      "emed": 7878,
      "emigr": 7879,
      "uncle": 7880,
      "ayo": 7881,
      "imir": 7882,
      "improv": 7883,
      "imposed": 7884,
      "agers": 7885,
      "loan": 7886,
      "loyal": 7887,
      "itha": 7888,
      "iths": 7889,
      "istani": 7890,
      "dez": 7891,
      "dean": 7892,
      "depress": 7893,
      "conning": 7894,
      "etime": 7895,
      "berger": 7896,
      "abakh": 7897,
      "resistance": 7898,
      "uted": 7899,
      "utively": 7900,
      "opold": 7901,
      "ovan": 7902,
      "ovann": 7903,
      "Init": 7904,
      "aph": 7905,
      "umais": 7906,
      "rip": 7907,
      "riff": 7908,
      "esty": 7909,
      "artwork": 7910,
      "artillery": 7911,
      "shoot": 7912,
      "sharing": 7913,
      "shires": 7914,
      "ulip": 7915,
      "ulations": 7916,
      "tear": 7917,
      "aven": 7918,
      "Heat": 7919,
      "die": 7920,
      "dium": 7921,
      "proport": 7922,
      "clar": 7923,
      "eward": 7924,
      "Chart": 7925,
      "Channel": 7926,
      "Champs": 7927,
      "sud": 7928,
      "suki": 7929,
      "sustained": 7930,
      "osph": 7931,
      "expo": 7932,
      "ardy": 7933,
      "peck": 7934,
      "oured": 7935,
      "orted": 7936,
      "erected": 7937,
      "trav": 7938,
      "iff": 7939,
      "ifically": 7940,
      "auction": 7941,
      "odcast": 7942,
      "afa": 7943,
      "affer": 7944,
      "manages": 7945,
      "manhurst": 7946,
      "grave": 7947,
      "herd": 7948,
      "herself": 7949,
      "Stand": 7950,
      "Start": 7951,
      "Still": 7952,
      "Sturm": 7953,
      "anton": 7954,
      "Arm": 7955,
      "Arena": 7956,
      "Unity": 7957,
      "assis": 7958,
      "weak": 7959,
      "wegian": 7960,
      "orno": 7961,
      "ella": 7962,
      "18th": 7963,
      "1819": 7964,
      "1800": 7965,
      "derived": 7966,
      "eches": 7967,
      "percent": 7968,
      "ranean": 7969,
      "acts": 7970,
      "lix": 7971,
      "liest": 7972,
      "offered": 7973,
      "Anto": 7974,
      "Ancient": 7975,
      "noticed": 7976,
      "neg": 7977,
      "neut": 7978,
      "needs": 7979,
      "owns": 7980,
      "brut": 7981,
      "elements": 7982,
      "shipyard": 7983,
      "wheel": 7984,
      "Comrad": 7985,
      "izing": 7986,
      "attorney": 7987,
      "Mario": 7988,
      "Marcel": 7989,
      "Martha": 7990,
      "playoffs": 7991,
      "drag": 7992,
      "drivers": 7993,
      "lette": 7994,
      "letons": 7995,
      "intell": 7996,
      "ultze": 7997,
      "ideas": 7998,
      "scale": 7999,
      "scrat": 8000,
      "retail": 8001,
      "Leo": 8002,
      "Lect": 8003,
      "Leopold": 8004,
      "margin": 8005,
      "Ontar": 8006,
      "locations": 8007,
      "disgu": 8008,
      "dissol": 8009,
      "disambig": 8010,
      "dispersed": 8011,
      "Shu": 8012,
      "Short": 8013,
      "Shang": 8014,
      "Shires": 8015,
      "spots": 8016,
      "reci": 8017,
      "recip": 8018,
      "ureau": 8019,
      "airy": 8020,
      "string": 8021,
      "strict": 8022,
      "condem": 8023,
      "finals": 8024,
      "finale": 8025,
      "column": 8026,
      "regions": 8027,
      "register": 8028,
      "ikya": 8029,
      "forms": 8030,
      "formally": 8031,
      "1688": 8032,
      "minimal": 8033,
      "Ener": 8034,
      "chen": 8035,
      "Joe": 8036,
      "Joint": 8037,
      "aha": 8038,
      "ahar": 8039,
      "veto": 8040,
      "veter": 8041,
      "vised": 8042,
      "Commons": 8043,
      "sever": 8044,
      "ibal": 8045,
      "ibly": 8046,
      "obolus": 8047,
      "seconds": 8048,
      "specifically": 8049,
      "1923": 8050,
      "numbers": 8051,
      "competitions": 8052,
      "Though": 8053,
      "interim": 8054,
      "Prote": 8055,
      "Project": 8056,
      "Protesters": 8057,
      "Syed": 8058,
      "engagement": 8059,
      "centr": 8060,
      "center": 8061,
      "centers": 8062,
      "invaded": 8063,
      "invasion": 8064,
      "Gerais": 8065,
      "supplement": 8066,
      "cargo": 8067,
      "warned": 8068,
      "sublanguages": 8069,
      "provinces": 8070,
      "flash": 8071,
      "rell": 8072,
      "relatively": 8073,
      "Juto": 8074,
      "Scient": 8075,
      "Johor": 8076,
      "legend": 8077,
      "Plant": 8078,
      "uset": 8079,
      "matters": 8080,
      "Season": 8081,
      "setup": 8082,
      "setting": 8083,
      "ricia": 8084,
      "organised": 8085,
      "represents": 8086,
      "representing": 8087,
      "operator": 8088,
      "operates": 8089,
      "Add": 8090,
      "mont": 8091,
      "monarch": 8092,
      "courses": 8093,
      "aims": 8094,
      "aimed": 8095,
      "PhD": 8096,
      "Beat": 8097,
      "Beautiful": 8098,
      "depict": 8099,
      "canal": 8100,
      "cannot": 8101,
      "descendant": 8102,
      "pole": 8103,
      "Guam": 8104,
      "Moore": 8105,
      "charged": 8106,
      "charges": 8107,
      "lines": 8108,
      "trying": 8109,
      "Portland": 8110,
      "broke": 8111,
      "ismo": 8112,
      "isms": 8113,
      "Minas": 8114,
      "mbri": 8115,
      "developer": 8116,
      "Deport": 8117,
      "runners": 8118,
      "icipal": 8119,
      "Midwest": 8120,
      "struction": 8121,
      "demanded": 8122,
      "authority": 8123,
      "handed": 8124,
      "handled": 8125,
      "northeastern": 8126,
      "Manchester": 8127,
      "Maneu": 8128,
      "Manikya": 8129,
      "Orleans": 8130,
      "programme": 8131,
      "graphed": 8132,
      "incial": 8133,
      "Edinburgh": 8134,
      "publicly": 8135,
      "Swift": 8136,
      "laws": 8137,
      "restored": 8138,
      "eye": 8139,
      "pointed": 8140,
      "readers": 8141,
      "breed": 8142,
      "Cole": 8143,
      "posted": 8144,
      "Ellie": 8145,
      "Norwegian": 8146,
      "ancing": 8147,
      "1880": 8148,
      "1889": 8149,
      "Stewart": 8150,
      "feld": 8151,
      "ruins": 8152,
      "ournals": 8153,
      "Complex": 8154,
      "defend": 8155,
      "factor": 8156,
      "limit": 8157,
      "Indies": 8158,
      "violating": 8159,
      "Monte": 8160,
      "UKIP": 8161,
      "educational": 8162,
      "1896": 8163,
      "collected": 8164,
      "Schul": 8165,
      "Schultze": 8166,
      "completion": 8167,
      "ijuana": 8168,
      "standings": 8169,
      "rooms": 8170,
      "Draga": 8171,
      "charts": 8172,
      "differences": 8173,
      "buried": 8174,
      "About": 8175,
      "Capit": 8176,
      "motivated": 8177,
      "fewest": 8178,
      "simple": 8179,
      "systems": 8180,
      "Louise": 8181,
      "damaged": 8182,
      "constructed": 8183,
      "Media": 8184,
      "Mediter": 8185,
      "swim": 8186,
      "southeast": 8187,
      "southeastern": 8188,
      "Oxland": 8189,
      "investigated": 8190,
      "investigating": 8191,
      "establishing": 8192,
      "Martins": 8193,
      "Quar": 8194,
      "injuries": 8195,
      "Karl": 8196,
      "Karabakh": 8197,
      "Kuraki": 8198,
      "Salv": 8199,
      "Salisbury": 8200,
      "sessions": 8201,
      "locked": 8202,
      "Mountains": 8203,
      "bombings": 8204,
      "concert": 8205,
      "concerts": 8206,
      "composers": 8207,
      "natural": 8208,
      "Institution": 8209,
      "assisting": 8210,
      "graphic": 8211,
      "Byrne": 8212,
      "Studio": 8213,
      "Sunday": 8214,
      "Socialist": 8215,
      "corrupt": 8216,
      "initiated": 8217,
      "translation": 8218,
      "translator": 8219,
      "Hashe": 8220,
      "frag": 8221,
      "frame": 8222,
      "spirits": 8223,
      "Crimin": 8224,
      "Crofton": 8225,
      "Samar": 8226,
      "missions": 8227,
      "ambers": 8228,
      "defeating": 8229,
      "recognition": 8230,
      "recognised": 8231,
      "Patricia": 8232,
      "Pete": 8233,
      "Petits": 8234,
      "females": 8235,
      "ández": 8236,
      "drawn": 8237,
      "Recre": 8238,
      "panel": 8239,
      "fallen": 8240,
      "falling": 8241,
      "stopped": 8242,
      "Professional": 8243,
      "responses": 8244,
      "responsibility": 8245,
      "Akbar": 8246,
      "circuit": 8247,
      "1801": 8248,
      "screenplay": 8249,
      "physics": 8250,
      "1794": 8251,
      "contributing": 8252,
      "Outlier": 8253,
      "Zee": 8254,
      "destru": 8255,
      "rapid": 8256,
      "explained": 8257,
      "performances": 8258,
      "regularly": 8259,
      "accounts": 8260,
      "33rd": 8261,
      "Buzz": 8262,
      "Building": 8263,
      "Bayou": 8264,
      "goods": 8265,
      "homes": 8266,
      "volunte": 8267,
      "criticised": 8268,
      "Duchess": 8269,
      "Richmond": 8270,
      "Tamalia": 8271,
      "farmer": 8272,
      "waiting": 8273,
      "doesn": 8274,
      "Emir": 8275,
      "Emilio": 8276,
      "Without": 8277,
      "missionary": 8278,
      "philanth": 8279,
      "Copleston": 8280,
      "Copmanhurst": 8281,
      "Gallen": 8282,
      "Maclean": 8283,
      "Mexican": 8284,
      "Puerto": 8285,
      "Rangoli": 8286,
      "talks": 8287,
      "vocal": 8288,
      "looking": 8289,
      "discussions": 8290,
      "Lucas": 8291,
      "rules": 8292,
      "Classic": 8293,
      "Classical": 8294,
      "Nehls": 8295,
      "Modenas": 8296,
      "skeletons": 8297,
      "inental": 8298,
      "emergency": 8299,
      "scientist": 8300,
      "poetry": 8301,
      "motorcycles": 8302,
      "bottom": 8303,
      "licence": 8304,
      "adiq": 8305,
      "schedule": 8306,
      "subsequent": 8307,
      "employed": 8308,
      "employment": 8309,
      "employees": 8310,
      "Brazilian": 8311,
      "Overpeck": 8312,
      "Rune": 8313,
      "documents": 8314,
      "ographic": 8315,
      "increased": 8316,
      "increase": 8317,
      "behavior": 8318,
      "neighbour": 8319,
      "communications": 8320,
      "Bolton": 8321,
      "Graham": 8322,
      "dedicated": 8323,
      "salt": 8324,
      "steps": 8325,
      "traveled": 8326,
      "prepared": 8327,
      "preparation": 8328,
      "synagogue": 8329,
      "Giovann": 8330,
      "Honours": 8331,
      "municipal": 8332,
      "onomous": 8333,
      "Armenian": 8334,
      "Continental": 8335,
      "guitarist": 8336,
      "Ahly": 8337,
      "Mahmoud": 8338,
      "Schembri": 8339,
      "drove": 8340,
      "federal": 8341,
      "Kenogami": 8342,
      "Lambert": 8343,
      "Operations": 8344,
      "cells": 8345,
      "divor": 8346,
      "divided": 8347,
      "laptop": 8348,
      "satis": 8349,
      "oversaw": 8350,
      "diesel": 8351,
      "suffering": 8352,
      "suggested": 8353,
      "manufacturer": 8354,
      "Metropolitan": 8355,
      "Nagorno": 8356,
      "stayed": 8357,
      "conservation": 8358,
      "conservative": 8359,
      "consecutively": 8360,
      "Argentina": 8361,
      "Alfred": 8362,
      "types": 8363,
      "experimental": 8364,
      "windows": 8365,
      "spiritual": 8366,
      "celebrate": 8367,
      "Azam": 8368,
      "Katz": 8369,
      "PAGAS": 8370,
      "Radio": 8371,
      "vinder": 8372,
      "instructions": 8373,
      "atmospheric": 8374,
      "delegate": 8375,
      "examination": 8376,
      "bringing": 8377,
      "surrounded": 8378,
      "surrounding": 8379,
      "Mohamed": 8380,
      "Houthis": 8381,
      "Houston": 8382,
      "Lancaster": 8383,
      "Pakistan": 8384,
      "Ranji": 8385,
      "Tokyo": 8386,
      "timber": 8387,
      "lobby": 8388,
      "consecrated": 8389,
      "principal": 8390,
      "Conservative": 8391,
      "settlement": 8392,
      "Industrial": 8393,
      "Brooklyn": 8394,
      "Broadacre": 8395,
      "Half": 8396,
      "Zurich": 8397,
      "categories": 8398,
      "environmental": 8399,
      "alternate": 8400,
      "beaten": 8401,
      "agriculture": 8402,
      "constable": 8403,
      "Champions": 8404,
      "exclus": 8405,
      "trafficking": 8406,
      "Study": 8407,
      "knocked": 8408,
      "Princeton": 8409,
      "pursue": 8410,
      "Weekly": 8411,
      "Michelle": 8412,
      "Atlanta": 8413,
      "Delegation": 8414,
      "Soptic": 8415,
      "_Moirang_and_Ebuthou_Thangjing_Part_": 8416,
      "pretation": 8417,
      "tunnel": 8418,
      "thanks": 8419,
      "segments": 8420,
      "opportunity": 8421,
      "trigger": 8422,
      "dramat": 8423,
      "dismissed": 8424,
      "symbol": 8425,
      "Hispanics": 8426,
      "hydrogen": 8427,
      "incorporated": 8428,
      "Saskatoon": 8429,
      "6ixBuzz": 8430,
      "Between": 8431,
      "Circuit": 8432,
      "División": 8433,
      "Gutkne": 8434,
      "Nicolas": 8435,
      "tanker": 8436,
      "beyond": 8437,
      "lovakia": 8438,
      "probably": 8439,
      "structures": 8440,
      "Moroccan": 8441,
      "Husseini": 8442,
      "Aquatics": 8443,
      "Croat": 8444,
      "Eugene": 8445,
      "Kelly": 8446,
      "Ragin": 8447,
      "Savannah": 8448,
      "Typhoon": 8449,
      "Vietnam": 8450,
      "Wheeler": 8451,
      "dressed": 8452,
      "torture": 8453,
      "tubes": 8454,
      "enjoyed": 8455,
      "heritage": 8456,
      "colleges": 8457,
      "checked": 8458,
      "Guangzhou": 8459,
      "alphabetically": 8460,
      "Dowling": 8461,
      "Ltd": 8462,
      "Minnesota": 8463,
      "Nevada": 8464,
      "horror": 8465,
      "challeng": 8466,
      "exoplanets": 8467,
      "disease": 8468,
      "Protestant": 8469,
      "Groningen": 8470,
      "extremely": 8471,
      "Kirchberger": 8472,
      "Currently": 8473,
      "Wolverines": 8474,
      "witnesses": 8475,
      "Hébertville": 8476,
      "Apostolic": 8477,
      "Aaryan": 8478,
      "Baseball": 8479,
      "Ediel": 8480,
      "Gallego": 8481,
      "Hirsch": 8482,
      "Hangar": 8483,
      "Hamilton": 8484,
      "IEEE": 8485,
      "Little": 8486,
      "Mumbai": 8487,
      "Nafisa": 8488,
      "NATO": 8489,
      "Oswald": 8490,
      "Pineapple": 8491,
      "Psychology": 8492,
      "Rogers": 8493,
      "Sinclair": 8494,
      "Siena": 8495,
      "Speaker": 8496,
      "Sukhvinder": 8497,
      "Ubukata": 8498,
      "Yugoslav": 8499,
      "batteries": 8500,
      "cousin": 8501,
      "Comrads": 8502,
      "Ontario": 8503,
      "disguised": 8504,
      "disambiguation": 8505,
      "Maneuver": 8506,
      "Dragaš": 8507,
      "Mediterranean": 8508,
      "philanthrop": 8509,
      "Giovanni": 8510,
      "PAGASA": 8511,
      "Gutknecht": 8512,
      "!’": 8513,
      "\"“": 8514,
      "(‘": 8515,
      "):": 8516,
      ".)": 8517,
      ".-": 8518,
      ".<": 8519,
      "03": 8520,
      "06": 8521,
      "3x": 8522,
      "400": 8523,
      "5000": 8524,
      "66": 8525,
      "700": 8526,
      "97": 8527,
      "AA": 8528,
      "AD": 8529,
      "Ari": 8530,
      "AFC": 8531,
      "ABC": 8532,
      "Bil": 8533,
      "Bour": 8534,
      "Bod": 8535,
      "Bang": 8536,
      "Bach": 8537,
      "Based": 8538,
      "Bry": 8539,
      "Bhim": 8540,
      "Barr": 8541,
      "Bury": 8542,
      "Baker": 8543,
      "Blech": 8544,
      "Bjö": 8545,
      "C3": 8546,
      "Cer": 8547,
      "Cel": 8548,
      "Cres": 8549,
      "Cav": 8550,
      "Cub": 8551,
      "Cec": 8552,
      "Cann": 8553,
      "Carr": 8554,
      "Cla": 8555,
      "Czer": 8556,
      "Cert": 8557,
      "Clear": 8558,
      "Creed": 8559,
      "Culture": 8560,
      "Cemetery": 8561,
      "DJ": 8562,
      "DW": 8563,
      "Dal": 8564,
      "Dean": 8565,
      "Eb": 8566,
      "Et": 8567,
      "EMA": 8568,
      "EBS": 8569,
      "Egrant": 8570,
      "FF": 8571,
      "Fu": 8572,
      "Fle": 8573,
      "Fil": 8574,
      "Fol": 8575,
      "Ful": 8576,
      "Fant": 8577,
      "Fine": 8578,
      "Ford": 8579,
      "Fior": 8580,
      "Field": 8581,
      "F51": 8582,
      "Fisher": 8583,
      "Gan": 8584,
      "Gur": 8585,
      "Gro": 8586,
      "Gir": 8587,
      "Gamb": 8588,
      "GLA": 8589,
      "Greek": 8590,
      "Gaza": 8591,
      "Hil": 8592,
      "Hun": 8593,
      "Hig": 8594,
      "Hop": 8595,
      "Hort": 8596,
      "Hip": 8597,
      "Hend": 8598,
      "Haj": 8599,
      "Hana": 8600,
      "Hull": 8601,
      "HIV": 8602,
      "Horse": 8603,
      "IN": 8604,
      "Iw": 8605,
      "Ilo": 8606,
      "Iss": 8607,
      "ISI": 8608,
      "IDF": 8609,
      "Jed": 8610,
      "Jes": 8611,
      "Jay": 8612,
      "Jers": 8613,
      "Jain": 8614,
      "Jiang": 8615,
      "Ku": 8616,
      "Kal": 8617,
      "Kum": 8618,
      "Kah": 8619,
      "Kib": 8620,
      "Kyle": 8621,
      "KCP": 8622,
      "Kolk": 8623,
      "Kenny": 8624,
      "Let": 8625,
      "Lind": 8626,
      "Lai": 8627,
      "Lank": 8628,
      "Lung": 8629,
      "Lyn": 8630,
      "Lata": 8631,
      "Liter": 8632,
      "MG": 8633,
      "MK": 8634,
      "Mø": 8635,
      "Mag": 8636,
      "Mak": 8637,
      "Mill": 8638,
      "Mort": 8639,
      "Miz": 8640,
      "Matt": 8641,
      "Mind": 8642,
      "Mai": 8643,
      "Mean": 8644,
      "Much": 8645,
      "MMA": 8646,
      "Miller": 8647,
      "Muela": 8648,
      "Ni": 8649,
      "Nand": 8650,
      "Names": 8651,
      "Ngang": 8652,
      "Por": 8653,
      "Pres": 8654,
      "Ples": 8655,
      "Paint": 8656,
      "Pots": 8657,
      "Pyo": 8658,
      "Papers": 8659,
      "PIC": 8660,
      "Podg": 8661,
      "Qa": 8662,
      "Ri": 8663,
      "Ras": 8664,
      "Rand": 8665,
      "Rest": 8666,
      "Raf": 8667,
      "Rele": 8668,
      "Rican": 8669,
      "SF": 8670,
      "Son": 8671,
      "Sent": 8672,
      "Sul": 8673,
      "Sak": 8674,
      "Sep": 8675,
      "Sell": 8676,
      "Saw": 8677,
      "Sug": 8678,
      "Stern": 8679,
      "Soon": 8680,
      "Sax": 8681,
      "Seven": 8682,
      "Sull": 8683,
      "SLC": 8684,
      "Sadiq": 8685,
      "Tou": 8686,
      "Tol": 8687,
      "Tow": 8688,
      "Tint": 8689,
      "Time": 8690,
      "Tik": 8691,
      "Tob": 8692,
      "Text": 8693,
      "Tuk": 8694,
      "Tower": 8695,
      "UA": 8696,
      "UT": 8697,
      "UTC": 8698,
      "Vers": 8699,
      "Vide": 8700,
      "Vik": 8701,
      "Vari": 8702,
      "WW": 8703,
      "Was": 8704,
      "Wade": 8705,
      "W25": 8706,
      "WAC": 8707,
      "Wailing": 8708,
      "Yes": 8709,
      "Yun": 8710,
      "Yale": 8711,
      "Yosh": 8712,
      "Zet": 8713,
      "Zep": 8714,
      "Zhen": 8715,
      "aes": 8716,
      "aqu": 8717,
      "ault": 8718,
      "bat": 8719,
      "bag": 8720,
      "bone": 8721,
      "bass": 8722,
      "bie": 8723,
      "bio": 8724,
      "binda": 8725,
      "boss": 8726,
      "cc": 8727,
      "cin": 8728,
      "cir": 8729,
      "cers": 8730,
      "cill": 8731,
      "core": 8732,
      "cident": 8733,
      "cular": 8734,
      "caster": 8735,
      "cía": 8736,
      "dur": 8737,
      "dict": 8738,
      "diver": 8739,
      "dney": 8740,
      "dinner": 8741,
      "duties": 8742,
      "dollar": 8743,
      "ez": 8744,
      "fus": 8745,
      "fell": 8746,
      "fled": 8747,
      "fail": 8748,
      "flix": 8749,
      "gel": 8750,
      "gay": 8751,
      "gers": 8752,
      "govern": 8753,
      "gains": 8754,
      "gift": 8755,
      "garden": 8756,
      "hm": 8757,
      "hum": 8758,
      "haw": 8759,
      "hits": 8760,
      "iat": 8761,
      "iad": 8762,
      "iem": 8763,
      "iples": 8764,
      "iques": 8765,
      "jit": 8766,
      "jud": 8767,
      "java": 8768,
      "journals": 8769,
      "kil": 8770,
      "lum": 8771,
      "lia": 8772,
      "lings": 8773,
      "ller": 8774,
      "loud": 8775,
      "licht": 8776,
      "mand": 8777,
      "mess": 8778,
      "mild": 8779,
      "moon": 8780,
      "magaz": 8781,
      "mberg": 8782,
      "nik": 8783,
      "nön": 8784,
      "née": 8785,
      "nández": 8786,
      "oo": 8787,
      "oes": 8788,
      "oter": 8789,
      "oce": 8790,
      "oons": 8791,
      "ography": 8792,
      "pit": 8793,
      "ppe": 8794,
      "pione": 8795,
      "pherd": 8796,
      "qir": 8797,
      "ram": 8798,
      "rak": 8799,
      "rivers": 8800,
      "rug": 8801,
      "rivals": 8802,
      "si": 8803,
      "sion": 8804,
      "sle": 8805,
      "slo": 8806,
      "sens": 8807,
      "slight": 8808,
      "sider": 8809,
      "tall": 8810,
      "tempor": 8811,
      "treated": 8812,
      "ux": 8813,
      "uoli": 8814,
      "viv": 8815,
      "vard": 8816,
      "vacc": 8817,
      "ware": 8818,
      "word": 8819,
      "wise": 8820,
      "wides": 8821,
      "xton": 8822,
      "ye": 8823,
      "yet": 8824,
      "zur": 8825,
      "zia": 8826,
      "zque": 8827,
      "ák": 8828,
      "äffer": 8829,
      "ło": 8830,
      "то": 8831,
      "岔口": 8832,
      "heir": 8833,
      "height": 8834,
      "iny": 8835,
      "inas": 8836,
      "inic": 8837,
      "insur": 8838,
      "incar": 8839,
      "infr": 8840,
      "anath": 8841,
      "animal": 8842,
      "erk": 8843,
      "eras": 8844,
      "eries": 8845,
      "erset": 8846,
      "atu": 8847,
      "atom": 8848,
      "org": 8849,
      "orche": 8850,
      "orica": 8851,
      "orious": 8852,
      "enary": 8853,
      "encour": 8854,
      "enbar": 8855,
      "enobolus": 8856,
      "alus": 8857,
      "altar": 8858,
      "alga": 8859,
      "alora": 8860,
      "assemb": 8861,
      "isd": 8862,
      "isis": 8863,
      "islands": 8864,
      "iscrimin": 8865,
      "rez": 8866,
      "remember": 8867,
      "replace": 8868,
      "recommended": 8869,
      "icon": 8870,
      "today": 8871,
      "tools": 8872,
      "toxic": 8873,
      "oma": 8874,
      "omi": 8875,
      "lem": 8876,
      "leaf": 8877,
      "leps": 8878,
      "lecular": 8879,
      "thr": 8880,
      "threy": 8881,
      "stain": 8882,
      "stant": 8883,
      "enty": 8884,
      "ented": 8885,
      "entran": 8886,
      "ila": 8887,
      "ilo": 8888,
      "illegal": 8889,
      "amm": 8890,
      "amba": 8891,
      "waste": 8892,
      "acid": 8893,
      "accommod": 8894,
      "older": 8895,
      "olics": 8896,
      "adver": 8897,
      "adjust": 8898,
      "adenobolus": 8899,
      "urg": 8900,
      "chorus": 8901,
      "chassis": 8902,
      "chambers": 8903,
      "Theres": 8904,
      "Theological": 8905,
      "ivo": 8906,
      "ivan": 8907,
      "roe": 8908,
      "rovers": 8909,
      "2021": 8910,
      "beating": 8911,
      "emit": 8912,
      "idos": 8913,
      "idency": 8914,
      "uni": 8915,
      "undes": 8916,
      "unable": 8917,
      "unities": 8918,
      "unexpected": 8919,
      "ayas": 8920,
      "imo": 8921,
      "imity": 8922,
      "agos": 8923,
      "ushed": 8924,
      "loaded": 8925,
      "ista": 8926,
      "iste": 8927,
      "deity": 8928,
      "confer": 8929,
      "convent": 8930,
      "conspir": 8931,
      "converted": 8932,
      "concentr": 8933,
      "bery": 8934,
      "berto": 8935,
      "abd": 8936,
      "abo": 8937,
      "abé": 8938,
      "abar": 8939,
      "ablish": 8940,
      "abilities": 8941,
      "absor": 8942,
      "resemb": 8943,
      "resettle": 8944,
      "util": 8945,
      "oph": 8946,
      "opol": 8947,
      "Inspe": 8948,
      "comfort": 8949,
      "aped": 8950,
      "umin": 8951,
      "rix": 8952,
      "alls": 8953,
      "shock": 8954,
      "shorter": 8955,
      "shift": 8956,
      "teaches": 8957,
      "avina": 8958,
      "iani": 8959,
      "eva": 8960,
      "evo": 8961,
      "evangel": 8962,
      "plot": 8963,
      "ategy": 8964,
      "prot": 8965,
      "prosec": 8966,
      "proceeded": 8967,
      "clash": 8968,
      "aked": 8969,
      "ishi": 8970,
      "ighter": 8971,
      "ocy": 8972,
      "ocent": 8973,
      "Chi": 8974,
      "Child": 8975,
      "illiant": 8976,
      "exact": 8977,
      "excited": 8978,
      "iess": 8979,
      "trains": 8980,
      "truth": 8981,
      "afton": 8982,
      "manent": 8983,
      "endang": 8984,
      "Stories": 8985,
      "Arlington": 8986,
      "Arbinda": 8987,
      "Uniche": 8988,
      "Unlikely": 8989,
      "compass": 8990,
      "comprises": 8991,
      "assed": 8992,
      "assess": 8993,
      "uda": 8994,
      "udes": 8995,
      "ephe": 8996,
      "firms": 8997,
      "asts": 8998,
      "astic": 8999,
      "asting": 9000,
      "upper": 9001,
      "ictment": 9002,
      "awla": 9003,
      "1850": 9004,
      "1851": 9005,
      "1841": 9006,
      "perse": 9007,
      "rane": 9008,
      "actors": 9009,
      "acknow": 9010,
      "pressure": 9011,
      "Sheep": 9012,
      "Sheikh": 9013,
      "Shepherd": 9014,
      "Anadenobolus": 9015,
      "notably": 9016,
      "partly": 9017,
      "partially": 9018,
      "partnership": 9019,
      "bright": 9020,
      "shipping": 9021,
      "Commer": 9022,
      "Compos": 9023,
      "María": 9024,
      "dry": 9025,
      "drum": 9026,
      "Alban": 9027,
      "Alnön": 9028,
      "ugu": 9029,
      "indiscrimin": 9030,
      "indictment": 9031,
      "ordained": 9032,
      "medals": 9033,
      "intent": 9034,
      "ansk": 9035,
      "answ": 9036,
      "sciences": 9037,
      "choir": 9038,
      "retro": 9039,
      "retali": 9040,
      "retained": 9041,
      "Leeds": 9042,
      "marijuana": 9043,
      "becca": 9044,
      "displayed": 9045,
      "discontinued": 9046,
      "dispat": 9047,
      "disability": 9048,
      "disperse": 9049,
      "Ship": 9050,
      "Shosh": 9051,
      "recover": 9052,
      "recalled": 9053,
      "urek": 9054,
      "identification": 9055,
      "desire": 9056,
      "strategy": 9057,
      "commonly": 9058,
      "finity": 9059,
      "finance": 9060,
      "Rojava": 9061,
      "anniversary": 9062,
      "collar": 9063,
      "iklai": 9064,
      "Rebecca": 9065,
      "phosph": 9066,
      "olds": 9067,
      ").\"": 9068,
      "ctors": 9069,
      "generation": 9070,
      "issance": 9071,
      "minis": 9072,
      "minster": 9073,
      "1959": 9074,
      "cheyev": 9075,
      "content": 9076,
      "contact": 9077,
      "contacted": 9078,
      "controvers": 9079,
      "mpiad": 9080,
      "ahara": 9081,
      "ailand": 9082,
      "Jane": 9083,
      "Janata": 9084,
      "1940s": 9085,
      "untayo": 9086,
      "observed": 9087,
      "specimens": 9088,
      "specimen": 9089,
      "azaki": 9090,
      "prep": 9091,
      "pread": 9092,
      "tenure": 9093,
      "relegated": 9094,
      "Prison": 9095,
      "Prunus": 9096,
      "tons": 9097,
      "Conn": 9098,
      "Coner": 9099,
      "Conne": 9100,
      "128": 9101,
      "ieri": 9102,
      "Thailand": 9103,
      "intersection": 9104,
      "Sydney": 9105,
      "ologies": 9106,
      "Engert": 9107,
      "tschwil": 9108,
      "Grsh": 9109,
      "Graves": 9110,
      "Gravina": 9111,
      "Grafton": 9112,
      "fourteen": 9113,
      "innings": 9114,
      "centuries": 9115,
      "renew": 9116,
      "Gertr": 9117,
      "supposed": 9118,
      "supply": 9119,
      "creation": 9120,
      "inae": 9121,
      "warbler": 9122,
      "warrant": 9123,
      "wonder": 9124,
      "topic": 9125,
      "provincial": 9126,
      "Olympiad": 9127,
      "flies": 9128,
      "listen": 9129,
      "productions": 9130,
      "producing": 9131,
      "jection": 9132,
      "alysis": 9133,
      "cycle": 9134,
      "nothing": 9135,
      "arrison": 9136,
      "guide": 9137,
      "guaran": 9138,
      "alek": 9139,
      "aleigh": 9140,
      "onso": 9141,
      "Sejo": 9142,
      "launder": 9143,
      "ussian": 9144,
      "Space": 9145,
      "Spiess": 9146,
      "Spurek": 9147,
      "adds": 9148,
      "iments": 9149,
      "operate": 9150,
      "Adam": 9151,
      "Nationale": 9152,
      "monitor": 9153,
      "heads": 9154,
      "alkari": 9155,
      "towels": 9156,
      "Geographical": 9157,
      "attacking": 9158,
      "Franco": 9159,
      "Phleps": 9160,
      "14th": 9161,
      "Beira": 9162,
      "Euros": 9163,
      "prompt": 9164,
      "Partridge": 9165,
      "USL": 9166,
      "USS": 9167,
      "poem": 9168,
      "Guad": 9169,
      "Guthrey": 9170,
      "Moen": 9171,
      "Canon": 9172,
      "Warnec": 9173,
      "bands": 9174,
      "link": 9175,
      "Acad": 9176,
      "Indones": 9177,
      "ominantly": 9178,
      "Westminster": 9179,
      "affairs": 9180,
      "graduation": 9181,
      "gradually": 9182,
      "Hernández": 9183,
      "Trinity": 9184,
      "originated": 9185,
      "arma": 9186,
      "CAC": 9187,
      "faces": 9188,
      "facilit": 9189,
      "erville": 9190,
      "1902": 9191,
      "clothing": 9192,
      "authored": 9193,
      "Expo": 9194,
      "capac": 9195,
      "hands": 9196,
      "Origin": 9197,
      "audio": 9198,
      "views": 9199,
      "Editor": 9200,
      "activists": 9201,
      "Andalus": 9202,
      "insula": 9203,
      "Indiana": 9204,
      "Malabar": 9205,
      "rider": 9206,
      "riders": 9207,
      "voiced": 9208,
      "Coel": 9209,
      "Cooper": 9210,
      "What": 9211,
      "voting": 9212,
      "ribution": 9213,
      "qualification": 9214,
      "Elka": 9215,
      "Ellen": 9216,
      "Norr": 9217,
      "ancest": 9218,
      "Steve": 9219,
      "rounded": 9220,
      "ittees": 9221,
      "Computing": 9222,
      "defence": 9223,
      "defender": 9224,
      "Tomki": 9225,
      "Tomorrow": 9226,
      "alias": 9227,
      "require": 9228,
      "requires": 9229,
      "Iramba": 9230,
      "begins": 9231,
      "Allen": 9232,
      "vessels": 9233,
      "labour": 9234,
      "laboratory": 9235,
      "Method": 9236,
      "stationed": 9237,
      "Charlie": 9238,
      "ieval": 9239,
      "richsen": 9240,
      "1891": 9241,
      "1892": 9242,
      "1893": 9243,
      "1897": 9244,
      "1899": 9245,
      "collect": 9246,
      "collective": 9247,
      "Oguntayo": 9248,
      "Schäffer": 9249,
      "covering": 9250,
      "nominations": 9251,
      "camping": 9252,
      "campus": 9253,
      "putting": 9254,
      "Harry": 9255,
      "Harvard": 9256,
      "reportedly": 9257,
      "raced": 9258,
      "difference": 9259,
      "radical": 9260,
      "Rufus": 9261,
      "Deep": 9262,
      "denied": 9263,
      "haal": 9264,
      "metro": 9265,
      "steam": 9266,
      "businesses": 9267,
      "weekly": 9268,
      "weekend": 9269,
      "simply": 9270,
      "olved": 9271,
      "Sky": 9272,
      "turns": 9273,
      "constitu": 9274,
      "launch": 9275,
      "organizer": 9276,
      "organizing": 9277,
      "Revision": 9278,
      "Santos": 9279,
      "Perth": 9280,
      "Perry": 9281,
      "swit": 9282,
      "switch": 9283,
      "victory": 9284,
      "OxT": 9285,
      "Single": 9286,
      "Angus": 9287,
      "Catholics": 9288,
      "fifty": 9289,
      "fifteen": 9290,
      "bodywork": 9291,
      "injury": 9292,
      "Mirror": 9293,
      "gotten": 9294,
      "rolled": 9295,
      "rolls": 9296,
      "sessed": 9297,
      "friendly": 9298,
      "Cambridge": 9299,
      "Cameron": 9300,
      "Madison": 9301,
      "streets": 9302,
      "concerned": 9303,
      "Munich": 9304,
      "hitting": 9305,
      "Too": 9306,
      "Toy": 9307,
      "Together": 9308,
      "Wallace": 9309,
      "administrated": 9310,
      "Apple": 9311,
      "McQueen": 9312,
      "McMaster": 9313,
      "trips": 9314,
      "1875": 9315,
      "controls": 9316,
      "coroni": 9317,
      "valu": 9318,
      "Glen": 9319,
      "Gladi": 9320,
      "Glacier": 9321,
      "fraud": 9322,
      "electron": 9323,
      "everything": 9324,
      "Milovan": 9325,
      "mountains": 9326,
      "powerful": 9327,
      "walla": 9328,
      "demonstrations": 9329,
      "Financial": 9330,
      "Mostly": 9331,
      "deliber": 9332,
      "soldier": 9333,
      "Pozz": 9334,
      "Virgo": 9335,
      "haniah": 9336,
      "texts": 9337,
      "Josef": 9338,
      "Secondary": 9339,
      "Republicans": 9340,
      "approach": 9341,
      "organisers": 9342,
      "Liberal": 9343,
      "Liberman": 9344,
      "Acting": 9345,
      "Renard": 9346,
      "viral": 9347,
      "Annual": 9348,
      "strongly": 9349,
      "explosive": 9350,
      "Goal": 9351,
      "Myan": 9352,
      "basal": 9353,
      "basic": 9354,
      "policemen": 9355,
      "1791": 9356,
      "1798": 9357,
      "STAé": 9358,
      "reviews": 9359,
      "combined": 9360,
      "existed": 9361,
      "existing": 9362,
      "explored": 9363,
      "expressway": 9364,
      "Administrative": 9365,
      "Buxton": 9366,
      "consistently": 9367,
      "Duš": 9368,
      "Early": 9369,
      "Imperial": 9370,
      "Ramanath": 9371,
      "Torres": 9372,
      "Township": 9373,
      "burned": 9374,
      "burning": 9375,
      "happy": 9376,
      "happens": 9377,
      "uthou": 9378,
      "peaked": 9379,
      "privateer": 9380,
      "requested": 9381,
      "textile": 9382,
      "finds": 9383,
      "wounds": 9384,
      "attempted": 9385,
      "attempting": 9386,
      "Transportation": 9387,
      "Butler": 9388,
      "Justin": 9389,
      "Longhorn": 9390,
      "Macroom": 9391,
      "housing": 9392,
      "perspect": 9393,
      "pastor": 9394,
      "talking": 9395,
      "install": 9396,
      "instances": 9397,
      "occupied": 9398,
      "Pauli": 9399,
      "Establish": 9400,
      "García": 9401,
      "Luciano": 9402,
      "Somerset": 9403,
      "Subdivision": 9404,
      "Voters": 9405,
      "statue": 9406,
      "platoons": 9407,
      "Blue": 9408,
      "Beara": 9409,
      "flowers": 9410,
      "gressive": 9411,
      "humanitarian": 9412,
      "powder": 9413,
      "threatened": 9414,
      "Interpretation": 9415,
      "traditions": 9416,
      "grandmother": 9417,
      "scientists": 9418,
      "IVE": 9419,
      "Rajesh": 9420,
      "Suz": 9421,
      "Terriers": 9422,
      "botan": 9423,
      "seeks": 9424,
      "achievement": 9425,
      "Jacobite": 9426,
      "Hamburg": 9427,
      "Mitch": 9428,
      "Netflix": 9429,
      "fears": 9430,
      "separated": 9431,
      "impact": 9432,
      "evacu": 9433,
      "evacuated": 9434,
      "Universal": 9435,
      "Badar": 9436,
      "Badminton": 9437,
      "Campbell": 9438,
      "Raymond": 9439,
      "cameras": 9440,
      "slaves": 9441,
      "reedom": 9442,
      "detention": 9443,
      "Commanding": 9444,
      "Historiography": 9445,
      "Czechos": 9446,
      "Eputhou": 9447,
      "Visayas": 9448,
      "dropped": 9449,
      "chapter": 9450,
      "superior": 9451,
      "Contemporary": 9452,
      "studying": 9453,
      "significantly": 9454,
      "Dreaming": 9455,
      "Korea": 9456,
      "Saumais": 9457,
      "Scheme": 9458,
      "Walter": 9459,
      "Walenty": 9460,
      "flee": 9461,
      "flew": 9462,
      "varanopid": 9463,
      "debt": 9464,
      "detectives": 9465,
      "outlets": 9466,
      "assignment": 9467,
      "preservation": 9468,
      "1683": 9469,
      "1684": 9470,
      "Consult": 9471,
      "operationally": 9472,
      "Organis": 9473,
      "Organization": 9474,
      "Area": 9475,
      "Baqir": 9476,
      "Makeover": 9477,
      "Olt": 9478,
      "Opera": 9479,
      "materials": 9480,
      "connection": 9481,
      "predominantly": 9482,
      "prayer": 9483,
      "praying": 9484,
      "photograph": 9485,
      "possibly": 9486,
      "legislator": 9487,
      "flooding": 9488,
      "scholarship": 9489,
      "Kazakhstan": 9490,
      "Holdings": 9491,
      "Natio": 9492,
      "Seminary": 9493,
[...]
