{"[PAD]": 0, "[UNK]": 1, "[CLS]": 2, "[SEP]": 3, "[MASK]": 4, "!": 5, "\"": 6, "#": 7, "$": 8, "%": 9, "&": 10, "'": 11, "(": 12, ")": 13, "*": 14, "+": 15, ",": 16, "-": 17, ".": 18, "/": 19, "0": 20, "1": 21, "2": 22, "3": 23, "4": 24, "5": 25, "6": 26, "7": 27, "8": 28, "9": 29, ":": 30, ";": 31, "<": 32, "=": 33, ">": 34, "?": 35, "@": 36, "A": 37, "B": 38, "C": 39, "D": 40, "E": 41, "F": 42, "G": 43, "H": 44, "I": 45, "J": 46, "K": 47, "L": 48, "M": 49, "N": 50, "O": 51, "P": 52, "Q": 53, "R": 54, "S": 55, "T": 56, "U": 57, "V": 58, "W": 59, "X": 60, "Y": 61, "Z": 62, "[": 63, "\\": 64, "]": 65, "_": 66, "a": 67, "b": 68, "c": 69, "d": 70, "e": 71, "f": 72, "g": 73, "h": 74, "i": 75, "j": 76, "k": 77, "l": 78, "m": 79, "n": 80, "o": 81, "p": 82, "q": 83, "r": 84, "s": 85, "t": 86, "u": 87, "v": 88, "w": 89, "x": 90, "y": 91, "z": 92, "{": 93, "|": 94, "~": 95, "\u00a1": 96, "\u00a2": 97, "\u00a3": 98, "\u00a4": 99, "\u00a5": 100, "\u00a6": 101, "\u00a7": 102, "\u00a8": 103, "\u00a9": 104, "\u00aa": 105, "\u00ab": 106, "\u00ac": 107, "\u00ae": 108, "\u00af": 109, "\u00b0": 110, "\u00b1": 111, "\u00b2": 112, "\u00b3": 113, "\u00b4": 114, "\u00b5": 115, "\u00b6": 116, "\u00b7": 117, "\u00b8": 118, "\u00b9": 119, "\u00ba": 120, "\u00bb": 121, "\u00bc": 122, "\u00bd": 123, "\u00be": 124, "\u00bf": 125, "\u00c2": 126, "\u00c3": 127, "\u00c4": 128, "\u00c5": 129, "\u00c7": 130, "\u00c8": 131, "\u00ca": 132, "\u00d0": 133, "\u00d1": 134, "\u00d4": 135, "\u00d6": 136, "\u00d7": 137, "\u00d8": 138, "\u00d9": 139, "\u00db": 140, "\u00e0": 141, "\u00e1": 142, "\u00e2": 143, "\u00e3": 144, "\u00e4": 145, "\u00e5": 146, "\u00e6": 147, "\u00e7": 148, "\u00e8": 149, "\u00e9": 150, "\u00eb": 151, "\u00ec": 152, "\u00ed": 153, "\u00ef": 154, "\u010a": 155, "\u010d": 156, "\u0120": 157, "\u0122": 158, "\u0123": 159, "\u0124": 160, "\u0125": 161, "\u0126": 162, "\u0127": 163, "\u0128": 164, "\u0129": 165, "\u012a": 166, "\u012b": 167, "\u012c": 168, "\u012d": 169, "\u012e": 170, "\u012f": 171, "\u0130": 172, "\u0131": 173, "\u0132": 174, "\u0133": 175, "\u0134": 176, "\u0135": 177, "\u0136": 178, "\u0137": 179, "\u0138": 180, "\u0139": 181, "\u013a": 182, "\u013b": 183, "\u013c": 184, "\u013d": 185, "\u013e": 186, "\u013f": 187, "\u0140": 188, "\u0141": 189, "\u0142": 190, "\u0143": 191, "\u0120t": 192, "he": 193, "\u0120a": 194, "in": 195, "er": 196, "\u0120the": 197, "on": 198, "\u010d\u010a": 199, "ed": 200, "or": 201, "en": 202, "\u0120w": 203, "an": 204, "at": 205, "\u0120s": 206, "\u0120o": 207, "is": 208, "re": 209, "ar": 210, "al": 211, "\u0120in": 212, "\u0120of": 213, "it": 214, "\u0120f": 215, "nd": 216, "as": 217, "\u0120c": 218, "es": 219, "\u0120b": 220, "ic": 221, "\u0120and": 222, "ing": 223, "\u0120p": 224, "\u0120S": 225, "ion": 226, "ou": 227, "\u0120to": 228, "om": 229, "\u0120m": 230, "le": 231, "\u0120T": 232, "\u0120A": 233, "\u0120d": 234, "\u01201": 235, "\u0120C": 236, "\u0120h": 237, "ent": 238, "il": 239, "am": 240, "\u0120M": 241, "\u0120was": 242, "\u0120re": 243, "ol": 244, "st": 245, "el": 246, "\u0120H": 247, "ro": 248, "\u0120I": 249, "\u01202": 250, "ad": 251, "\u0120P": 252, "ur": 253, "ac": 254, "iv": 255, "\u0120l": 256, "ec": 257, "\u0120on": 258, "em": 259, "\u0120The": 260, "\u012019": 261, "ir": 262, "\u0120B": 263, "\u0120D": 264, "\u0120n": 265, "ter": 266, "\u0120th": 267, "\u0120\"": 268, "\u0120for": 269, "\u0120is": 270, "\u0120e": 271, "ly": 272, "ot": 273, "id": 274, "ation": 275, "\u0120R": 276, "et": 277, "\u0120he": 278, "\u012020": 279, "\u0120L": 280, "ig": 281, "ay": 282, "ut": 283, "im": 284, "\u0120at": 285, "us": 286, "\u0120as": 287, "\u0120F": 288, "\u0120J": 289, "\u0120G": 290, "ch": 291, "ers": 292, "un": 293, "\u0120N": 294, "\u0120(": 295, "\u0120g": 296, "\u0120by": 297, "ct": 298, "ist": 299, "ith": 300, "ce": 301, "\u0120W": 302, "and": 303, "\u0120st": 304, "th": 305, "ow": 306, "\u0120with": 307, "\u0120be": 308, "'s": 309, "ber": 310, "rom": 311, "\u0120E": 312, "ag": 313, "\u0120O": 314, "\u0120an": 315, "\u0120wh": 316, "\u0120al": 317, "\u0120201": 318, "her": 319, "os": 320, "um": 321, "ri": 322, "est": 323, "\u0120that": 324, "ver": 325, "ul": 326, "oc": 327, "\u0120from": 328, "ra": 329, "\u0120U": 330, "ian": 331, "\u0120con": 332, "\u0120K": 333, "hi": 334, "ud": 335, "\u0120In": 336, "\u0120com": 337, "\u00e2\u0122": 338, "res": 339, "all": 340, "ity": 341, "\u0120He": 342, "ate": 343, "art": 344, "ain": 345, "op": 346, "\u0120v": 347, "\u0120de": 348, "ort": 349, "ew": 350, "av": 351, "\u0120pro": 352, "our": 353, "\u0120r": 354, "ary": 355, "if": 356, "ies": 357, "ated": 358, "ld": 359, "ak": 360, "ard": 361, "ub": 362, "ish": 363, "ill": 364, "\u0120his": 365, "igh": 366, "ia": 367, "pp": 368, "\u0120it": 369, "od": 370, "ab": 371, "\u0120ch": 372, "ear": 373, "ich": 374, "\u0120St": 375, "ere": 376, "\u0120Ch": 377, "\u0120se": 378, "oun": 379, "ov": 380, "ember": 381, "ong": 382, "ous": 383, "\u0120were": 384, "\u0120pl": 385, "ess": 386, "end": 387, "ions": 388, "ell": 389, "ight": 390, "ant": 391, "ep": 392, "ork": 393, "ame": 394, "ap": 395, "ge": 396, "ment": 397, "og": 398, "\u0120had": 399, "qu": 400, "orn": 401, "\u0120It": 402, "\u0120comp": 403, "\u0120ex": 404, "\u0120or": 405, "cl": 406, "\u0120Un": 407, "mer": 408, "\u0120are": 409, "\u0120le": 410, "ast": 411, "ice": 412, "ound": 413, "ran": 414, "ive": 415, "ect": 416, "ust": 417, "\u0120ar": 418, "up": 419, "ial": 420, "ore": 421, "ict": 422, "erv": 423, "ug": 424, "ine": 425, "\u00e2\u0122\u0135": 426, "\u0120ev": 427, "amp": 428, "so": 429, "\u0120which": 430, "ue": 431, "rit": 432, "\u0120fir": 433, "\u0120Y": 434, "uc": 435, "ical": 436, "\u0120sp": 437, "fter": 438, "00": 439, "\u0120k": 440, "ang": 441, "ond": 442, "ok": 443, "\u0120y": 444, "\u0120V": 445, "\u0120te": 446, "hed": 447, "\u01202019": 448, "ount": 449, "ost": 450, "ord": 451, "\u0120un": 452, "ass": 453, "\u0120also": 454, "ie": 455, "out": 456, "\u0120first": 457, "ack": 458, "\u0120her": 459, "lect": 460, "\u0120has": 461, "hip": 462, "ry": 463, "\u0120She": 464, "\u0120Ar": 465, "\u0120who": 466, "ff": 467, "ik": 468, "ational": 469, "se": 470, "\u0120not": 471, "clud": 472, "\u0120cl": 473, "\u0120Th": 474, "\u0120rep": 475, "ther": 476, "\u0120their": 477, "ome": 478, "\u012018": 479, "20": 480, "iz": 481, "ics": 482, "ater": 483, "ivers": 484, "\u0120she": 485, "\u0120res": 486, "\".": 487, "man": 488, "ence": 489, "low": 490, "und": 491, "te": 492, "ey": 493, "\u0120whe": 494, "\u0120pol": 495, "\u0120part": 496, "ave": 497, "\u0120off": 498, "ire": 499, "ubl": 500, "\u0120ab": 501, "\u0120been": 502, "\u0120sh": 503, "ition": 504, "\u0120On": 505, "rou": 506, "ace": 507, "ach": 508, "\",": 509, "\u0120Al": 510, "land": 511, "ign": 512, "\u0120ad": 513, "ied": 514, "\u0120Mar": 515, "age": 516, "\u0120200": 517, "\u0120includ": 518, "ide": 519, "gh": 520, "ult": 521, "ree": 522, "\u0120198": 523, "ure": 524, "\u0120ag": 525, "ade": 526, "\u0120play": 527, "\u0120work": 528, "\u0120Com": 529, "per": 530, "cc": 531, "\u0120199": 532, "oy": 533, "\u0120bec": 534, "wo": 535, "uring": 536, "\u0120serv": 537, "ally": 538, "\u01203": 539, "\u0120its": 540, "\u0120su": 541, "ason": 542, "\u0120app": 543, "own": 544, "let": 545, "aw": 546, "ss": 547, "\u0120j": 548, "\u0120after": 549, "ations": 550, "\u0120one": 551, "ip": 552, "we": 553, "ased": 554, "ake": 555, "oin": 556, "ime": 557, "iversity": 558, "\u0120this": 559, "ilm": 560, "\u0120team": 561, "uary": 562, "over": 563, "ward": 564, "ited": 565, "eg": 566, "to": 567, "ould": 568, "ild": 569, "\u0120year": 570, "ren": 571, "ident": 572, "\u0120cont": 573, "\u0120att": 574, "ince": 575, "tern": 576, "\u0120University": 577, "ind": 578, "ood": 579, "\u0120but": 580, "\u0120An": 581, "ball": 582, "ican": 583, "\u0120man": 584, "outh": 585, "fer": 586, "ens": 587, "\u0120two": 588, "\u0120dis": 589, "ator": 590, "\u0120sc": 591, "\u0120have": 592, "\u0120rec": 593, "eop": 594, "ft": 595, "ates": 596, "),": 597, "oot": 598, "gan": 599, "\u0120we": 600, "\u0120Par": 601, "cho": 602, "\u0120they": 603, "old": 604, "\u0120New": 605, "\u0120season": 606, "ampions": 607, "\u0120sec": 608, "\u0120comm": 609, "istr": 610, "\u0120des": 611, "\u0120elect": 612, "br": 613, "\u0120Sen": 614, "eople": 615, "les": 616, "\u0120us": 617, "\u0120over": 618, "ters": 619, ").": 620, "ath": 621, "iss": 622, "ted": 623, "ts": 624, "ener": 625, "\u0120out": 626, "orld": 627, "uct": 628, "one": 629, "ile": 630, "ived": 631, "\u01205": 632, "ecember": 633, "resent": 634, "\u0120event": 635, "ric": 636, "rop": 637, "ces": 638, "\u0120loc": 639, "for": 640, "mp": 641, "urn": 642, "\u0120fin": 643, "\u0120reg": 644, "ollow": 645, "\u0120Le": 646, "\u0120This": 647, "ory": 648, "\u0120ro": 649, "ely": 650, "\u0120195": 651, "chool": 652, "ons": 653, "ement": 654, "\u0120und": 655, "\u0120other": 656, "\u0120film": 657, "\u0120En": 658, "ished": 659, "\u0120December": 660, "\u01204": 661, "\u0120act": 662, "oh": 663, "\u0120up": 664, "\u0120col": 665, "ean": 666, "med": 667, "\u0120Col": 668, "ex": 669, "\u0120Z": 670, "\u0120new": 671, "ook": 672, "ampionship": 673, "\u0120en": 674, "ered": 675, "usic": 676, "\u0120Jan": 677, "ress": 678, "irect": 679, "ah": 680, "\u0120pre": 681, "are": 682, "\u0120197": 683, "rib": 684, "\u0120about": 685, "\u0120pr": 686, "\u0120kn": 687, "wn": 688, "\u00c3\u00a9": 689, "\u0120into": 690, "ional": 691, "act": 692, "\u0120Comm": 693, "ail": 694, "born": 695, "pl": 696, "\u0120im": 697, "\u0120follow": 698, "\u0120men": 699, "\u0120all": 700, "able": 701, "\u0120stud": 702, "19": 703, "\u00e2\u0122\u013b": 704, "\u0120during": 705, "ament": 706, "ark": 707, "\u0120publ": 708, "\u0120made": 709, "\u0120194": 710, "\u0120where": 711, "\u0120hous": 712, "iver": 713, "\u0120second": 714, "\u0120Ind": 715, "emb": 716, "\u01202020": 717, "\u0120under": 718, "az": 719, "ral": 720, "ather": 721, "ite": 722, "rab": 723, "\u0120offic": 724, "ious": 725, "sp": 726, "\u0120bu": 727, "ram": 728, "rad": 729, "ootball": 730, "\u0120rele": 731, "hire": 732, "\u0120compet": 733, "arn": 734, "\u0120Sp": 735, "\u0120192": 736, "overn": 737, "\u0120ret": 738, "air": 739, "vel": 740, "ai": 741, "ision": 742, "\u0120found": 743, "ase": 744, "\u0120Amer": 745, "\u0120spec": 746, "li": 747, "\u0120num": 748, "\u0120United": 749, "aj": 750, "ob": 751, "ance": 752, "\u0120him": 753, "olog": 754, "\u0120again": 755, "ann": 756, "\u0120per": 757, "\u0120January": 758, "\u0120Sh": 759, "\u0120Pro": 760, "\u0120196": 761, "io": 762, "orth": 763, "ily": 764, "\u0120193": 765, "\u0120since": 766, "\u0120ass": 767, "duc": 768, "\u0120them": 769, "ank": 770, "\u0120Brit": 771, "\u0120became": 772, "ix": 773, "\u01206": 774, "\u0120song": 775, "ock": 776, "\u0120then": 777, "\u0120Arab": 778, "urr": 779, "\u0120polit": 780, "eneral": 781, "ph": 782, "\u0120Day": 783, "ose": 784, "ober": 785, "\u0120people": 786, "\u0120Sy": 787, "\u0120For": 788, "my": 789, "\u0120time": 790, "\u0120ind": 791, "ities": 792, "\u0120fam": 793, "\u0120bet": 794, "ced": 795, "ton": 796, "\u0120would": 797, "\u0120held": 798, "inn": 799, "\u0120call": 800, "istrict": 801, "\u0120Eng": 802, "\u0120four": 803, "ior": 804, "\u0120ent": 805, "\u0120sa": 806, "\u0120years": 807, "che": 808, "ague": 809, "ina": 810, "\u0120sing": 811, "\u012016": 812, "oci": 813, "pr": 814, "\u0120end": 815, "use": 816, "overnment": 817, "\u0120number": 818, "pt": 819, "ans": 820, "\u0120some": 821, "roup": 822, "ib": 823, "\u0120inv": 824, "\u0120co": 825, "omen": 826, "str": 827, "urch": 828, "\u0120later": 829, "\u0120Jun": 830, "rough": 831, "ween": 832, "eat": 833, "ten": 834, "\u0120acc": 835, "ative": 836, "\u0120At": 837, "\u0120After": 838, "\u0120Jew": 839, "\u0120evict": 840, "\u0120supp": 841, "\u0120born": 842, "\u0120more": 843, "\u012017": 844, "\u0120World": 845, "\u0120British": 846, "led": 847, "til": 848, "\u0120direct": 849, "\u0120rece": 850, "\u0120Ger": 851, "mpics": 852, "ef": 853, "way": 854, "ings": 855, "\u0120Sum": 856, "\u0120only": 857, "\u0120cons": 858, "\u00c3\u00a1": 859, "\u0120sur": 860, "\u0120may": 861, "resident": 862, "\u0120including": 863, "bum": 864, "ors": 865, "\u0120music": 866, "stit": 867, "ek": 868, "ier": 869, "\u0120Q": 870, "\u0120mov": 871, "\u0120sever": 872, "ugust": 873, "any": 874, "\u0120As": 875, "uth": 876, "\u0120August": 877, "ilit": 878, "\u0120Oly": 879, "\u0120when": 880, "als": 881, "oth": 882, "\u0120Summer": 883, "ev": 884, "\u0120between": 885, "lish": 886, "aly": 887, "\u0120art": 888, "ty": 889, "ough": 890, "\u0120American": 891, "\u0120against": 892, "ating": 893, "ently": 894, "ames": 895, "\u0120Nov": 896, "The": 897, "ke": 898, "\u0120qu": 899, "\u0120will": 900, "\u0120Cl": 901, "\u0120They": 902, "\u0120name": 903, "\u0120lead": 904, "\u0120won": 905, "\u0120ser": 906, "\u0120being": 907, "\u0120def": 908, "ever": 909, "\u0120count": 910, "\u012010": 911, "\u0120Ju": 912, "\u0120known": 913, "\u0120sub": 914, "ese": 915, "\u0120mar": 916, "\u0120Joh": 917, "\u0120Championship": 918, "\u0120-": 919, "\u0120Ass": 920, "\u0120until": 921, "\u0120served": 922, "\u0120following": 923, "\u0120\u00e2\u0122\u0135": 924, "\u0120member": 925, "\u0120Con": 926, "other": 927, "\u0120album": 928, "\u01202018": 929, "\u0120inter": 930, "\u0120do": 931, "\u0120three": 932, "ourn": 933, "\u0120family": 934, ".\"": 935, "fore": 936, "iel": 937, "min": 938, "\u0120writ": 939, "\u0120Is": 940, "uss": 941, "ept": 942, "\u0120report": 943, "\u0120March": 944, "\u0120there": 945, "\u0120well": 946, "\u0120cre": 947, "\u0120car": 948, "\u0120Pol": 949, "ife": 950, "\u0120released": 951, "\u0120Olympics": 952, "red": 953, "\u01207": 954, "\u01208": 955, "row": 956, "rat": 957, "\u0120tran": 958, "ick": 959, "\u0120Ad": 960, "ives": 961, "iment": 962, "\u0120November": 963, "\u0120July": 964, "\u0120\u00e2\u0122": 965, "ale": 966, "\u0120Apr": 967, "\u0120rel": 968, "cess": 969, "\u0120Sc": 970, "\u0120represent": 971, "\u0120police": 972, "\u0120said": 973, "\u0120several": 974, "cy": 975, "ject": 976, "\u0120est": 977, "\u0120Aust": 978, "\u0120ed": 979, "\u0120group": 980, "\u0120state": 981, "\u0120while": 982, "\u0120prov": 983, "ission": 984, "\u0120Syri": 985, "oon": 986, "ony": 987, "alk": 988, "\u0120Count": 989, "\u0120Pl": 990, "\u0120Rep": 991, "\u0120Oct": 992, "\u0120June": 993, "aug": 994, "hen": 995, "ern": 996, "\u0120book": 997, "\u0120through": 998, "\u0120before": 999, "aint": 1000, "\u0120April": 1001, "pen": 1002, "\u012012": 1003, "ech": 1004, "\u0120National": 1005, "der": 1006, "fess": 1007, "uen": 1008, "ual": 1009, "lege": 1010, "amed": 1011, "\u0120form": 1012, "\u0120attack": 1013, "\u0120October": 1014, "ism": 1015, "\u0120competed": 1016, "\u0120ra": 1017, "\u0120school": 1018, "\u0120dec": 1019, "\u0120May": 1020, "\u0120list": 1021, "\u0120Reg": 1022, "ific": 1023, "ron": 1024, "enn": 1025, "\u0120set": 1026, "\u0120me": 1027, "\u0120med": 1028, "\u0120His": 1029, "\u0120ear": 1030, "\u0120Fran": 1031, "\u0120add": 1032, "shire": 1033, "ued": 1034, "arg": 1035, "urk": 1036, "ivision": 1037, "\u0120Ge": 1038, "ried": 1039, "ized": 1040, "\u0120desc": 1041, "\u0120John": 1042, "reat": 1043, "\u0120cent": 1044, "\u0120prom": 1045, "\u0120mat": 1046, "\u0120rem": 1047, "\u0120child": 1048, "form": 1049, "velop": 1050, "\u0120eviction": 1051, "ures": 1052, "ve": 1053, "\u0120tit": 1054, "\u0120ac": 1055, "\u0120Sa": 1056, "\u0120Ph": 1057, "\u0120River": 1058, "erson": 1059, "\u0120government": 1060, "\u0120Eu": 1061, "ike": 1062, "\u0120appear": 1063, "ternational": 1064, "ilitary": 1065, "\u0120award": 1066, "\u0120own": 1067, "\u0120Pr": 1068, "\u0120Dem": 1069, "ott": 1070, "\u0120State": 1071, "\u0120imp": 1072, "\u0120series": 1073, "eptember": 1074, "oard": 1075, "son": 1076, "ret": 1077, "\u0120mon": 1078, "ular": 1079, "000": 1080, "\u0120German": 1081, "\u0120fl": 1082, "ents": 1083, "\u0120refer": 1084, "ained": 1085, "\u0120League": 1086, "radu": 1087, "\u0120received": 1088, "ister": 1089, "\u0120pos": 1090, "\u0120September": 1091, "\u0120most": 1092, "\u0120day": 1093, "\u0120191": 1094, "\u0120near": 1095, "apt": 1096, "oyal": 1097, "augh": 1098, "rist": 1099, "sh": 1100, "ital": 1101, "ash": 1102, "aced": 1103, "igin": 1104, "\u0120States": 1105, "\u0120exp": 1106, "\u0120Senator": 1107, "ology": 1108, "\u00c3\u00b3": 1109, "\u01209": 1110, "\u0120Can": 1111, "\u0120Car": 1112, "\u0120trans": 1113, "gram": 1114, "ll": 1115, "\u0120am": 1116, "\u0120South": 1117, "\u0120than": 1118, "\u0120Fe": 1119, "\u0120US": 1120, "uction": 1121, "\u0120located": 1122, "embers": 1123, "its": 1124, "\u0120curr": 1125, "\u0120War": 1126, "\u01202016": 1127, "hern": 1128, "\u0120used": 1129, "\u0120tr": 1130, "leg": 1131, "\u0120Port": 1132, "imes": 1133, "\u0120organ": 1134, "\u0120Europ": 1135, "aim": 1136, "lif": 1137, "omin": 1138, "\u0120Cent": 1139, "ired": 1140, "\u0120head": 1141, "\u0120start": 1142, "\u0120vi": 1143, "ightlif": 1144, "\u0120final": 1145, "\u0120published": 1146, "\u0120support": 1147, "ightlifter": 1148, "rand": 1149, "ert": 1150, "\u0120suc": 1151, "ised": 1152, "\u0120football": 1153, "\u0120ph": 1154, "\u0120Turk": 1155, "\u0120died": 1156, "\u0120conf": 1157, "udi": 1158, "\u0120included": 1159, "\u0120Democ": 1160, "\u0120women": 1161, "\u0120feat": 1162, "\u0120cour": 1163, "\u0120And": 1164, "\u012015": 1165, "elf": 1166, "ured": 1167, "iving": 1168, "\u01202017": 1169, "uthor": 1170, "\u0120six": 1171, "icip": 1172, "\u0120top": 1173, "\u012013": 1174, "\u0120la": 1175, "\u0120record": 1176, "\u0120called": 1177, "\u0120single": 1178, "\u0120Austral": 1179, "\u0120tra": 1180, "\u0120oper": 1181, "\u0120open": 1182, "reet": 1183, "\u0120bl": 1184, "\u0120School": 1185, "\u0120main": 1186, "\u0120members": 1187, "\u0120Dep": 1188, "\u0120West": 1189, "\u0120ann": 1190, "very": 1191, "\u0120vis": 1192, "\u0120dep": 1193, "\u0120develop": 1194, "\u0120York": 1195, "\u0120resp": 1196, "bruary": 1197, "liament": 1198, "stitut": 1199, "\u0120bro": 1200, "\u0120took": 1201, "\u0120min": 1202, "ley": 1203, "\u0120hist": 1204, "ilt": 1205, "\u0120Part": 1206, "\u0120no": 1207, "\u0120Gu": 1208, "osp": 1209, "\u0120origin": 1210, "\u0120such": 1211, "\u0120contin": 1212, "\u0120house": 1213, "\u0120Democrat": 1214, "au": 1215, "\u0120.": 1216, "ana": 1217, "ask": 1218, "\u0120based": 1219, "\u0120dr": 1220, "\u0120Mid": 1221, "ross": 1222, "\u0120str": 1223, "\u0120deb": 1224, "\u0120February": 1225, "ez": 1226, "\u0120war": 1227, "\u0120can": 1228, "ica": 1229, "\u0120worked": 1230, "\u0120College": 1231, "\u0120describ": 1232, "tal": 1233, "yn": 1234, "\u0120em": 1235, "\u0120ter": 1236, "\u0120occ": 1237, "\u0120back": 1238, "\u0120Cork": 1239, "\u0120Min": 1240, "\u0120former": 1241, "\u0120began": 1242, "\u0120death": 1243, "\u0120kill": 1244, "ika": 1245, "\u0120teams": 1246, "\u0120build": 1247, "\u0120par": 1248, "\u0120Am": 1249, "\u0120ref": 1250, "\u0120Her": 1251, "\u0120place": 1252, "\u0120weightlifter": 1253, "\u0120species": 1254, "ne": 1255, "ven": 1256, "ins": 1257, "orp": 1258, "ald": 1259, "\u0120did": 1260, "\u0120North": 1261, "\u0120go": 1262, "\u0120Ed": 1263, "ounc": 1264, "igned": 1265, "\u01201952": 1266, "\u0120estab": 1267, "ved": 1268, "\u0120could": 1269, "\u0120both": 1270, "\u0120district": 1271, "\u0120gu": 1272, "\u0120prot": 1273, "\u0120left": 1274, "\u0120join": 1275, "\u0120local": 1276, "urned": 1277, "\u0120activ": 1278, "\u0120County": 1279, "\u0120sm": 1280, "ury": 1281, "eller": 1282, "ield": 1283, "uk": 1284, "arge": 1285, "\u0120city": 1286, "ician": 1287, "\u0120Sec": 1288, "\u0120190": 1289, "ists": 1290, "avy": 1291, "\u0120played": 1292, "rench": 1293, "18": 1294, "ise": 1295, "\u0120Man": 1296, "\u0120Russ": 1297, "\u0120produc": 1298, "\u0120program": 1299, "\u0120run": 1300, "aking": 1301, "angu": 1302, "\u0120Army": 1303, "\u0120election": 1304, "ful": 1305, "\u0120bel": 1306, "ada": 1307, "\u0120Ro": 1308, "ung": 1309, "\u01202015": 1310, "umb": 1311, "\u0120var": 1312, "ouse": 1313, "\u0120club": 1314, "\u0120appoin": 1315, "\u0120many": 1316, "CA": 1317, "aff": 1318, "eed": 1319, "ham": 1320, "ms": 1321, "ines": 1322, "ering": 1323, "\u0120same": 1324, "alif": 1325, "ondon": 1326, "\u0120prev": 1327, "\u0120English": 1328, "\u0120Republ": 1329, "ling": 1330, "\u0120author": 1331, "aster": 1332, "\u0120mid": 1333, "\u0120dem": 1334, "\u0120how": 1335, "\u0120home": 1336, "\u0120Division": 1337, "\u0120Football": 1338, "\u0120General": 1339, "\u0120gradu": 1340, "ogra": 1341, "\u0120area": 1342, "\u0120Geor": 1343, "oman": 1344, "\u012011": 1345, "\u012014": 1346, "ivil": 1347, "ird": 1348, "\u0120French": 1349, "\u0120expl": 1350, "weight": 1351, "\u0120built": 1352, "ajor": 1353, "ler": 1354, "vi": 1355, "hel": 1356, "\u0120City": 1357, "ages": 1358, "ountain": 1359, "lection": 1360, "\u0120public": 1361, "\u0120Indian": 1362, "\u0120children": 1363, "app": 1364, "by": 1365, "com": 1366, "ient": 1367, "lp": 1368, "\u0120president": 1369, "\u0120Tr": 1370, "\u0120last": 1371, "\u0120During": 1372, "\u0120London": 1373, "\u0120Jewish": 1374, "\u0120Party": 1375, "oir": 1376, "side": 1377, "ually": 1378, "\u0120Se": 1379, "\u0120Sw": 1380, "\u0120military": 1381, "\u0120Royal": 1382, "\u0120Lake": 1383, "\u0120Or": 1384, "\u0120along": 1385, "ended": 1386, "ially": 1387, "\u0120disc": 1388, "ribut": 1389, "\u0120politician": 1390, "\u0120promot": 1391, "\u0120title": 1392, "..": 1393, "ause": 1394, "na": 1395, "ves": 1396, "\u0120air": 1397, "\u0120poin": 1398, "\u0120Bel": 1399, "ided": 1400, "aving": 1401, "earch": 1402, "\u0120company": 1403, "\u0120eng": 1404, "\u0120surv": 1405, "\u0120debut": 1406, "\u00c2\u0142": 1407, "\u0120\u00c3": 1408, "onom": 1409, "\u0120so": 1410, "rew": 1411, "alth": 1412, "itions": 1413, "itte": 1414, "ility": 1415, "iven": 1416, "\u0120result": 1417, "ournament": 1418, "\u0120European": 1419, "co": 1420, "ged": 1421, "ars": 1422, "\u0120inc": 1423, "\u0120cr": 1424, "\u0120long": 1425, "\u0120Re": 1426, "used": 1427, "\u0120any": 1428, "ocial": 1429, "ants": 1430, "\u0120Comp": 1431, "\u0120appointed": 1432, "ae": 1433, "cer": 1434, "eh": 1435, "rid": 1436, "\u0120\u00d0": 1437, "ales": 1438, "\u0120dif": 1439, "\u0120lit": 1440, "\u0120land": 1441, "emen": 1442, "\u00e2\u0122\u013f": 1443, "\u0120vill": 1444, "\u0120profess": 1445, "\u0120political": 1446, "ouncil": 1447, "ched": 1448, "\u0120sy": 1449, "alian": 1450, "ality": 1451, "\u0120post": 1452, "\u0120present": 1453, "\u0120Mich": 1454, "emp": 1455, "\u0120national": 1456, "\u0120each": 1457, "ety": 1458, "ower": 1459, "\u0120Ex": 1460, "ection": 1461, "\u0120around": 1462, "ording": 1463, "lands": 1464, "\u0120commun": 1465, "\u0120housem": 1466, "\u0120early": 1467, "ium": 1468, "ner": 1469, "ting": 1470, "iness": 1471, "era": 1472, "\u0120fac": 1473, "\u0120Ab": 1474, "els": 1475, "ural": 1476, "eth": 1477, "\u0120From": 1478, "\u0120general": 1479, "artment": 1480, "\u0120vot": 1481, "\u0120Christ": 1482, "\u0120Italian": 1483, "\u0120Art": 1484, "\u0120claim": 1485, "\u0120manag": 1486, "\u0120Parliament": 1487, "\u0120Jews": 1488, "\u0120moved": 1489, "ministr": 1490, "tle": 1491, "\u0120world": 1492, "ata": 1493, "\u0120Cup": 1494, "\u012023": 1495, "\u0120District": 1496, "ides": 1497, "oung": 1498, "\u0120Que": 1499, "\u0120written": 1500, "\u0120described": 1501, "iber": 1502, "oor": 1503, "eng": 1504, "\u0120There": 1505, "\u0120beg": 1506, "ards": 1507, "\u0120char": 1508, "\u0120show": 1509, "ext": 1510, "\u0120\u00e2\u0122\u013e": 1511, "\u0120success": 1512, "\u0120Turkey": 1513, "ange": 1514, "\u0120ob": 1515, "\u0120father": 1516, "omb": 1517, "\u0120mod": 1518, "\u0120high": 1519, "\u012024": 1520, "ets": 1521, "raft": 1522, "\u0120championship": 1523, "\u0120Syrian": 1524, "ais": 1525, "aur": 1526, "ble": 1527, "ford": 1528, "ti": 1529, "ys": 1530, "ze": 1531, "ats": 1532, "\u0120President": 1533, "\u0120law": 1534, "\u0120help": 1535, "uten": 1536, "usiness": 1537, "\u0120church": 1538, "\u0120class": 1539, "\u0120188": 1540, "\u0120addition": 1541, "\u0120killed": 1542, "ience": 1543, "lin": 1544, "ison": 1545, "\u0120major": 1546, "\u0120Tom": 1547, "\u0120Mon": 1548, "\u012025": 1549, "\u0120Pe": 1550, "\u0120Be": 1551, "\u0120De": 1552, "\u0120named": 1553, "\u0120iss": 1554, "\u0120Educ": 1555, "\u01202014": 1556, "ull": 1557, "\u0120right": 1558, "ieuten": 1559, "ible": 1560, "\u0120director": 1561, "ospital": 1562, "\u0120building": 1563, "\u0120previous": 1564, "ittee": 1565, "ieutenant": 1566, "af": 1567, "ks": 1568, "ked": 1569, "ring": 1570, "\u00c3\u00b6": 1571, "\u0120five": 1572, "ama": 1573, "ster": 1574, "urd": 1575, "ette": 1576, "\u0120station": 1577, "\u0120Og": 1578, "osed": 1579, "\u0120UK": 1580, "illion": 1581, "\u0120Char": 1582, "\u0120Yemen": 1583, "\u0120country": 1584, "\u0120Portug": 1585, "\u0120viol": 1586, "\u0120small": 1587, "rol": 1588, "\u0120came": 1589, "\u0120Mor": 1590, "stem": 1591, "\u0120Iran": 1592, "\u0120Pal": 1593, "ached": 1594, "ively": 1595, "\u0120nomin": 1596, "\u0120third": 1597, "\u0120another": 1598, "\u0120cond": 1599, "orthern": 1600, "ove": 1601, "ellow": 1602, "ments": 1603, "\u0120complet": 1604, "\u0120exper": 1605, "ected": 1606, "wards": 1607, "ociation": 1608, "\u0120educ": 1609, "iam": 1610, "me": 1611, "inc": 1612, "reen": 1613, "\u0120band": 1614, "\u0120best": 1615, "\u0120pass": 1616, "\u0120Sch": 1617, "\u0120rest": 1618, "\u0120north": 1619, "\u0120Lac": 1620, "\u0120International": 1621, "\u0120All": 1622, "\u0120serving": 1623, "\u0120elected": 1624, "\u0120reported": 1625, "\u0120Saudi": 1626, "\u0120currently": 1627, "\u0120Democratic": 1628, "aut": 1629, "mit": 1630, "\u0120ri": 1631, "enus": 1632, "arm": 1633, "\u0120int": 1634, "\u0120care": 1635, "\u0120pop": 1636, "\u0120Co": 1637, "ention": 1638, "\u0120Mal": 1639, "\u0120Hamp": 1640, "\u0120House": 1641, "\u0120led": 1642, "\u0120large": 1643, "ecut": 1644, "imin": 1645, "\u0120given": 1646, "\u0120Senate": 1647, "\u0120Senior": 1648, "\u0120official": 1649, "ograph": 1650, "rich": 1651, "uch": 1652, "\u0120&": 1653, "hes": 1654, "\u0120these": 1655, "ared": 1656, "\u0120camp": 1657, "\u0120mer": 1658, "\u0120hand": 1659, "ille": 1660, "\u0120requ": 1661, "\u012022": 1662, "\u0120King": 1663, "que": 1664, "ically": 1665, "\u0120works": 1666, "\u0120surf": 1667, "\u0120village": 1668, "get": 1669, "ature": 1670, "esp": 1671, "\u0120dist": 1672, "\u0120Cour": 1673, "\u0120II": 1674, "\u0120Ir": 1675, "\u0120earn": 1676, "ander": 1677, "\u0120what": 1678, "hile": 1679, "\u0120189": 1680, "\u0120particip": 1681, "\u0120adv": 1682, "ches": 1683, "off": 1684, "\u0120,": 1685, "ences": 1686, "anc": 1687, "\u0120total": 1688, "\u0120Tex": 1689, "\u0120Af": 1690, "\u0120Cast": 1691, "ctor": 1692, "ody": 1693, "\u0120chart": 1694, "\u0120Commission": 1695, "\u0120India": 1696, "\u0120officers": 1697, "\u0120perfor": 1698, "\u0120married": 1699, "echn": 1700, "\u0120started": 1701, "\u0120differ": 1702, "\u0120Hampshire": 1703, "bec": 1704, "fl": 1705, "\u0120\u00c2": 1706, "\u0120son": 1707, "\u0120sold": 1708, "isl": 1709, "\u0120civil": 1710, "omet": 1711, "\u0120lake": 1712, "ots": 1713, "\u0120El": 1714, "\u01202010": 1715, "\u01202012": 1716, "\u0120deg": 1717, "orts": 1718, "\u0120project": 1719, "ours": 1720, "\u0120round": 1721, "ounced": 1722, "\u0120because": 1723, "letree": 1724, "\u0120road": 1725, "inning": 1726, "\u0120Canada": 1727, "\u0120Ogletree": 1728, "12": 1729, "16": 1730, "ax": 1731, "dom": 1732, "\u00c4\u0129": 1733, "ari": 1734, "\u0120Acc": 1735, "\u0120Mus": 1736, "\u0120life": 1737, "\u0120next": 1738, "\u01202008": 1739, "\u0120include": 1740, "\u0120returned": 1741, "\u0120England": 1742, "\u0120match": 1743, "\u0120brother": 1744, "\u0120joined": 1745, "\u0120Texas": 1746, "iod": 1747, "ues": 1748, "uel": 1749, "vers": 1750, "\u0120tour": 1751, "\u0120win": 1752, "anish": 1753, "ately": 1754, "ara": 1755, "itiz": 1756, "ices": 1757, "\u0120mark": 1758, "\u0120Ag": 1759, "olic": 1760, "adem": 1761, "\u0120Pika": 1762, "\u0120prop": 1763, "\u0120leg": 1764, "\u0120young": 1765, "\u0120party": 1766, "\u0120region": 1767, "\u0120invest": 1768, "\u0120created": 1769, "anguage": 1770, "\u0120Republican": 1771, "view": 1772, "\u0120charac": 1773, "\u0120Education": 1774, "dle": 1775, "lo": 1776, "the": 1777, "zer": 1778, "\u0120'": 1779, "ena": 1780, "\u0120wro": 1781, "\u0120sl": 1782, "\u0120person": 1783, "lev": 1784, "\u0120having": 1785, "urther": 1786, "\u0120eff": 1787, "\u0120prod": 1788, "lower": 1789, "\u0120One": 1790, "\u0120Syria": 1791, "retary": 1792, "itizens": 1793, "\u0120wrote": 1794, "ru": 1795, "\u0120el": 1796, "\u0120few": 1797, "\u0120field": 1798, "\u0120business": 1799, "\u0120pe": 1800, "\u0120po": 1801, "\u0120daugh": 1802, "\u0120People": 1803, "\u0120vo": 1804, "\u0120Church": 1805, "\u0120service": 1806, "\u012030": 1807, "\u0120week": 1808, "\u0120overall": 1809, "\u0120founded": 1810, "\u0120entered": 1811, "\u0120represented": 1812, "\u0120history": 1813, "uge": 1814, "\u00c3\u00bc": 1815, "\u0120aut": 1816, "\u0120went": 1817, "ream": 1818, "alf": 1819, "\u0120fund": 1820, "\u0120fact": 1821, "\u0120fellow": 1822, "\u0120che": 1823, "\u0120cric": 1824, "\u0120Ac": 1825, "\u0120due": 1826, "\u0120Council": 1827, "isted": 1828, "\u0120When": 1829, "\u01202013": 1830, "\u0120constit": 1831, "\u0120short": 1832, "\u0120just": 1833, "\u0120regiment": 1834, "\u0120Phil": 1835, "\u0120announced": 1836, "ha": 1837, "hy": 1838, "i\u00c4\u0129": 1839, "ji": 1840, "sy": 1841, "\u0120times": 1842, "\u0120age": 1843, "\u0120sent": 1844, "\u0120opp": 1845, "alc": 1846, "\u0120international": 1847, "astern": 1848, "\u0120Sk": 1849, "\u0120my": 1850, "\u0120million": 1851, "\u0120Har": 1852, "aces": 1853, "acher": 1854, "cept": 1855, "\u0120Will": 1856, "ries": 1857, "\u0120conc": 1858, "ource": 1859, "ified": 1860, "\u0120Street": 1861, "\u0120ord": 1862, "\u0120research": 1863, "\u0120role": 1864, "sport": 1865, "\u0120invol": 1866, "\u0120Championships": 1867, "\u0120among": 1868, "\u0120laun": 1869, "\u0120Australia": 1870, "\u0120Department": 1871, "\u0120survived": 1872, "\u0120system": 1873, "\u0120Court": 1874, "ger": 1875, "well": 1876, "\u0120tw": 1877, "ini": 1878, "ories": 1879, "\u0120water": 1880, "\u0120old": 1881, "rest": 1882, "\u0120face": 1883, "\u0120put": 1884, "\u0120Sup": 1885, "\u0120mass": 1886, "\u0120How": 1887, "\u012021": 1888, "\u0120Bro": 1889, "\u0120Good": 1890, "\u0120East": 1891, "ests": 1892, "\u0120rank": 1893, "epend": 1894, "apan": 1895, "ailed": 1896, "\u0120special": 1897, "\u0120fourth": 1898, "\u0120continued": 1899, "\u0120produced": 1900, "\u0120promoted": 1901, "\u0120According": 1902, "ck": 1903, "gy": 1904, "ox": 1905, "ship": 1906, "yle": 1907, "\u0120ec": 1908, "\u0120ship": 1909, "\u0120mult": 1910, "\u0120Med": 1911, "\u0120light": 1912, "irc": 1913, "\u0120nov": 1914, "\u0120forces": 1915, "uty": 1916, "\u0120order": 1917, "ization": 1918, "mann": 1919, "\u0120Ang": 1920, "embly": 1921, "\u0120directed": 1922, "\u0120France": 1923, "\u0120awards": 1924, "\u0120position": 1925, "\u00c3\u00b3n": 1926, "\u0120visit": 1927, "\u0120points": 1928, "\u0120liter": 1929, "\u0120professional": 1930, "17": 1931, "bor": 1932, "sc": 1933, "\u00c3\u00a8": 1934, "\u0120$": 1935, "\u0120ident": 1936, "\u0120very": 1937, "heast": 1938, "ense": 1939, "ency": 1940, "\u0120sim": 1941, "read": 1942, "\u0120fif": 1943, "\u0120ca": 1944, "\u0120met": 1945, "\u0120Che": 1946, "\u0120Cath": 1947, "\u0120Rober": 1948, "\u0120Jos": 1949, "\u0120game": 1950, "\u0120constr": 1951, "\u0120Inc": 1952, "\u0120Chin": 1953, "\u0120China": 1954, "ending": 1955, "\u0120ext": 1956, "class": 1957, "\u0120Thom": 1958, "\u0120repl": 1959, "\u0120player": 1960, "\u0120Committee": 1961, "\u0120period": 1962, "useum": 1963, "\u0120artist": 1964, "\u0120Central": 1965, "\u0120Australian": 1966, "\u0120surface": 1967, "\u0120investig": 1968, "band": 1969, "eep": 1970, "lished": 1971, "ness": 1972, "round": 1973, "west": 1974, "work": 1975, "atives": 1976, "\u0120side": 1977, "\u0120site": 1978, "\u0120crit": 1979, "\u0120case": 1980, "lex": 1981, "\u0120Ath": 1982, "\u0120100": 1983, "\u0120Music": 1984, "\u0120Hen": 1985, "\u012026": 1986, "\u0120larg": 1987, "\u0120lieutenant": 1988, "\u0120Dav": 1989, "ids": 1990, "\u0120Leg": 1991, "\u0120Gl": 1992, "\u0120No": 1993, "\u0120(\"": 1994, "\u0120genus": 1995, "\u0120Wil": 1996, "anding": 1997, "\u0120stated": 1998, "\u0120beh": 1999, "uman": 2000, "ians": 2001, "hib": 2002, "ains": 2003, "\u0120proper": 2004, "\u0120arr": 2005, "\u0120become": 2006, "\u0120--": 2007, "\u0120meet": 2008, "\u0120month": 2009, "\u0120featured": 2010, "\u0120established": 2011, "\u0120Russia": 2012, "oirang": 2013, "\u0120housemates": 2014, "\u0120constituen": 2015, "eal": 2016, "rd": 2017, "tr": 2018, "\u0120if": 2019, "\u0120ty": 2020, "ery": 2021, "only": 2022, "onstr": 2023, "ane": 2024, "isc": 2025, "reed": 2026, "\u0120foc": 2027, "\u0120further": 2028, "esh": 2029, "\u0120Serv": 2030, "\u0120det": 2031, "\u0120Mart": 2032, "\u0120Horn": 2033, "ival": 2034, "idae": 2035, "\u0120Res": 2036, "\u0120Japan": 2037, "\u0120Wood": 2038, "bert": 2039, "\u0120allow": 2040, "riend": 2041, "ulation": 2042, "\u0120Italy": 2043, "\u0120Park": 2044, "\u0120qualif": 2045, "ification": 2046, "\u0120awarded": 2047, "asket": 2048, "\u0120establish": 2049, "\u0120nominated": 2050, "\u0120Thomas": 2051, "\u0120Athlet": 2052, "\")": 2053, "iet": 2054, "mi": 2055, "par": 2056, "water": 2057, "\u00c3\u0143": 2058, "\u0120take": 2059, "\u0120tournament": 2060, "eral": 2061, "\u0120sol": 2062, "\u0120south": 2063, "\u0120inst": 2064, "itar": 2065, "\u0120bomb": 2066, "\u0120body": 2067, "\u0120Sing": 2068, "\u0120Shire": 2069, "\u0120town": 2070, "\u0120mot": 2071, "\u0120Air": 2072, "\u0120Cam": 2073, "\u0120Mountain": 2074, "\u0120reached": 2075, "\u0120Per": 2076, "\u0120Pre": 2077, "acy": 2078, "\u0120line": 2079, "\u0120Lou": 2080, "ays": 2081, "uses": 2082, "\u0120Not": 2083, "istry": 2084, "\u0120story": 2085, "ump": 2086, "\u0120Kh": 2087, "ude": 2088, "abor": 2089, "\u0120chang": 2090, "\u0120let": 2091, "\u01201980": 2092, "\u0120attended": 2093, "ference": 2094, "\u0120elections": 2095, "\u0120use": 2096, "\u0120room": 2097, "\u0120indust": 2098, "onym": 2099, "\u0120histor": 2100, "\u0120refuge": 2101, "\u0120activities": 2102, "\u0120completed": 2103, "\u0120character": 2104, "\u0120daughter": 2105, "13": 2106, "bur": 2107, "eated": 2108, "ipp": 2109, "ming": 2110, "nect": 2111, "\u0120capt": 2112, "\u0120pres": 2113, "\u0120Te": 2114, "\u0120Mir": 2115, "olut": 2116, "ela": 2117, "\u012029": 2118, "\u0120Bat": 2119, "\u0120Bar": 2120, "\u0120Dr": 2121, "\u0120Def": 2122, "\u0120now": 2123, "\u0120ep": 2124, "\u0120Rev": 2125, "igan": 2126, "\u0120FC": 2127, "\u0120Gra": 2128, "\u0120Navy": 2129, "\u0120gener": 2130, "ceed": 2131, "\u0120street": 2132, "though": 2133, "\u0120Ox": 2134, "\u01202011": 2135, "\u0120Institut": 2136, "\u0120placed": 2137, "\u0120even": 2138, "aching": 2139, "\u01201983": 2140, "\u0120working": 2141, "indo": 2142, "\u0120studied": 2143, "\u0120Shindo": 2144, "\u0120consid": 2145, "\u0120leaders": 2146, "\u0120Polit": 2147, "\u0120century": 2148, "\u0120course": 2149, "\u0120engine": 2150, "\u0120Michigan": 2151, "\u0120Irish": 2152, "\u0120different": 2153, "\u0120degree": 2154, "\u0120econom": 2155, "\u00c3\u00a8re": 2156, "asketball": 2157, "15": 2158, "blower": 2159, "den": 2160, "tar": 2161, "\u00c5\u00a1": 2162, "ink": 2163, "atin": 2164, "\u0120sign": 2165, "\u0120citizens": 2166, "\u0120bat": 2167, "\u0120Some": 2168, "\u0120host": 2169, "\u0120Member": 2170, "\u0120High": 2171, "\u012027": 2172, "\u0120like": 2173, "\u0120These": 2174, "\u0120Ber": 2175, "\u0120ne": 2176, "\u0120night": 2177, "\u0120Liber": 2178, "\u0120Fl": 2179, "\u0120Wall": 2180, "\u0120Women": 2181, "\u0120While": 2182, "rain": 2183, "aining": 2184, "avi": 2185, "\u0120Arts": 2186, "\u0120administr": 2187, "\u01202007": 2188, "\u01201987": 2189, "\u0120playing": 2190, "ators": 2191, "\u0120Qu": 2192, "\u0120Club": 2193, "\u0120Scott": 2194, "\u0120appeared": 2195, "\u0120current": 2196, "\u0120George": 2197, "\u0120community": 2198, "\u0120Catholic": 2199, "\u0120Hornblower": 2200, "ee": 2201, "kn": 2202, "ket": 2203, "\u0120wife": 2204, "\u0120sw": 2205, "\u0120sum": 2206, "ico": 2207, "\u0120San": 2208, "\u0120Sal": 2209, "\u0120dam": 2210, "\u0120hit": 2211, "\u0120Mc": 2212, "\u0120Mu": 2213, "\u0120Mad": 2214, "\u0120Mun": 2215, "\u0120Hol": 2216, "urs": 2217, "acre": 2218, "\u0120late": 2219, "\u0120Bl": 2220, "\u0120By": 2221, "iga": 2222, "\u0120()": 2223, "\u0120We": 2224, "agaz": 2225, "aguen": 2226, "\u0120Off": 2227, "hief": 2228, "abel": 2229, "\u0120league": 2230, "\u0120office": 2231, "\u0120plays": 2232, "\u01201990": 2233, "\u01201999": 2234, "\u0120events": 2235, "\u0120coll": 2236, "\u0120students": 2237, "\u0120coal": 2238, "\u0120Association": 2239, "\u0120various": 2240, "\u0120however": 2241, "\u0120William": 2242, "\u0120novel": 2243, "\u0120Athletics": 2244, "MCA": 2245, "i\u00c3\u00a8re": 2246, "sk": 2247, "\u0120X": 2248, "\u0120woman": 2249, "ani": 2250, "atic": 2251, "\u0120sit": 2252, "\u0120saw": 2253, "\u0120inj": 2254, "\u0120cand": 2255, "\u0120ball": 2256, "\u0120pat": 2257, "\u0120pri": 2258, "\u0120Shi": 2259, "\u0120Since": 2260, "\u0120Social": 2261, "\u0120Source": 2262, "\u0120read": 2263, "ola": 2264, "urt": 2265, "urity": 2266, "irl": 2267, "\u0120Don": 2268, "\u0120heavy": 2269, "ute": 2270, "\u0120without": 2271, "\u0120rally": 2272, "\u0120Its": 2273, "ugg": 2274, "\u0120YMCA": 2275, "\u01201982": 2276, "\u01201929": 2277, "\u01201968": 2278, "\u0120independ": 2279, "\u0120Assembly": 2280, "\u0120Regiment": 2281, "aught": 2282, "\u0120graduated": 2283, "\u0120launched": 2284, "\u0120However": 2285, "aguenay": 2286, "aul": 2287, "board": 2288, "ele": 2289, "iers": 2290, "lated": 2291, "mar": 2292, "self": 2293, "\u0120<": 2294, "\u0120aff": 2295, "includ": 2296, "ored": 2297, "\u0120way": 2298, "ances": 2299, "atus": 2300, "\u0120fun": 2301, "\u0120friend": 2302, "estern": 2303, "\u0120base": 2304, "\u0120mean": 2305, "\u0120mother": 2306, "\u0120down": 2307, "\u0120hold": 2308, "\u0120Ha": 2309, "\u012028": 2310, "\u0120Board": 2311, "\u0120nort": 2312, "\u0120those": 2313, "\u0120every": 2314, "\u0120Law": 2315, "\u0120Games": 2316, "\u0120Northern": 2317, "\u0120gun": 2318, "\u0120anti": 2319, "oss": 2320, "osition": 2321, "ested": 2322, "\u0120ren": 2323, "ishop": 2324, "ape": 2325, "ogn": 2326, "\u0120arrest": 2327, "\u01202006": 2328, "\u01201996": 2329, "\u0120Paraly": 2330, "\u0120studio": 2331, "airs": 2332, "\u0120Arabs": 2333, "ociety": 2334, "\u0120\u00e2\u0122\u013a": 2335, "formation": 2336, "\u0120track": 2337, "\u0120education": 2338, "\u0120Chinese": 2339, "olution": 2340, "\u0120Political": 2341, "of": 2342, "ta": 2343, "ville": 2344, "ya": 2345, "\u0120away": 2346, "\u0120wat": 2347, "\u0120wind": 2348, "\u0120sout": 2349, "reak": 2350, "\u0120cast": 2351, "\u0120Saint": 2352, "\u0120Saguenay": 2353, "oming": 2354, "\u0120mountain": 2355, "\u0120Tran": 2356, "\u0120Calif": 2357, "\u0120hon": 2358, "ental": 2359, "\u0120Has": 2360, "ivi\u00c3\u00a8re": 2361, "irst": 2362, "\u0120need": 2363, "\u0120La": 2364, "\u0120gather": 2365, "ript": 2366, "\u0120vict": 2367, "uba": 2368, "aper": 2369, "ornia": 2370, "\u01202009": 2371, "overed": 2372, "\u0120control": 2373, "\u0120designed": 2374, "medi": 2375, "\u0120officer": 2376, "\u0120Prov": 2377, "\u01201930": 2378, "\u0120assist": 2379, "\u0120songs": 2380, "\u0120medal": 2381, "\u0120Anderson": 2382, "\u0120opened": 2383, "\u0120original": 2384, "\u0120Midlands": 2385, "\u0120demonstr": 2386, "\u0120Quebec": 2387, "\u0120issued": 2388, "\u0120violence": 2389, "\u0120Palest": 2390, "\u0120earned": 2391, "echnology": 2392, "\u0120Academ": 2393, "\u0120Goodrich": 2394, "\u0120candid": 2395, "\u0120California": 2396, "'t": 2397, "30": 2398, "election": 2399, "ij": 2400, "pez": 2401, "\u0120ill": 2402, "\u0120sess": 2403, "\u0120social": 2404, "rey": 2405, "reland": 2406, "\u0120free": 2407, "\u0120full": 2408, "\u0120Su": 2409, "\u0120Ser": 2410, "\u0120Sam": 2411, "oud": 2412, "\u0120told": 2413, "\u0120toget": 2414, "\u0120make": 2415, "\u0120Act": 2416, "\u0120hus": 2417, "\u0120Mil": 2418, "\u0120Most": 2419, "\u0120reb": 2420, "rov": 2421, "\u0120Ireland": 2422, "\u0120Pri": 2423, "\u0120lost": 2424, "\u0120Rec": 2425, "\u0120List": 2426, "\u0120Later": 2427, "\u0120asked": 2428, "\u0120Government": 2429, "\u0120Grand": 2430, "aged": 2431, "aging": 2432, "\u0120vide": 2433, "\u0120champions": 2434, "\u0120exhib": 2435, "sequ": 2436, "\u0120aged": 2437, "ploy": 2438, "\u0120release": 2439, "\u0120competition": 2440, "\u0120Spanish": 2441, "\u0120America": 2442, "ought": 2443, "rowd": 2444, "\u0120relations": 2445, "\u0120Germany": 2446, "\u0120Road": 2447, "umbent": 2448, "\u0120Georg": 2449, "coming": 2450, "\u0120Swed": 2451, "\u0120vote": 2452, "ecutive": 2453, "\u0120Kingdom": 2454, "levision": 2455, "\u0120David": 2456, "onlyinclud": 2457, "\u0120together": 2458, "onlyinclude": 2459, "Jean": 2460, "aign": 2461, "mb": 2462, "men": 2463, "oz": 2464, "rant": 2465, "uation": 2466, "ont": 2467, "oral": 2468, "anies": 2469, "\u0120fem": 2470, "\u0120cult": 2471, "\u0120cross": 2472, "\u0120crowd": 2473, "\u0120basketball": 2474, "\u0120port": 2475, "\u0120du": 2476, "\u0120Met": 2477, "\u0120Hot": 2478, "\u0120Hung": 2479, "\u0120Hospital": 2480, "roy": 2481, "\u0120language": 2482, "\u0120Bie": 2483, "\u0120Dan": 2484, "\u0120Direct": 2485, "\u0120formed": 2486, "\u0120L\u00c3\u00b3": 2487, "\u0120First": 2488, "\u0120Jer": 2489, "\u0120Geller": 2490, "unt": 2491, "unch": 2492, "\u0120Na": 2493, "\u0120Nor": 2494, "\u0120Walk": 2495, "rian": 2496, "ope": 2497, "\u0120vers": 2498, "\u0120river": 2499, "akes": 2500, "ords": 2501, "\u012031": 2502, "\u0120journ": 2503, "\u0120commission": 2504, "\u0120finish": 2505, "\u01201970": 2506, "\u0120prim": 2507, "\u0120saf": 2508, "\u0120leading": 2509, "\u0120rail": 2510, "ront": 2511, "\u0120confir": 2512, "\u0120Secretary": 2513, "\u0120Company": 2514, "\u0120fifth": 2515, "\u0120Henry": 2516, "\u0120refugees": 2517, "\u0120Institute": 2518, "agazine": 2519, "\u0120heavyweight": 2520, "\u0120husband": 2521, "\u0120Bieber": 2522, "\u0120L\u00c3\u00b3pez": 2523, "10": 2524, "><": 2525, "mad": 2526, "ning": 2527, "rs": 2528, "ris": 2529, "uter": 2530, "uese": 2531, "vent": 2532, "onel": 2533, "\u0120init": 2534, "\u0120infl": 2535, "esters": 2536, "\u0120power": 2537, "\u0120Award": 2538, "\u0120dou": 2539, "amb": 2540, "ivid": 2541, "ems": 2542, "\u0120eight": 2543, "\u0120Fin": 2544, "\u0120Film": 2545, "\u0120James": 2546, "\u0120Ne": 2547, "istic": 2548, "\u0120Wh": 2549, "\u0120Kurd": 2550, "\u0120via": 2551, "iff": 2552, "ode": 2553, "\u0120Stud": 2554, "elling": 2555, "\u0120companies": 2556, "\u0120areas": 2557, "ective": 2558, "\u0120army": 2559, "uck": 2560, "\u0120Vir": 2561, "\u0120television": 2562, "ize": 2563, "leton": 2564, "\u0120recogn": 2565, "\u0120Para": 2566, "rica": 2567, "\u0120return": 2568, "\u0120Center": 2569, "\u0120footballer": 2570, "\u0120opening": 2571, "\u0120development": 2572, "ynette": 2573, "\u0120Russian": 2574, "\u0120middle": 2575, "\u0120beginning": 2576, "\u0120Peter": 2577, "\u0120Portugal": 2578, "\u0120ordered": 2579, "\u0120Super": 2580, "EO": 2581, "ael": 2582, "bed": 2583, "cher": 2584, "ein": 2585, "ga": 2586, "gin": 2587, "iences": 2588, "time": 2589, "ino": 2590, "\u0120west": 2591, "atter": 2592, "\u0120sk": 2593, "\u0120surn": 2594, "isation": 2595, "arr": 2596, "\u0120fire": 2597, "icles": 2598, "\u0120mouth": 2599, "\u0120master": 2600, "\u0120much": 2601, "\u0120Cons": 2602, "\u0120hours": 2603, "enty": 2604, "\u0120Museum": 2605, "\u0120Pet": 2606, "ivate": 2607, "ota": 2608, "\u0120Jac": 2609, "\u0120Gr": 2610, "\u0120Net": 2611, "\u0120games": 2612, "\u0120great": 2613, "ands": 2614, "\u0120style": 2615, "\u0120analy": 2616, "osen": 2617, "rael": 2618, "iang": 2619, "alls": 2620, "akh": 2621, "\u0120least": 2622, "\u0120You": 2623, "\u0120teacher": 2624, "\u01202001": 2625, "\u01202003": 2626, "\u01201984": 2627, "\u01201991": 2628, "\u0120disp": 2629, "\u0120weap": 2630, "\u0120using": 2631, "\u012050": 2632, "\u01201956": 2633, "\u0120immedi": 2634, "\u01201960": 2635, "\u0120Force": 2636, "\u0120doctor": 2637, "\u0120Police": 2638, "\u0120media": 2639, "\u0120import": 2640, "\u0120express": 2641, "\u0120toponym": 2642, "\u0120originally": 2643, "\u0120Ministry": 2644, "\u0120authorities": 2645, "\u0120explos": 2646, "ridge": 2647, "\u0120facility": 2648, "\u0120claimed": 2649, "\u0120career": 2650, "islative": 2651, "\u0120construction": 2652, "\u0120constituency": 2653, "\u0120coalition": 2654, ",\"": 2655, "Comet": 2656, "be": 2657, "go": 2658, "ih": 2659, "iated": 2660, "ko": 2661, "rac": 2662, "sis": 2663, "ties": 2664, "ux": 2665, "war": 2666, "\u0120/": 2667, "\u0120\u00d1": 2668, "\u0120targ": 2669, "edo": 2670, "\u0120wid": 2671, "\u0120sen": 2672, "aring": 2673, "\u0120fight": 2674, "\u0120cas": 2675, "\u0120board": 2676, "omp": 2677, "\u0120Tournament": 2678, "\u0120dra": 2679, "\u0120hospital": 2680, "\u0120half": 2681, "\u0120Me": 2682, "\u0120Pat": 2683, "urb": 2684, "\u01201920": 2685, "\u0120Bud": 2686, "\u0120east": 2687, "\u0120Ru": 2688, "ett": 2689, "uture": 2690, "imate": 2691, "\u0120Wynette": 2692, "\u0120stop": 2693, "\u0120still": 2694, "ulf": 2695, "iana": 2696, "\u0120Health": 2697, "\u0120rad": 2698, "aken": 2699, "illboard": 2700, "\u0120plan": 2701, "ounded": 2702, "\u0120arch": 2703, "ampion": 2704, "\u0120polic": 2705, "\u0120shot": 2706, "\u0120Profess": 2707, "\u0120individ": 2708, "\u0120defeat": 2709, "\u0120countries": 2710, "\u0120Israel": 2711, "\u0120decided": 2712, "\u0120across": 2713, "\u0120Price": 2714, "\u0120money": 2715, "\u0120days": 2716, "\u0120view": 2717, "\u0120confl": 2718, "\u0120developed": 2719, "\u0120respons": 2720, "\u0120Guards": 2721, "\u0120term": 2722, "\u0120Minister": 2723, "\u0120belie": 2724, "empor": 2725, "\u0120Charles": 2726, "\u0120Portuguese": 2727, "\u0120Castle": 2728, "\u0120involved": 2729, "\u0120months": 2730, "\u0120epis": 2731, "\u0120economic": 2732, "\u0120Academy": 2733, "\u0120video": 2734, "\u0120Director": 2735, "\u0120surname": 2736, ".,": 2737, "Billboard": 2738, "IC": 2739, "LA": 2740, "cis": 2741, "ead": 2742, "hand": 2743, "ibr": 2744, "most": 2745, "oog": 2746, "year": 2747, "zen": 2748, "\u00d0\u00be": 2749, "\u0120z": 2750, "\u0120av": 2751, "ined": 2752, "oned": 2753, "oration": 2754, "iting": 2755, "ither": 2756, "\u0120cor": 2757, "\u0120cap": 2758, "\u0120making": 2759, "lement": 2760, "\u0120Tam": 2761, "\u0120Ak": 2762, "\u0120Ap": 2763, "\u0120Card": 2764, "\u0120Men": 2765, "\u0120Moh": 2766, "\u0120Id": 2767, "\u0120Pan": 2768, "\u0120lim": 2769, "\u0120throw": 2770, "\u01202000": 2771, "usal": 2772, "\u0120Falc": 2773, "\u0120Gal": 2774, "\u0120Out": 2775, "\u0120comb": 2776, "ateg": 2777, "\u0120von": 2778, "\u0120val": 2779, "\u0120dead": 2780, "\u0120red": 2781, "clus": 2782, "\u0120you": 2783, "\u0120tex": 2784, "\u01202004": 2785, "\u0120players": 2786, "\u01201993": 2787, "\u0120contribut": 2788, "\u0120collect": 2789, "\u0120newsp": 2790, "\u0120prison": 2791, "\u01201948": 2792, "airman": 2793, "ological": 2794, "\u0120Arabia": 2795, "\u0120singer": 2796, "\u0120account": 2797, "keter": 2798, "\u0120Administr": 2799, "\u0120Plat": 2800, "\u0120court": 2801, "icipality": 2802, "\u0120strong": 2803, "\u0120territ": 2804, "orpedo": 2805, "\u0120belong": 2806, "\u0120clubs": 2807, "\u0120Michael": 2808, "\u0120campaign": 2809, "\u0120performan": 2810, "\u0120autom": 2811, "\u0120concern": 2812, "\u0120Falc\u00c3\u00b3n": 2813, "14": 2814, "An": 2815, "ius": 2816, "ka": 2817, "lim": 2818, "less": 2819, "ney": 2820, "yr": 2821, "yan": 2822, "\u00c3\u00b8": 2823, "\u01200": 2824, "\u0120ice": 2825, "\u0120tri": 2826, "\u0120torpedo": 2827, "\u0120winn": 2828, "\u0120signed": 2829, "ising": 2830, "reational": 2831, "alt": 2832, "\u0120fe": 2833, "\u0120circ": 2834, "esc": 2835, "\u0120bas": 2836, "\u0120pm": 2837, "\u0120Tal": 2838, "\u0120dest": 2839, "\u0120Cop": 2840, "ami": 2841, "\u0120Military": 2842, "acing": 2843, "\u0120low": 2844, "\u0120Ben": 2845, "\u0120equ": 2846, "iding": 2847, "\u0120Los": 2848, "\u0120Lov": 2849, "aying": 2850, "ush": 2851, "chie": 2852, "\u0120gl": 2853, "\u0120good": 2854, "rik": 2855, "aval": 2856, "\u0120process": 2857, "ources": 2858, "ify": 2859, "\u0120seven": 2860, "ights": 2861, "eph": 2862, "ector": 2863, "erve": 2864, "\u01201995": 2865, "\u0120Ann": 2866, "\u0120screen": 2867, "\u0120follows": 2868, "\u0120studies": 2869, "\u01201927": 2870, "\u01201928": 2871, "\u0120retired": 2872, "\u0120himself": 2873, "\u0120associ": 2874, "\u0120movement": 2875, "\u0120carried": 2876, "\u0120features": 2877, "ellerup": 2878, "\u0120Republic": 2879, "\u0120\u00c3\u0142": 2880, "ethod": 2881, "\u0120modern": 2882, "\u0120Africa": 2883, "\u0120tourism": 2884, "\u0120critic": 2885, "\u0120Wilson": 2886, "\u0120establishment": 2887, "\u0120Louis": 2888, "burg": 2889, "\u0120northeast": 2890, "\u0120Walker": 2891, "\u0120confirmed": 2892, "Ch": 2893, "day": 2894, "ique": 2895, "mm": 2896, "mas": 2897, "ole": 2898, "ple": 2899, "pro": 2900, "rican": 2901, "section": 2902, "yl": 2903, "za": 2904, "int": 2905, "aries": 2906, "\u0120ins": 2907, "itive": 2908, "\u0120fig": 2909, "\u0120bank": 2910, "icut": 2911, "\u0120Sm": 2912, "\u0120mob": 2913, "\u0120Ton": 2914, "\u0120div": 2915, "\u0120dram": 2916, "\u0120Mul": 2917, "\u0120Hay": 2918, "ecially": 2919, "\u0120Their": 2920, "ira": 2921, "\u0120Bishop": 2922, "\u0120Den": 2923, "\u0120Ram": 2924, "\u0120Rich": 2925, "iger": 2926, "thur": 2927, "\u0120within": 2928, "\u0120Other": 2929, "ument": 2930, "occer": 2931, "\u0120Kong": 2932, "udon": 2933, "\u0120ran": 2934, "\u0120Staff": 2935, "\u0120spe": 2936, "\u0120185": 2937, "\u0120187": 2938, "\u0120able": 2939, "\u01201989": 2940, "\u01201994": 2941, "wood": 2942, "\u0120appro": 2943, "iple": 2944, "\u0120finished": 2945, "\u0120regular": 2946, "\u0120collection": 2947, "\u0120private": 2948, "\u0120Commun": 2949, "lier": 2950, "ways": 2951, "\u0120formal": 2952, "\u0120attacked": 2953, "\u0120remained": 2954, "\u0120sixth": 2955, "\u0120recorded": 2956, "\u0120operations": 2957, "alding": 2958, "\u0120rights": 2959, "\u0120Iranian": 2960, "\u0120conduct": 2961, "ography": 2962, "\u0120massacre": 2963, "\u0120Legislative": 2964, "\u0120property": 2965, "\u0120arrived": 2966, "\u0120gathered": 2967, "\u0120Jerusal": 2968, "\u0120railway": 2969, "\u0120immediately": 2970, "MA": 2971, "Reg": 2972, "ao": 2973, "bot": 2974, "bek": 2975, "mark": 2976, "pted": 2977, "sel": 2978, "writ": 2979, "\u0120taking": 2980, "erem": 2981, "ones": 2982, "ene": 2983, "\u0120warn": 2984, "\u0120squ": 2985, "reg": 2986, "itor": 2987, "\u0120find": 2988, "\u0120bo": 2989, "icle": 2990, "\u0120Sun": 2991, "oul": 2992, "\u0120Tay": 2993, "\u0120del": 2994, "\u0120CEO": 2995, "\u0120hom": 2996, "ential": 2997, "\u0120Mount": 2998, "\u0120review": 2999, "\u0120reelection": 3000, "\u0120Ham": 3001, "\u0120Hong": 3002, "adium": 3003, "\u0120Pand": 3004, "\u0120living": 3005, "\u0120once": 3006, "\u01201919": 3007, "iron": 3008, "\u0120Br": 3009, "idence": 3010, "uther": 3011, "usp": 3012, "\u0120Found": 3013, "\u0120With": 3014, "berg": 3015, "\u0120Em": 3016, "\u0120Ear": 3017, "esting": 3018, "ula": 3019, "udge": 3020, "ops": 3021, "ably": 3022, "\u0120plann": 3023, "\u0120armed": 3024, "ordan": 3025, "\u0120180": 3026, "\u01202002": 3027, "\u0120becoming": 3028, "\u0120science": 3029, "\u0120usually": 3030, "\u0120upon": 3031, "\u0120enl": 3032, "\u0120Spalding": 3033, "\u0120179": 3034, "\u00c3\u00a1n": 3035, "\u0120defending": 3036, "\u0120does": 3037, "\u0120crew": 3038, "\u0120Adela": 3039, "\u0120groups": 3040, "alkin": 3041, "\u0120throughout": 3042, "\u0120Francis": 3043, "\u0120Carol": 3044, "\u0120transfer": 3045, "\u0120phys": 3046, "\u0120occurr": 3047, "\u0120protesters": 3048, "\u0120discuss": 3049, "...": 3050, "\u0120presented": 3051, "\u0120housemate": 3052, "\u0120soldiers": 3053, "\u0120Muslim": 3054, "\u0120market": 3055, "\u0120Pikauba": 3056, "\u0120production": 3057, "gypt": 3058, "\u0120literature": 3059, "\u0120caused": 3060, "\u0120Robert": 3061, "\u0120Incumbent": 3062, "\u0120typ": 3063, "\u0120qualified": 3064, "\u0120changed": 3065, "\u0120industry": 3066, "necticut": 3067, "ceeded": 3068, "\u0120waters": 3069, "\u0120session": 3070, "\u0120Jerusalem": 3071, "Regional": 3072, "\u0120Adelaide": 3073, "46": 3074, "FA": 3075, "Lac": 3076, "ST": 3077, "Sc": 3078, "bach": 3079, "craft": 3080, "gn": 3081, "lied": 3082, "yga": 3083, "\u00d0\u00b5": 3084, "\u0120talk": 3085, "eration": 3086, "orter": 3087, "\u0120shi": 3088, "\u0120food": 3089, "\u0120cur": 3090, "\u0120cerem": 3091, "\u0120past": 3092, "\u0120purch": 3093, "\u0120Sur": 3094, "\u0120tow": 3095, "\u0120mach": 3096, "\u0120mission": 3097, "lear": 3098, "\u0120Town": 3099, "\u0120date": 3100, "\u0120division": 3101, "\u0120Cro": 3102, "\u0120Cong": 3103, "\u0120happ": 3104, "oll": 3105, "olit": 3106, "\u0120Hist": 3107, "\u0120Paul": 3108, "\u0120lik": 3109, "\u0120Do": 3110, "\u0120either": 3111, "\u0120Rang": 3112, "\u0120Roman": 3113, "\u0120Fer": 3114, "\u0120Gall": 3115, "\u0120Group": 3116, "istan": 3117, "\u0120stat": 3118, "\u0120star": 3119, "\u0120staff": 3120, "\u0120Egypt": 3121, "\u0120alleg": 3122, "\u0120although": 3123, "ummy": 3124, "\u0120Uk": 3125, "\u0120Ke": 3126, "resh": 3127, "\u0120champion": 3128, "\u0120seat": 3129, "ender": 3130, "\u0120lect": 3131, "\u0120keep": 3132, "\u0120Arthur": 3133, "\u0120close": 3134, "ublic": 3135, "\u01201985": 3136, "\u01201992": 3137, "\u01201997": 3138, "\u0120design": 3139, "mpic": 3140, "\u0120regard": 3141, "\u0120others": 3142, "\u0120college": 3143, "\u01201974": 3144, "\u01201940": 3145, "\u01201944": 3146, "\u01201934": 3147, "\u0120entire": 3148, "\u0120access": 3149, "\u0120defeated": 3150, "\u0120provided": 3151, "\u0120attacks": 3152, "\u0120raised": 3153, "\u0120meant": 3154, "\u0120floor": 3155, "\u0120nearby": 3156, "talion": 3157, "\u0120going": 3158, "\u0120Edward": 3159, "anguages": 3160, "\u0120Queen": 3161, "\u0120successful": 3162, "\u0120Beach": 3163, "\u0120riots": 3164, "\u0120popular": 3165, "especially": 3166, "\u0120African": 3167, "\u0120performed": 3168, "\u0120cricket": 3169, "\u0120cricketer": 3170, "\u0120Skellerup": 3171, "\u0120multiple": 3172, "\u0120motor": 3173, "\u0120generally": 3174, "\u0120considered": 3175, "\u0120collabor": 3176, "\u0120injured": 3177, "\u0120renamed": 3178, "\u0120arrested": 3179, "\u0120Transport": 3180, "\u0120victim": 3181, "\u0120candidate": 3182, "\u0120Swedish": 3183, "11": 3184, "25": 3185, "Me": 3186, "Moirang": 3187, "Saint": 3188, "Th": 3189, "ky": 3190, "ma": 3191, "pi": 3192, "right": 3193, "tic": 3194, "\u00d0\u00b8": 3195, "\u0120!": 3196, "\u0120[": 3197, "\u0120ide": 3198, "\u0120especially": 3199, "\u0120ten": 3200, "\u0120trad": 3201, "\u0120turned": 3202, "\u0120taught": 3203, "hem": 3204, "here": 3205, "inary": 3206, "onn": 3207, "\u0120sil": 3208, "\u0120sem": 3209, "\u0120sound": 3210, "\u0120sup": 3211, "arch": 3212, "aled": 3213, "icular": 3214, "\u0120pay": 3215, "\u0120paint": 3216, "\u0120Sant": 3217, "\u0120Sass": 3218, "\u0120towards": 3219, "omm": 3220, "\u0120miss": 3221, "\u0120Tor": 3222, "\u0120Awards": 3223, "\u0120Corp": 3224, "\u0120Civil": 3225, "\u0120hot": 3226, "ilar": 3227, "amin": 3228, "\u0120Mat": 3229, "\u0120Mos": 3230, "\u0120More": 3231, "\u0120real": 3232, "elle": 3233, "\u0120Hill": 3234, "aded": 3235, "ura": 3236, "urer": 3237, "\u0120lived": 3238, "\u0120Bac": 3239, "\u0120Bay": 3240, "\u0120Bra": 3241, "\u0120non": 3242, "\u0120northern": 3243, "\u0120Ren": 3244, "\u0120health": 3245, "\u0120Log": 3246, "ayn": 3247, "\u0120Just": 3248, "\u0120Jordan": 3249, "\u0120Gold": 3250, "\u0120Great": 3251, "\u0120Neh": 3252, "\u0120got": 3253, "\u0120Win": 3254, "\u0120Western": 3255, "\u0120Est": 3256, "estry": 3257, "\u0120conv": 3258, "\u0120Kar": 3259, "hio": 3260, "\u0120rul": 3261, "aker": 3262, "illa": 3263, "ustr": 3264, "\u0120arran": 3265, "\u0120arms": 3266, "\u0120spent": 3267, "\u0120spir": 3268, "oute": 3269, "\u0120clos": 3270, "\u0120resident": 3271, "\u0120particular": 3272, "\u01202005": 3273, "\u01201988": 3274, "\u01201998": 3275, "\u0120scient": 3276, "\u0120command": 3277, "\u0120commander": 3278, "\u0120outside": 3279, "\u01201977": 3280, "ailing": 3281, "199": 3282, "atherine": 3283, "\u0120themsel": 3284, "\u0120166": 3285, "ansas": 3286, "\u0120quar": 3287, "\u0120county": 3288, "\u0120subject": 3289, "\u0120submar": 3290, "\u0120Cont": 3291, "\u0120albums": 3292, "\u0120writer": 3293, "\u0120province": 3294, "\u0120matches": 3295, "\u0120mainly": 3296, "\u0120Deputy": 3297, "\u0120occas": 3298, "\u0120occup": 3299, "\u0120producer": 3300, "\u0120Abd": 3301, "ength": 3302, "\u0120officials": 3303, "\u0120effect": 3304, "\u0120Angel": 3305, "\u0120meeting": 3306, "\u0120Office": 3307, "elebr": 3308, "\u0120journal": 3309, "\u0120Virgin": 3310, "\u0120Jacob": 3311, "\u0120senior": 3312, "\u0120Professor": 3313, "emporary": 3314, "\u0120Foundation": 3315, "\u0120Congress": 3316, "\u0120Sassun": 3317, "\u0120themselves": 3318, "AC": 3319, "cent": 3320, "col": 3321, "cast": 3322, "cient": 3323, "fone": 3324, "gress": 3325, "hood": 3326, "line": 3327, "nel": 3328, "ps": 3329, "port": 3330, "serv": 3331, "van": 3332, "vement": 3333, "\u00e3\u0125": 3334, "\u0120\u00c5": 3335, "\u0120turn": 3336, "\u0120taken": 3337, "erous": 3338, "orm": 3339, "anop": 3340, "aney": 3341, "anfone": 3342, "\u0120ske": 3343, "alia": 3344, "alais": 3345, "\u0120instr": 3346, "itect": 3347, "\u0120far": 3348, "\u0120flow": 3349, "\u0120cert": 3350, "\u0120bi": 3351, "iche": 3352, "\u0120method": 3353, "lete": 3354, "\u0120Aff": 3355, "\u0120Alex": 3356, "\u0120Cow": 3357, "\u0120Cap": 3358, "\u0120Mk": 3359, "\u0120Mo": 3360, "\u0120Mex": 3361, "\u0120reve": 3362, "oli": 3363, "\u0120Im": 3364, "\u0120Ira": 3365, "eck": 3366, "\u0120But": 3367, "\u0120Des": 3368, "\u0120never": 3369, "\u0120forced": 3370, "\u0120ever": 3371, "\u0120Long": 3372, "utes": 3373, "\u0120Jon": 3374, "\u0120Gulf": 3375, "\u0120stand": 3376, "\u0120stars": 3377, "agement": 3378, "\u0120whom": 3379, "iano": 3380, "\u0120Kilm": 3381, "hier": 3382, "\u0120Inter": 3383, "ava": 3384, "pped": 3385, "odes": 3386, "\u0120chosen": 3387, "\u0120Stein": 3388, "\u0120seen": 3389, "elled": 3390, "ques": 3391, "\u0120key": 3392, "order": 3393, "\u0120notable": 3394, "\u0120abs": 3395, "\u0120recreational": 3396, "\u0120Columb": 3397, "\u0120Zyga": 3398, "\u0120pract": 3399, "\u0120student": 3400, "\u01201942": 3401, "aji": 3402, "\u0120association": 3403, "ockey": 3404, "\u0120ended": 3405, "\u0120receiving": 3406, "\u0120Class": 3407, "\u0120centre": 3408, "\u0120titled": 3409, "\u0120appearance": 3410, "\u0120poss": 3411, "\u0120Europe": 3412, "\u0120black": 3413, "\u0120drug": 3414, "\u0120emer": 3415, "\u0120Second": 3416, "CAA": 3417, "\u0120Sea": 3418, "\u0120manager": 3419, "\u0120slog": 3420, "\u0120poet": 3421, "\u0120Services": 3422, "\u0120letter": 3423, "\u0120Defense": 3424, "\u0120Scottish": 3425, "\u0120Paralympics": 3426, "\u0120southern": 3427, "\u0120Haswell": 3428, "\u0120Palestine": 3429, "\u0120version": 3430, "\u0120primary": 3431, "\u0120episodes": 3432, "ibrary": 3433, "\u0120territory": 3434, "\u0120performance": 3435, "\u0120Mulaney": 3436, "\u0120watershed": 3437, "200": 3438, "II": 3439, "ban": 3440, "break": 3441, "field": 3442, "gu": 3443, "ges": 3444, "tis": 3445, "uf": 3446, "viron": 3447, "wing": 3448, "yer": 3449, "zh": 3450, "zil": 3451, "\u0120ens": 3452, "heim": 3453, "ora": 3454, "ori": 3455, "ened": 3456, "ano": 3457, "\u0120san": 3458, "\u0120susp": 3459, "\u0120overs": 3460, "ala": 3461, "\u0120often": 3462, "\u0120council": 3463, "\u0120park": 3464, "\u0120Society": 3465, "\u0120Ter": 3466, "\u0120Technology": 3467, "iled": 3468, "\u0120Mas": 3469, "\u0120Mac": 3470, "\u0120Mary": 3471, "\u0120rev": 3472, "\u0120reach": 3473, "ros": 3474, "adi": 3475, "adian": 3476, "\u0120Public": 3477, "\u0120Bh": 3478, "\u0120Bor": 3479, "\u0120Bank": 3480, "\u0120Dar": 3481, "\u0120Rub": 3482, "\u0120Rap": 3483, "\u0120Lab": 3484, "\u0120Luc": 3485, "ayed": 3486, "ima": 3487, "\u0120Gaut": 3488, "\u0120Galkin": 3489, "ership": 3490, "\u0120NCAA": 3491, "\u0120gave": 3492, "ction": 3493, "\u0120Wag": 3494, "\u0120Wales": 3495, "\u0120staging": 3496, "\u0120Eastern": 3497, "aga": 3498, "\u0120Ohio": 3499, "ria": 3500, "\u0120KR": 3501, "\u0120Kir": 3502, "aka": 3503, "pper": 3504, "\u0120seek": 3505, "\u0120computer": 3506, "merged": 3507, "\u0120level": 3508, "onded": 3509, "\u0120university": 3510, "lected": 3511, "ikh": 3512, "\u0120should": 3513, "\u01201986": 3514, "\u0120serves": 3515, "\u0120suff": 3516, "\u0120displ": 3517, "\u0120sched": 3518, "ollowing": 3519, "arnock": 3520, "\u0120theme": 3521, "phoon": 3522, "\u0120enter": 3523, "\u0120singles": 3524, "teneg": 3525, "\u0120Cla": 3526, "\u0120subsequ": 3527, "\u0120cars": 3528, "\u0120Polish": 3529, "\u0120Scot": 3530, "\u0120edition": 3531, "\u0120Represent": 3532, "\u0120schools": 3533, "\u0120added": 3534, "\u0120Phanfone": 3535, "\u0120organiz": 3536, "\u0120train": 3537, "\u0120block": 3538, "\u0120visits": 3539, "\u0120respect": 3540, "\u0120parliament": 3541, "\u0120point": 3542, "\u0120results": 3543, "\u0120Christian": 3544, "\u0120previously": 3545, "\u0120\u00c2\u00a3": 3546, "\u0120opposition": 3547, "ready": 3548, "\u0120focus": 3549, "\u0120Japanese": 3550, "\u0120Notable": 3551, "\u0120Berlin": 3552, "\u0120Municipality": 3553, "\u0120safe": 3554, "\u0120weapons": 3555, "\u0120text": 3556, "\u0120Platoon": 3557, "\u0120Pandit": 3558, "\u0120occurred": 3559, "\u0120ceremony": 3560, "\u0120Brazil": 3561, "\u0120Virginia": 3562, "\u0120Kilmarnock": 3563, "\u0120Steinmann": 3564, "\u0120slogans": 3565, "\u0120Gauthier": 3566, "21": 3567, "88": 3568, "GO": 3569, "Yummy": 3570, "ees": 3571, "gen": 3572, "hold": 3573, "lit": 3574, "pur": 3575, "rn": 3576, "ract": 3577, "uals": 3578, "yd": 3579, "\u00c5\u0126": 3580, "head": 3581, "atov": 3582, "atics": 3583, "ises": 3584, "rees": 3585, "\u0120inf": 3586, "\u0120institut": 3587, "itzer": 3588, "\u0120fear": 3589, "\u0120failed": 3590, "\u0120fresh": 3591, "nder": 3592, "\u0120br": 3593, "ichel": 3594, "ington": 3595, "\u0120pur": 3596, "\u0120pow": 3597, "\u0120Sl": 3598, "\u0120Sout": 3599, "\u0120mem": 3600, "\u0120done": 3601, "\u0120Camp": 3602, "\u0120hig": 3603, "\u0120human": 3604, "\u0120Ma": 3605, "\u0120Mem": 3606, "\u0120Mod": 3607, "\u0120Moirang": 3608, "olk": 3609, "oles": 3610, "ston": 3611, "\u0120Hunt": 3612, "\u0120live": 3613, "\u0120lives": 3614, "\u0120label": 3615, "\u0120latter": 3616, "\u0120length": 3617, "irth": 3618, "\u0120Best": 3619, "\u0120Dor": 3620, "\u0120Dave": 3621, "\u0120though": 3622, "\u0120fort": 3623, "\u0120force": 3624, "\u0120Rally": 3625, "\u0120Lu": 3626, "ayi": 3627, "\u0120Fed": 3628, "\u0120Fore": 3629, "\u0120Jo": 3630, "\u0120Jers": 3631, "\u0120Jean": 3632, "chol": 3633, "\u0120Nap": 3634, "\u0120Niger": 3635, "\u0120get": 3636, "\u0120Ev": 3637, "\u0120Over": 3638, "\u0120almost": 3639, "rial": 3640, "\u0120Urs": 3641, "iance": 3642, "\u0120Kansas": 3643, "\u0120vol": 3644, "aves": 3645, "avel": 3646, "\u0120range": 3647, "aki": 3648, "\u0120chose": 3649, "\u0120Chalais": 3650, "\u0120sex": 3651, "\u0120seats": 3652, "\u0120separ": 3653, "\u0120plat": 3654, "oger": 3655, "quar": 3656, "\u0120exist": 3657, "\u0120Union": 3658, "iction": 3659, "\u0120evac": 3660, "\u0120youth": 3661, "\u0120Vo": 3662, "\u0120Val": 3663, "\u0120unc": 3664, "\u0120noted": 3665, "\u0120184": 3666, "undred": 3667, "\u0120adapt": 3668, "pert": 3669, "oys": 3670, "awai": 3671, "\u0120diss": 3672, "\u0120security": 3673, "\u0120common": 3674, "ucture": 3675, "\u01201950": 3676, "\u0120active": 3677, "\u01201979": 3678, "\u0120know": 3679, "\u0120followed": 3680, "\u01201926": 3681, "\u0120Prot": 3682, "\u01201937": 3683, "\u0120coach": 3684, "\u0120according": 3685, "\u0120Asian": 3686, "\u0120artists": 3687, "\u0120submerged": 3688, "\u0120interview": 3689, "\u0120Island": 3690, "\u0120Sciences": 3691, "\u0120sett": 3692, "\u0120medical": 3693, "\u0120earth": 3694, "\u0120owned": 3695, "\u0120Prime": 3696, "\u0120Canadian": 3697, "\u0120succeeded": 3698, "\u0120phil": 3699, "\u0120Turkish": 3700, "\u0120Andr": 3701, "\u0120responded": 3702, "\u0120employ": 3703, "venue": 3704, "\u0120Room": 3705, "\u0120incre": 3706, "\u0120Christmas": 3707, "\u0120managed": 3708, "\u0120begin": 3709, "\u01201887": 3710, "\u0120Monteneg": 3711, "\u0120Charl": 3712, "espite": 3713, "\u0120participated": 3714, "\u0120peak": 3715, "sych": 3716, "\u0120similar": 3717, "\u0120Jos\u00c3\u00a9": 3718, "\u0120largest": 3719, "\u0120instead": 3720, "\u0120historical": 3721, "\u0120Oxford": 3722, "\u0120neigh": 3723, "\u0120administrative": 3724, "known": 3725, "\u0120Shiji": 3726, "\u0120independent": 3727, "\u0120relationship": 3728, "\u0120Kurdish": 3729, "\u0120important": 3730, "\u0120target": 3731, "\u0120conflict": 3732, "\u0120zone": 3733, "\u0120newspaper": 3734, "\u0120figures": 3735, "\u0120physical": 3736, "\u0120machine": 3737, "\u0120hotel": 3738, "\u0120Iraq": 3739, "bs": 3740, "back": 3741, "bury": 3742, "cies": 3743, "duction": 3744, "fin": 3745, "fic": 3746, "han": 3747, "lom": 3748, "mes": 3749, "mond": 3750, "mier": 3751, "ror": 3752, "ying": 3753, "zech": 3754, "\u0120aim": 3755, "\u0120achie": 3756, "oring": 3757, "organ": 3758, "ening": 3759, "\u0120winning": 3760, "\u0120schol": 3761, "isen": 3762, "reement": 3763, "reme": 3764, "\u0120information": 3765, "itude": 3766, "\u0120fr": 3767, "\u0120fro": 3768, "\u0120fall": 3769, "\u0120future": 3770, "\u0120cam": 3771, "\u0120chief": 3772, "icated": 3773, "\u0120pan": 3774, "\u0120pot": 3775, "\u0120To": 3776, "\u0120Tw": 3777, "\u0120Tun": 3778, "\u0120Ay": 3779, "\u0120doc": 3780, "\u0120data": 3781, "\u0120Czech": 3782, "illy": 3783, "ilities": 3784, "\u0120Mit": 3785, "\u0120reason": 3786, "\u0120Human": 3787, "\u0120Ign": 3788, "ades": 3789, "\u0120Pu": 3790, "\u0120Pass": 3791, "\u0120lot": 3792, "\u0120look": 3793, "ecess": 3794, "emus": 3795, "\u0120Bol": 3796, "\u0120Bad": 3797, "\u0120Bur": 3798, "\u0120Brand": 3799, "\u0120Du": 3800, "\u0120Dou": 3801, "\u0120Dubl": 3802, "\u0120Dinn": 3803, "\u0120Dev": 3804, "\u0120neg": 3805, "idi": 3806, "ider": 3807, "\u0120Like": 3808, "\u0120FI": 3809, "\u0120Following": 3810, "une": 3811, "\u0120gren": 3812, "\u0120ground": 3813, "\u0120girl": 3814, "ctions": 3815, "cepted": 3816, "\u0120Wend": 3817, "\u0120Wind": 3818, "andy": 3819, "\u0120white": 3820, "osh": 3821, "\u0120Under": 3822, "\u0120coming": 3823, "\u0120Head": 3824, "\u0120Hebr": 3825, "artel": 3826, "\u0120dev": 3827, "\u0120proble": 3828, "\u0120route": 3829, "odi": 3830, "\u0120Chic": 3831, "endant": 3832, "\u0120exc": 3833, "icted": 3834, "ervation": 3835, "ordin": 3836, "\u0120unit": 3837, "rying": 3838, "\u0120Alpert": 3839, "\u0120Mark": 3840, "ultural": 3841, "\u0120agent": 3842, "oint": 3843, "ensive": 3844, "\u012040": 3845, "\u0120colonel": 3846, "\u01201971": 3847, "\u01201975": 3848, "\u01201976": 3849, "\u00c3\u00a9n": 3850, "\u01201943": 3851, "\u01201921": 3852, "\u012068": 3853, "rought": 3854, "\u0120Assist": 3855, "\u0120related": 3856, "\u0120Country": 3857, "\u0120decl": 3858, "\u0120Region": 3859, "\u0120acqu": 3860, "\u01201918": 3861, "\u0120translated": 3862, "\u0120organization": 3863, "\u0120organisation": 3864, "\u0120phone": 3865, "\u0120recording": 3866, "\u0120travel": 3867, "\u0120blood": 3868, "\u0120department": 3869, "\u0120deputy": 3870, "\u0120driver": 3871, "\u0120Middle": 3872, "\u0120programs": 3873, "\u0120Belt": 3874, "emple": 3875, "aurant": 3876, "\u0120civilians": 3877, "\u0120Philipp": 3878, "\u0120Joseph": 3879, "\u0120Service": 3880, "\u0120solo": 3881, "\u0120Muham": 3882, "\u0120illustr": 3883, "\u0120Supp": 3884, "></": 3885, "\u0120casual": 3886, "\u0120architect": 3887, "\u0120individuals": 3888, "ooglin": 3889, "yrics": 3890, "Meudon": 3891, "\u0120Affairs": 3892, "\u0120Columbia": 3893, "vironment": 3894, "\u0120Wagner": 3895, "\u0120Representatives": 3896, "\u0120Foreign": 3897, "\u0120Ignatov": 3898, "\u0120Dublin": 3899, "\u0120Dinnayi": 3900, "\":": 3901, "02": 3902, "=\"": 3903, "AS": 3904, "BS": 3905, "People": 3906, "St": 3907, "bi": 3908, "des": 3909, "eur": 3910, "eter": 3911, "eign": 3912, "hana": 3913, "ias": 3914, "iec": 3915, "jing": 3916, "lan": 3917, "lam": 3918, "rt": 3919, "rated": 3920, "wa": 3921, "wen": 3922, "yc": 3923, "zz": 3924, "\u0120\u00e2": 3925, "\u0120er": 3926, "\u0120task": 3927, "\u0120tribut": 3928, "enced": 3929, "\u0120sister": 3930, "\u0120syn": 3931, "\u0120sector": 3932, "arian": 3933, "\u0120insp": 3934, "itation": 3935, "\u0120fre": 3936, "\u0120foot": 3937, "\u0120cover": 3938, "ester": 3939, "\u0120bri": 3940, "\u0120brought": 3941, "\u0120So": 3942, "\u0120Som": 3943, "\u0120Sir": 3944, "\u0120Sov": 3945, "\u0120mix": 3946, "\u0120maint": 3947, "\u0120di": 3948, "\u0120der": 3949, "\u0120Mah": 3950, "\u0120Magazine": 3951, "elt": 3952, "\u0120Ives": 3953, "\u0120Press": 3954, "\u0120lig": 3955, "\u0120lyrics": 3956, "\u0120Born": 3957, "\u0120Bef": 3958, "\u0120Despite": 3959, "\u0120names": 3960, "\u0120threat": 3961, "\u0120Ray": 3962, "\u0120Rail": 3963, "\u0120Rivi\u00c3\u00a8re": 3964, "\u0120Lord": 3965, "\u0120Laur": 3966, "\u0120Latin": 3967, "\u0120Luther": 3968, "\u0120Jr": 3969, "\u0120Gar": 3970, "\u0120(;": 3971, "\u0120grew": 3972, "\u0120Wol": 3973, "\u0120Wang": 3974, "\u0120Eren": 3975, "agog": 3976, "\u0120whose": 3977, "osing": 3978, "osop": 3979, "uled": 3980, "ocal": 3981, "\u0120Up": 3982, "\u0120conclus": 3983, "\u00e2\u0122\u0136": 3984, "\u0120vac": 3985, "\u0120rather": 3986, "\u0120cho": 3987, "\u0120change": 3988, "\u0120Stadium": 3989, "\u0120Chance": 3990, "\u0120see": 3991, "apers": 3992, "orney": 3993, "ranch": 3994, "\u0120arm": 3995, "\u0120spread": 3996, "okes": 3997, "\u0120Armen": 3998, "\u0120climate": 3999, "teen": 4000, "ulty": 4001, "\u01201981": 4002, "\u012033": 4003, "reng": 4004, "atory": 4005, "\u0120commit": 4006, "\u0120Lead": 4007, "\u0120rock": 4008, "\u0120action": 4009, "\u0120secondary": 4010, "\u0120retire": 4011, "\u01201969": 4012, "\u01201932": 4013, "\u0120Arabic": 4014, "\u0120famous": 4015, "\u0120leader": 4016, "\u0120Conference": 4017, "\u0120Connecticut": 4018, "\u0120writing": 4019, "\u0120transport": 4020, "\u0120Place": 4021, "\u0120books": 4022, "\u0120Register": 4023, "ificant": 4024, "ronze": 4025, "\u0120central": 4026, "\u0120impro": 4027, "raduate": 4028, "\u01201916": 4029, "\u0120broad": 4030, "\u0120minister": 4031, "\u0120minutes": 4032, "\u0120guitar": 4033, "\u0120running": 4034, "\u0120below": 4035, "ograp": 4036, "\u0120presidential": 4037, "\u0120aircraft": 4038, "\u0120communic": 4039, "\u0120helped": 4040, "\u0120riot": 4041, "\u0120intro": 4042, "\u0120population": 4043, "\u0120legal": 4044, "\u0120voice": 4045, "\u0120replaced": 4046, "\u0120summ": 4047, "\u0120funeral": 4048, "\u0120meaning": 4049, "\u0120female": 4050, "\u0120fighting": 4051, "\u0120winners": 4052, "\u0120Lovell": 4053, "\u0120Louisiana": 4054, "\u0120Richard": 4055, "\u0120warning": 4056, "\u0120Francisco": 4057, "\u0120residents": 4058, "\u0120Angeles": 4059, "awaii": 4060, "\u0120Hebron": 4061, "\u0120Soviet": 4062, "\u0120Before": 4063, ".\u00e2\u0122\u013f": 4064, "37": 4065, "51": 4066, "BC": 4067, "December": 4068, "LGO": 4069, "aun": 4070, "bar": 4071, "based": 4072, "de": 4073, "house": 4074, "ja": 4075, "jan": 4076, "ken": 4077, "la": 4078, "mosp": 4079, "rin": 4080, "ua": 4081, "uit": 4082, "ule": 4083, "vention": 4084, "wide": 4085, "yo": 4086, "zbek": 4087, "\u00c4\u012f": 4088, "\u00d0\u00b0": 4089, "\u00e0\u00a4": 4090, "\u0120esc": 4091, "\u0120tro": 4092, "oni": 4093, "orial": 4094, "\u0120want": 4095, "\u0120wounded": 4096, "\u0120sons": 4097, "\u0120sales": 4098, "\u0120sources": 4099, "\u0120our": 4100, "arily": 4101, "\u0120intern": 4102, "asz": 4103, "\u0120corn": 4104, "\u0120birth": 4105, "iced": 4106, "ingham": 4107, "\u0120pun": 4108, "\u0120press": 4109, "\u0120SS": 4110, "\u0120Sim": 4111, "\u0120Sher": 4112, "\u0120Savi": 4113, "omest": 4114, "\u0120mur": 4115, "\u0120mus": 4116, "\u0120mun": 4117, "lean": 4118, "\u0120Two": 4119, "\u0120Tai": 4120, "\u0120Times": 4121, "\u0120Ah": 4122, "\u0120Av": 4123, "\u0120dro": 4124, "\u0120Chief": 4125, "\u0120Catherine": 4126, "\u0120hockey": 4127, "\u0120hundred": 4128, "\u0120My": 4129, "\u0120Mot": 4130, "\u0120Mall": 4131, "\u0120Mass": 4132, "standing": 4133, "eld": 4134, "\u0120Houth": 4135, "\u0120Pers": 4136, "\u0120lack": 4137, "eman": 4138, "iral": 4139, "\u0120Bal": 4140, "\u0120net": 4141, "\u0120thous": 4142, "\u0120forward": 4143, "\u0120et": 4144, "\u0120Liga": 4145, "igg": 4146, "igital": 4147, "imar": 4148, "imal": 4149, "change": 4150, "\u0120gas": 4151, "\u0120Work": 4152, "anded": 4153, "\u0120stage": 4154, "\u0120states": 4155, "\u0120stream": 4156, "\u0120Ep": 4157, "\u0120Open": 4158, "\u0120always": 4159, "\u0120Uzbek": 4160, "\u0120come": 4161, "\u0120deal": 4162, "\u0120deter": 4163, "\u0120race": 4164, "\u0120Str": 4165, "\u0120Stan": 4166, "ounter": 4167, "ova": 4168, "ovi\u00c4\u0129": 4169, "\u0120Univers": 4170, "\u0120leave": 4171, "\u0120Youth": 4172, "\u0120spot": 4173, "\u0120king": 4174, "angjing": 4175, "oke": 4176, "\u0120teaching": 4177, "\u0120Arn": 4178, "\u0120Marc": 4179, "ulture": 4180, "\u0120services": 4181, "iplom": 4182, "\u0120Anton": 4183, "\u0120recently": 4184, "\u0120Paris": 4185, "\u0120committee": 4186, "\u0120outlet": 4187, "\u0120eventually": 4188, "\u0120finally": 4189, "\u0120upcoming": 4190, "aho": 4191, "\u01201946": 4192, "overnor": 4193, "annah": 4194, "\u0120perform": 4195, "\u01201966": 4196, "\u01201936": 4197, "\u012060": 4198, "\u0120politics": 4199, "chell": 4200, "\u0120169": 4201, "\u0120ending": 4202, "\u0120evicted": 4203, "\u0120consult": 4204, "\u0120moving": 4205, "\u0120march": 4206, "\u0120Islam": 4207, "\u0120relig": 4208, "ennis": 4209, "\u0120promin": 4210, "\u01201917": 4211, "aptain": 4212, "\u0120transl": 4213, "\u0120headquar": 4214, "\u0120Andrew": 4215, "\u0120operational": 4216, "\u0120annual": 4217, "\u0120parents": 4218, "\u0120goal": 4219, "\u01201906": 4220, "\u0120varanop": 4221, "\u0120Organ": 4222, "\u0120Order": 4223, "\u0120Belg": 4224, "\u0120Belle": 4225, "\u0120professor": 4226, "\u0120Exp": 4227, "\u0120votes": 4228, "\u0120management": 4229, "\u0120object": 4230, "\u0120model": 4231, "iminal": 4232, "\u0120Commissioner": 4233, "\u0120fields": 4234, "\u0120funding": 4235, "\u0120Medical": 4236, "\u0120Roberts": 4237, "\u0120allowed": 4238, "\u0120Mirbach": 4239, "\u0120leadership": 4240, "\u0120significant": 4241, "\u0120friends": 4242, "\u0120Province": 4243, "\u0120Records": 4244, "\u0120Georgian": 4245, "\u0120double": 4246, "\u0120analysis": 4247, "\u0120radio": 4248, "\u0120avail": 4249, "\u0120Apica": 4250, "\u0120Cardiff": 4251, "\u0120destroy": 4252, "\u0120Smith": 4253, "\u0120Tonna": 4254, "\u0120planned": 4255, "Script": 4256, "\u0120purchased": 4257, "\u0120Winter": 4258, "\u0120revealed": 4259, "itzerland": 4260, "\u0120Muhammad": 4261, "\u0120Support": 4262, "\u0120brief": 4263, "\u0120Lutheran": 4264, "LGOL": 4265, "\u0120troops": 4266, "\u0120Saviola": 4267, "\u0120musical": 4268, "In": 4269, "Part": 4270, "RE": 4271, "Re": 4272, "SX": 4273, "bu": 4274, "burn": 4275, "cat": 4276, "gent": 4277, "ground": 4278, "hab": 4279, "hark": 4280, "iy": 4281, "iro": 4282, "law": 4283, "like": 4284, "mn": 4285, "oons": 4286, "sw": 4287, "sen": 4288, "wh": 4289, "wan": 4290, "\u00c3\u00ba": 4291, "\u00c5\u00ab": 4292, "\u0120\\": 4293, "\u0120ver": 4294, "\u0120era": 4295, "inem": 4296, "\u0120wide": 4297, "\u0120wood": 4298, "\u0120walk": 4299, "ati": 4300, "\u0120surr": 4301, "\u0120self": 4302, "\u0120sugg": 4303, "isher": 4304, "rep": 4305, "related": 4306, "ito": 4307, "aso": 4308, "\u0120bronze": 4309, "inger": 4310, "\u0120Sat": 4311, "\u0120Sever": 4312, "\u0120mater": 4313, "\u0120TV": 4314, "\u0120Tel": 4315, "\u0120ALGOL": 4316, "\u0120Cross": 4317, "\u0120Captain": 4318, "\u0120hor": 4319, "\u0120hop": 4320, "iler": 4321, "\u0120Hon": 4322, "\u0120Hous": 4323, "\u0120Haji": 4324, "room": 4325, "ady": 4326, "\u0120Prop": 4327, "\u0120Penn": 4328, "\u0120log": 4329, "\u0120languages": 4330, "emate": 4331, "\u0120Big": 4332, "\u0120Dis": 4333, "\u0120Danish": 4334, "\u0120Dream": 4335, "\u0120nine": 4336, "\u0120\"\"": 4337, "idge": 4338, "\u0120Ros": 4339, "\u0120here": 4340, "imately": 4341, "\u0120Fred": 4342, "\u0120Jhark": 4343, "\u0120Gy": 4344, "\u0120Green": 4345, "unior": 4346, "\u0120grant": 4347, "istics": 4348, "\u0120Way": 4349, "ande": 4350, "\u0120stories": 4351, "\u0120Erd": 4352, "\u0120already": 4353, "umn": 4354, "rap": 4355, "\u0120UN": 4356, "\u0120conn": 4357, "\u0120const": 4358, "\u0120conference": 4359, "\u0120Kim": 4360, "\u0120Kore": 4361, "\u0120Kaz": 4362, "\u0120K\u00c3\u00b6": 4363, "\u0120vice": 4364, "\u0120voy": 4365, "\u0120veh": 4366, "aved": 4367, "\u0120races": 4368, "\u0120roles": 4369, "ability": 4370, "\u0120Studi": 4371, "ends": 4372, "ells": 4373, "ogan": 4374, "\u0120compos": 4375, "\u0120examp": 4376, "\u0120arg": 4377, "erved": 4378, "\u0120kick": 4379, "angle": 4380, "\u0120186": 4381, "\u0120shout": 4382, "\u0120Alf": 4383, "\u0120adult": 4384, "\u0120Mars": 4385, "\u012038": 4386, "\u0120itself": 4387, "\u0120judge": 4388, "\u0120Anna": 4389, "\u0120manuf": 4390, "\u0120secretary": 4391, "\u0120desp": 4392, "\u0120regional": 4393, "\u0120Zh": 4394, "\u0120enc": 4395, "\u0120premi": 4396, "span": 4397, "\u0120Spade": 4398, "\u0120specific": 4399, "ologist": 4400, "\u0120assign": 4401, "\u0120better": 4402, "\u00c3\u00a1r": 4403, "\u0120articles": 4404, "\u0120serious": 4405, "\u0120Assad": 4406, "\u0120Isabel": 4407, "\u0120creating": 4408, "\u0120listed": 4409, "\u0120earlier": 4410, "\u0120Saf": 4411, "\u0120owner": 4412, "\u0120improv": 4413, "\u0120flood": 4414, "\u0120mostly": 4415, "\u0120phot": 4416, "\u0120continu": 4417, "\u0120Midd": 4418, "\u0120guest": 4419, "\u01201905": 4420, "fully": 4421, "\u0120graduate": 4422, "\u0120Trump": 4423, "\u0120Swiss": 4424, "\u0120discovered": 4425, "ributed": 4426, "\u0120\u00c3\u012b": 4427, "\u0120crimes": 4428, "\u0120Artemus": 4429, "\u0120shows": 4430, "\u0120obt": 4431, "\u00c3\u00b6n": 4432, "\u0120conditions": 4433, "\u0120experience": 4434, "\u0120educated": 4435, "\u0120passed": 4436, "\u0120restaurant": 4437, "mitted": 4438, "\u0120required": 4439, "\u0120advis": 4440, "\u0120\u00c2\u00a7": 4441, "\u0120personal": 4442, "\u0120peace": 4443, "\u0120Brother": 4444, "\u0120multi": 4445, "\u0120literary": 4446, "\u0120Premier": 4447, "\u0120captain": 4448, "\u0120Revolution": 4449, "rainian": 4450, "\u0120damage": 4451, "\u0120independence": 4452, "\u0120tracks": 4453, "\u0120exhibition": 4454, "\u0120Finland": 4455, "\u0120Studies": 4456, "ICP": 4457, "\u0120drama": 4458, "writer": 4459, "\u0120enlisted": 4460, "\u0120transferred": 4461, "\u0120likely": 4462, "\u0120victims": 4463, "\u0120Nehru": 4464, "\u0120quarter": 4465, "\u0120skeleton": 4466, "\u0120Mexico": 4467, "\u0120Scotland": 4468, "\u0120respectively": 4469, "\u0120Ursus": 4470, "\u0120settled": 4471, "\u0120grenade": 4472, "\u0120Wendell": 4473, "\u0120Assistant": 4474, "\u0120ligul": 4475, "\u0120conclusion": 4476, "\u0120retirement": 4477, "\u0120prominent": 4478, "\u0120available": 4479, "\u0120Housemate": 4480, "\u0120Jharkhand": 4481, "\u0120Erdogan": 4482, "\u0120Kazakh": 4483, "\u0120Studios": 4484, "\u0120manufact": 4485, "50": 4486, "80": 4487, "EE": 4488, "Ex": 4489, "IV": 4490, "RA": 4491, "aia": 4492, "bles": 4493, "ci": 4494, "cial": 4495, "din": 4496, "eff": 4497, "gement": 4498, "gency": 4499, "graduate": 4500, "ires": 4501, "ienn": 4502, "iety": 4503, "light": 4504, "loy": 4505, "lock": 4506, "more": 4507, "night": 4508, "uated": 4509, "uence": 4510, "val": 4511, "win": 4512, "\u00e3\u0124": 4513, "\u0120#": 4514, "\u0120trop": 4515, "\u0120ahead": 4516, "onia": 4517, "onse": 4518, "\u0120wall": 4519, "\u0120sn": 4520, "\u0120society": 4521, "\u0120oil": 4522, "rem": 4523, "arrow": 4524, "ali": 4525, "iter": 4526, "\u0120fed": 4527, "\u0120front": 4528, "\u0120cal": 4529, "\u0120covered": 4530, "\u0120celebr": 4531, "\u0120box": 4532, "\u0120pen": 4533, "\u0120Soccer": 4534, "\u0120milit": 4535, "\u0120magazine": 4536, "\u0120Temple": 4537, "\u0120Are": 4538, "\u0120don": 4539, "\u0120draft": 4540, "\u0120domest": 4541, "\u0120diplom": 4542, "\u0120Cor": 4543, "enth": 4544, "ili": 4545, "amm": 4546, "\u0120Mong": 4547, "\u0120Make": 4548, "\u0120Hand": 4549, "\u0120Hoc": 4550, "\u0120Hall": 4551, "\u0120Hold": 4552, "road": 4553, "\u0120Il": 4554, "\u0120Pier": 4555, "\u0120lic": 4556, "ecial": 4557, "irm": 4558, "\u0120Bas": 4559, "\u0120Band": 4560, "\u0120Brom": 4561, "\u0120Ball": 4562, "\u0120Bear": 4563, "\u0120Bond": 4564, "\u0120Barn": 4565, "\u0120Dun": 4566, "\u0120nation": 4567, "otte": 4568, "\u0120Raj": 4569, "\u0120Rights": 4570, "\u0120heard": 4571, "\u0120Li": 4572, "\u0120Lam": 4573, "\u0120Lower": 4574, "\u0120Love": 4575, "\u0120Lane": 4576, "igr": 4577, "igible": 4578, "imated": 4579, "\u0120Fur": 4580, "\u0120Girl": 4581, "cha": 4582, "\u0120Nag": 4583, "\u0120gold": 4584, "\u0120grow": 4585, "\u0120grand": 4586, "\u0120Wat": 4587, "\u0120Wash": 4588, "\u0120streng": 4589, "thing": 4590, "romaia": 4591, "\u0120Elect": 4592, "\u0120Ell": 4593, "agh": 4594, "ago": 4595, "\u0120Ol": 4596, "\u0120Oper": 4597, "\u0120Owen": 4598, "\u0120ancient": 4599, "estival": 4600, "\u0120connect": 4601, "\u0120Kok": 4602, "\u0120K\u00c3\u00b8": 4603, "alled": 4604, "ateur": 4605, "arts": 4606, "\u0120ris": 4607, "ift": 4608, "ishing": 4609, "ills": 4610, "iller": 4611, "pping": 4612, "\u0120chap": 4613, "\u0120Chan": 4614, "\u0120places": 4615, "endromaia": 4616, "quart": 4617, "quake": 4618, "\u0120compl": 4619, "\u0120compared": 4620, "\u0120evidence": 4621, "\u0120sports": 4622, "\u0120Argent": 4623, "cluded": 4624, "\u0120partn": 4625, "\u0120partner": 4626, "\u0120offers": 4627, "\u0120shore": 4628, "\u0120Also": 4629, "\u0120Although": 4630, "\u0120includes": 4631, "\u0120agreed": 4632, "\u0120agreement": 4633, "\u0120attemp": 4634, "\u0120attention": 4635, "inder": 4636, "\u0120scored": 4637, "choenus": 4638, "\u0120News": 4639, "\u0120uses": 4640, "uctions": 4641, "rick": 4642, "\u01201958": 4643, "\u012047": 4644, "\u0120actor": 4645, "\u0120Zeal": 4646, "\u0120pred": 4647, "\u0120Commiss": 4648, "aze": 4649, "\u0120offices": 4650, "\u0120officially": 4651, "\u01201924": 4652, "anning": 4653, "annel": 4654, "\u0120Shaw": 4655, "\u01201938": 4656, "duced": 4657, "\u0120Forces": 4658, "\u0120invited": 4659, "\u0120accomp": 4660, "\u0120177": 4661, "\u0120musicology": 4662, "\u0120Qat": 4663, "\u0120severe": 4664, "uthou": 4665, "\u01201046": 4666, "\u0120interest": 4667, "\u0120Islands": 4668, "\u0120Science": 4669, "\u0120provides": 4670, "\u0120Frank": 4671, "\u0120address": 4672, "\u0120Johnson": 4673, "\u0120positions": 4674, "\u0120positive": 4675, "\u0120Centre": 4676, "\u0120starting": 4677, "\u0120response": 4678, "\u0120deaths": 4679, "\u0120didn": 4680, "\u0120protest": 4681, "\u0120joint": 4682, "ukh": 4683, "\u0120Management": 4684, "\u0120runs": 4685, "lington": 4686, "helor": 4687, "\u0120Switzerland": 4688, "\u0120alongside": 4689, "\u0120promotion": 4690, "\u0120claims": 4691, "\u0120observ": 4692, "\u0120additional": 4693, "\u0120issues": 4694, "\u0120Moran": 4695, "incip": 4696, "\u0120request": 4697, "offrey": 4698, "\u0120propeller": 4699, "\u0120legisl": 4700, "\u0120ranked": 4701, "\u0120larger": 4702, "\u0120behind": 4703, "\u0120typhoon": 4704, "\u0120bombing": 4705, "\u0120engineer": 4706, "\u0120battalion": 4707, "\u0120hosted": 4708, "\u0120Liberation": 4709, "\u0120Madrid": 4710, "\u0120balloon": 4711, "\u0120means": 4712, "\u0120guns": 4713, "\u0120window": 4714, "\u0120honor": 4715, "\u0120rebels": 4716, "\u0120Hungary": 4717, "\u0120recognized": 4718, "\u0120Ruiz": 4719, "\u0120responsible": 4720, "\u0120believed": 4721, "\u0120Moham": 4722, "\u0120Administration": 4723, "\u0120Talbot": 4724, "\u0120mobile": 4725, "\u0120statement": 4726, "\u0120Ukrainian": 4727, "\u0120semi": 4728, "\u0120Justice": 4729, "\u0120submarine": 4730, "\u0120Zygaena": 4731, "\u0120scheduled": 4732, "\u0120subsequently": 4733, "\u00c5\u0126sk": 4734, "\u0120Jersey": 4735, "\u0120adaptation": 4736, "\u0120Charlotte": 4737, "\u0120frozen": 4738, "ecessary": 4739, "\u0120Brandis": 4740, "\u0120Malloy": 4741, "repren": 4742, "\u0120Several": 4743, "\u0120despite": 4744, "\u0120Hocquart": 4745, "\u0120K\u00c3\u00b8pi": 4746, "\u0120Zealand": 4747, "'\"": 4748, "83": 4749, "Big": 4750, "DF": 4751, "IP": 4752, "SI": 4753, "Sec": 4754, "Un": 4755, "je": 4756, "lant": 4757, "ny": 4758, "net": 4759, "pin": 4760, "ray": 4761, "sar": 4762, "va": 4763, "ving": 4764, "\u00c3\u00a4": 4765, "\u0120\u00d7": 4766, "\u0120emb": 4767, "\u0120table": 4768, "\u0120techn": 4769, "hev": 4770, "\u0120aux": 4771, "inal": 4772, "inian": 4773, "onheim": 4774, "edd": 4775, "oria": 4776, "\u0120soon": 4777, "\u0120sailed": 4778, "aria": 4779, "aling": 4780, "also": 4781, "itt": 4782, "\u0120cop": 4783, "\u0120corp": 4784, "\u0120bring": 4785, "\u0120border": 4786, "icol": 4787, "\u0120pers": 4788, "\u0120piec": 4789, "\u0120Sin": 4790, "\u0120Sub": 4791, "ouch": 4792, "\u0120too": 4793, "\u0120Teh": 4794, "\u0120Aut": 4795, "\u0120digital": 4796, "\u0120Cr": 4797, "\u0120Chi": 4798, "ils": 4799, "iles": 4800, "ilty": 4801, "\u0120Main": 4802, "\u0120Mans": 4803, "\u0120Major": 4804, "eland": 4805, "\u0120Hor": 4806, "\u0120Hawaii": 4807, "ador": 4808, "ading": 4809, "ivals": 4810, "\u0120less": 4811, "\u0120liber": 4812, "\u0120love": 4813, "\u0120Bu": 4814, "\u0120Bos": 4815, "\u0120Book": 4816, "\u0120Burk": 4817, "\u0120Brian": 4818, "\u0120Der": 4819, "\u0120Dign": 4820, "\u0120narrow": 4821, "\u0120foreign": 4822, "otan": 4823, "\u0120Rat": 4824, "\u0120Line": 4825, "aya": 4826, "ayette": 4827, "imb": 4828, "imens": 4829, "\u0120Foot": 4830, "\u0120Foger": 4831, "\u0120Java": 4832, "chi": 4833, "ching": 4834, "\u0120Nile": 4835, "\u0120Naval": 4836, "cean": 4837, "\u0120Wild": 4838, "\u0120Wisc": 4839, "\u0120step": 4840, "\u0120withd": 4841, "\u0120Eag": 4842, "\u0120concept": 4843, "\u0120Ken": 4844, "\u0120Kat": 4845, "\u0120Information": 4846, "resp": 4847, "\u0120deleg": 4848, "\u0120progress": 4849, "odd": 4850, "aba": 4851, "ables": 4852, "abama": 4853, "\u0120chair": 4854, "\u0120charg": 4855, "\u0120Chap": 4856, "\u0120Chairman": 4857, "\u0120seem": 4858, "ously": 4859, "\u0120except": 4860, "\u0120executive": 4861, "claim": 4862, "mercial": 4863, "range": 4864, "ritsar": 4865, "\u0120firm": 4866, "\u0120Young": 4867, "\u0120unique": 4868, "\u0120That": 4869, "\u0120repeated": 4870, "\u0120aband": 4871, "itional": 4872, "\u0120Alabama": 4873, "\u0120adj": 4874, "\u0120adop": 4875, "\u0120Comic": 4876, "\u0120appeal": 4877, "\u0120javel": 4878, "ipur": 4879, "ilding": 4880, "\u0120score": 4881, "\u0120seasons": 4882, "\u0120electric": 4883, "formed": 4884, "\u01201955": 4885, "onsin": 4886, "\u012041": 4887, "\u0120Zion": 4888, "\u0120news": 4889, "\u0120preced": 4890, "\u0120Command": 4891, "\u0120imm": 4892, "\u0120underwater": 4893, "\u0120Production": 4894, "\u01201965": 4895, "\u0120caller": 4896, "\u0120Engine": 4897, "\u0120Junior": 4898, "\u0120accused": 4899, "\u0120Att": 4900, "\u0120directly": 4901, "\u0120consist": 4902, "orship": 4903, "\u0120movie": 4904, "\u0120Ash": 4905, "\u0120create": 4906, "\u0120representative": 4907, "\u0120Regional": 4908, "\u0120meas": 4909, "\u0120remov": 4910, "\u0120academ": 4911, "\u0120referred": 4912, "\u0120nearly": 4913, "ashion": 4914, "\u0120minor": 4915, "\u0120Edson": 4916, "\u0120activist": 4917, "\u0120activity": 4918, "\u0120Security": 4919, "\u01201908": 4920, "\u0120programming": 4921, "\u0120prevent": 4922, "\u0120graduating": 4923, "\u0120publications": 4924, "\u0120debuted": 4925, "\u0120incident": 4926, "\u0120diffic": 4927, "\u0120little": 4928, "\u0120Exchange": 4929, "\u0120Mont": 4930, "\u0120smaller": 4931, "\u0120experiment": 4932, "\u0120passing": 4933, "\u0120merged": 4934, "\u0120III": 4935, "ancial": 4936, "ometimes": 4937, "\u0120Muscat": 4938, "\u0120factory": 4939, "\u0120Philip": 4940, "\u0120twenty": 4941, "\u0120lightweight": 4942, "\u0120visiting": 4943, "\u0120identified": 4944, "\u0120metres": 4945, "\u0120investigation": 4946, "\u0120behavi": 4947, "\u0120Research": 4948, "\u0120summit": 4949, "\u0120situation": 4950, "\u0120Donald": 4951, "\u0120Paralympic": 4952, "\u0120demonstration": 4953, "\u0120Georgia": 4954, "\u0120Hungarian": 4955, "\u0120Network": 4956, "\u0120width": 4957, "\u0120Panama": 4958, "\u0120limited": 4959, "\u0120combat": 4960, "\u0120Earth": 4961, "\u0120Histor": 4962, "\u0120starring": 4963, "hematics": 4964, "\u0120Logistic": 4965, "\u0120Golden": 4966, "\u0120spirit": 4967, "\u0120certain": 4968, "\u0120practice": 4969, "\u0120platform": 4970, "\u0120existence": 4971, "\u0120Montenegro": 4972, "\u0120FIFA": 4973, "\u0120declared": 4974, "\u0120casualties": 4975, "\u0120mixed": 4976, "\u0120network": 4977, "\u0120Propst": 4978, "\u0120voyage": 4979, "\u0120premiered": 4980, "\u0120ligulatus": 4981, "\u0120Furth": 4982, "\u0120Washington": 4983, "repreneur": 4984, "\u0120Fogerty": 4985, "\u0120JavaScript": 4986, "\u0120Wisconsin": 4987, "\u0120javelin": 4988, "\u0120behaviour": 4989, "01": 4990, "24": 4991, "39": 4992, "54": 4993, "87": 4994, "94": 4995, "Al": 4996, "Be": 4997, "EA": 4998, "Eb": 4999, "MP": 5000, "PS": 5001, "Park": 5002, "Schoenus": 5003, "ba": 5004, "but": 5005, "bai": 5006, "door": 5007, "furt": 5008, "jiang": 5009, "ki": 5010, "life": 5011, "limin": 5012, "language": 5013, "mine": 5014, "ng": 5015, "nam": 5016, "oo": 5017, "ool": 5018, "oid": 5019, "pan": 5020, "rup": 5021, "rence": 5022, "ses": 5023, "uce": 5024, "vey": 5025, "\u0120treat": 5026, "heastern": 5027, "ona": 5028, "eds": 5029, "\u0120wa": 5030, "\u0120walls": 5031, "anced": 5032, "att": 5033, "atically": 5034, "\u0120section": 5035, "\u0120sides": 5036, "\u0120sought": 5037, "isional": 5038, "arim": 5039, "ites": 5040, "itness": 5041, "\u0120fle": 5042, "\u0120fans": 5043, "\u0120fashion": 5044, "\u0120cou": 5045, "\u0120cost": 5046, "\u0120cred": 5047, "\u0120bow": 5048, "\u0120bound": 5049, "\u0120brand": 5050, "\u0120break": 5051, "\u0120bridge": 5052, "\u0120pra": 5053, "\u0120purs": 5054, "\u0120piano": 5055, "\u0120psych": 5056, "\u0120Sol": 5057, "\u0120Sem": 5058, "\u0120Sus": 5059, "\u0120Sand": 5060, "\u0120Sab": 5061, "\u0120Sche": 5062, "\u0120SICP": 5063, "ionally": 5064, "\u0120mention": 5065, "\u0120max": 5066, "\u0120museum": 5067, "\u0120mental": 5068, "\u0120Ta": 5069, "\u0120Tan": 5070, "\u0120Tar": 5071, "\u0120Tri": 5072, "\u0120Top": 5073, "\u0120Trib": 5074, "\u0120App": 5075, "\u0120Azer": 5076, "\u0120Avenue": 5077, "\u0120Cat": 5078, "\u0120harm": 5079, "\u0120Maim": 5080, "ols": 5081, "eler": 5082, "eless": 5083, "\u0120Here": 5084, "rown": 5085, "\u0120IB": 5086, "\u0120Pak": 5087, "\u0120lo": 5088, "emper": 5089, "empt": 5090, "iry": 5091, "irol": 5092, "\u0120Ba": 5093, "\u0120Both": 5094, "\u0120Bridge": 5095, "\u0120Dist": 5096, "\u0120Dak": 5097, "\u0120Due": 5098, "tered": 5099, "\u0120forestry": 5100, "\u0120island": 5101, "\u0120ele": 5102, "oted": 5103, "\u0120RT": 5104, "\u0120Ran": 5105, "\u0120Rad": 5106, "\u0120Rivers": 5107, "\u0120RRE": 5108, "\u0120heav": 5109, "\u0120Lieutenant": 5110, "imum": 5111, "\u0120atmosp": 5112, "\u0120JS": 5113, "\u0120Ja": 5114, "\u0120Jose": 5115, "\u0120Gi": 5116, "\u0120Gri": 5117, "chant": 5118, "chyan": 5119, "\u0120gra": 5120, "isten": 5121, "\u0120ste": 5122, "\u0120stone": 5123, "\u0120Emp": 5124, "agn": 5125, "agon": 5126, "osl": 5127, "rie": 5128, "raine": 5129, "\u0120constitut": 5130, "\u0120Kr": 5131, "\u0120Kier": 5132, "oper": 5133, "orted": 5134, "avor": 5135, "\u0120charge": 5136, "\u0120chairman": 5137, "\u0120Star": 5138, "\u0120Step": 5139, "\u0120Chand": 5140, "\u0120Chooglin": 5141, "apore": 5142, "ogne": 5143, "\u0120composed": 5144, "ects": 5145, "ervative": 5146, "\u0120fired": 5147, "\u0120Year": 5148, "\u0120kind": 5149, "\u0120Vis": 5150, "\u0120Vienn": 5151, "\u0120unf": 5152, "\u0120univers": 5153, "\u0120unknown": 5154, "\u0120Arch": 5155, "\u0120notes": 5156, "\u0120closed": 5157, "2019": 5158, "\u0120parties": 5159, "\u0120shop": 5160, "\u0120Album": 5161, "\u0120Marg": 5162, "reek": 5163, "\u0120junior": 5164, "\u0120contract": 5165, "\u0120attend": 5166, "\u0120Anth": 5167, "\u0120Anne": 5168, "\u0120dism": 5169, "\u0120scene": 5170, "\u0120electoral": 5171, "ricultural": 5172, "\u01201951": 5173, "\u0120Cologne": 5174, "\u0120newly": 5175, "aret": 5176, "\u01201973": 5177, "\u01201978": 5178, "\u0120study": 5179, "\u01201947": 5180, "\u0120Indust": 5181, "aza": 5182, "\u0120Sports": 5183, "\u0120Program": 5184, "\u01201963": 5185, "\u0120themes": 5186, "\u0120Britain": 5187, "\u0120Forest": 5188, "\u0120Forester": 5189, "\u0120calling": 5190, "\u0120167": 5191, "ibility": 5192, "\u0120coordin": 5193, "\u0120accident": 5194, "\u0120consisted": 5195, "\u0120move": 5196, "tyard": 5197, "keep": 5198, "\u0120Johann": 5199, "\u0120interests": 5200, "\u0120write": 5201, "\u0120reports": 5202, "\u0120estimated": 5203, "\u0120formation": 5204, "\u0120deck": 5205, "\u0120settle": 5206, "\u0120remains": 5207, "\u0120appearances": 5208, "\u0120implement": 5209, "rett": 5210, "\u0120Carl": 5211, "\u0120amateur": 5212, "\u0120supported": 5213, "\u0120supporting": 5214, "udience": 5215, "\u0120Guer": 5216, "\u0120continue": 5217, "\u0120buildings": 5218, "\u0120variety": 5219, "\u0120Trust": 5220, "\u0120majority": 5221, "\u0120expert": 5222, "iamond": 5223, "\u0120participate": 5224, "\u0120civilian": 5225, "\u0120degrees": 5226, "\u0120roads": 5227, "\u0120eligible": 5228, "\u0120voters": 5229, "\u0120weeks": 5230, "\u0120chess": 5231, "\u0120oldest": 5232, "\u0120Supreme": 5233, "\u0120Brook": 5234, "\u0120Chess": 5235, "\u0120construct": 5236, "\u0120constituencies": 5237, "track": 5238, "tract": 5239, "\u0120Martin": 5240, "\u0120Martres": 5241, "\u0120Reserve": 5242, "\u00c3\u0143a": 5243, "\u0120Singapore": 5244, "\u0120changes": 5245, "\u0120industrial": 5246, "\u0120Mirza": 5247, "\u00c5\u00a1en": 5248, "\u0120prior": 5249, "\u0120prize": 5250, "\u0120baseball": 5251, "\u0120Haack": 5252, "\u0120assistant": 5253, "\u0120cultural": 5254, "\u0120middleweight": 5255, "ihar": 5256, "\u0120/>": 5257, "\u0120/><": 5258, "\u0120\u00d1\u0123": 5259, "\u0120Israeli": 5260, "\u0120Galway": 5261, "ategic": 5262, "\u0120concerns": 5263, "\u0120feel": 5264, "\u0120circulation": 5265, "\u0120associated": 5266, "\u0120Denmark": 5267, "\u0120Community": 5268, "\u0120conducted": 5269, "\u0120boats": 5270, "\u0120tower": 5271, "olitan": 5272, "\u0120Egyptian": 5273, "\u0120alleged": 5274, "\u0120lecturer": 5275, "\u0120arrangement": 5276, "\u0120occupation": 5277, "colspan": 5278, "\u0120sanctions": 5279, "\u0120Modern": 5280, "\u0120Naples": 5281, "\u0120Nigeria": 5282, "\u0120earthquake": 5283, "\u0120philosop": 5284, "\u0120document": 5285, "\u0120Mitchell": 5286, "\u0120negot": 5287, "rtchyan": 5288, "\u0120Laurent": 5289, "\u0120Upon": 5290, "\u0120choose": 5291, "\u0120murder": 5292, "\u0120kingdom": 5293, "\u0120headquarters": 5294, "\u0120material": 5295, "angleirol": 5296, "\u0120Isabelle": 5297, "\u0120Middleton": 5298, "loyd": 5299, "\u0120domestic": 5300, "\u0120Bromley": 5301, "\u0120accompan": 5302, "\u0120Dignan": 5303, "\u0120difficult": 5304, "liminary": 5305, "\u0120Azerbai": 5306, "\u0120Maimi": 5307, "\u0120Empire": 5308, "\u0120Kieran": 5309, "\u0120Vienna": 5310, "\"),": 5311, ")\"": 5312, "28": 5313, "57": 5314, "=|": 5315, "All": 5316, "CP": 5317, "DC": 5318, "Dendromaia": 5319, "IM": 5320, "Keep": 5321, "Pro": 5322, "Royal": 5323, "Sp": 5324, "We": 5325, "bon": 5326, "eb": 5327, "eas": 5328, "fare": 5329, "ging": 5330, "gun": 5331, "lor": 5332, "lers": 5333, "lvan": 5334, "miral": 5335, "named": 5336, "oes": 5337, "ping": 5338, "set": 5339, "tt": 5340, "uan": 5341, "vis": 5342, "vious": 5343, "ye": 5344, "zent": 5345, "\u00a3o": 5346, "\u00c3\u00b1": 5347, "\u00c3\u00a3o": 5348, "\u00c5\u012f": 5349, "\u00e3\u0123": 5350, "\u0120\u00c4": 5351, "\u0120technology": 5352, "\u0120aid": 5353, "onto": 5354, "edy": 5355, "eno": 5356, "anth": 5357, "atively": 5358, "\u0120shire": 5359, "\u0120saying": 5360, "isi": 5361, "itz": 5362, "itch": 5363, "itable": 5364, "\u0120fought": 5365, "asc": 5366, "asing": 5367, "ashev": 5368, "\u0120categ": 5369, "\u0120ben": 5370, "\u0120bann": 5371, "\u0120bike": 5372, "\u0120bott": 5373, "\u0120pict": 5374, "\u0120poor": 5375, "\u0120paper": 5376, "\u0120Sil": 5377, "\u0120Song": 5378, "\u0120Sund": 5379, "\u0120ment": 5380, "\u0120Tit": 5381, "\u0120Tour": 5382, "\u0120Tang": 5383, "\u0120AF": 5384, "\u0120Az": 5385, "\u0120Ale": 5386, "\u0120Ald": 5387, "\u0120Cas": 5388, "\u0120Chen": 5389, "\u0120Citizens": 5390, "\u0120Cape": 5391, "\u0120Cartel": 5392, "amich": 5393, "\u0120Mov": 5394, "\u0120Master": 5395, "\u0120Mandy": 5396, "\u0120reign": 5397, "olus": 5398, "elar": 5399, "\u0120Home": 5400, "\u0120Po": 5401, "\u0120Post": 5402, "\u0120Pie": 5403, "\u0120Prat": 5404, "uris": 5405, "uries": 5406, "aches": 5407, "\u0120losing": 5408, "\u0120Bir": 5409, "\u0120Bill": 5410, "\u0120Bern": 5411, "\u0120Business": 5412, "\u0120Buck": 5413, "\u0120Dh": 5414, "\u0120Del": 5415, "\u0120Diamond": 5416, "\u0120nature": 5417, "\u0120narr": 5418, "\u0120necessary": 5419, "lywood": 5420, "\u0120Rh": 5421, "\u0120Ron": 5422, "\u0120Life": 5423, "\u0120Lanc": 5424, "\u0120Library": 5425, "utch": 5426, "imi": 5427, "\u0120asp": 5428, "\u0120Fr": 5429, "\u0120Fre": 5430, "\u0120Fort": 5431, "\u0120Finn": 5432, "\u0120Fried": 5433, "\u0120Faso": 5434, "\u0120Jab": 5435, "\u0120Jaze": 5436, "\u0120Gayn": 5437, "\u0120Ghana": 5438, "unal": 5439, "\u0120Nath": 5440, "\u0120Ec": 5441, "\u0120Elp": 5442, "agen": 5443, "\u0120Old": 5444, "\u0120why": 5445, "\u0120altern": 5446, "osun": 5447, "eston": 5448, "iant": 5449, "\u0120convers": 5450, "\u0120concluded": 5451, "\u0120K\u00c3\u00a9n": 5452, "\u0120comes": 5453, "ainment": 5454, "\u0120van": 5455, "ortun": 5456, "\u0120rivi\u00c3\u00a8re": 5457, "illed": 5458, "abeth": 5459, "\u0120Stokes": 5460, "\u0120selected": 5461, "ov\u00c3\u00a1": 5462, "\u0120plus": 5463, "\u0120plant": 5464, "\u0120plants": 5465, "ello": 5466, "aps": 5467, "ogami": 5468, "quiry": 5469, "\u0120exiled": 5470, "cles": 5471, "\u0120arts": 5472, "\u0120Va": 5473, "\u0120Van": 5474, "\u0120tele": 5475, "\u0120units": 5476, "assy": 5477, "\u0120Through": 5478, "\u0120reporter": 5479, "izes": 5480, "\u0120sha": 5481, "\u0120Ali": 5482, "\u0120Marsh": 5483, "\u0120serve": 5484, "\u012035": 5485, "\u0120jump": 5486, "\u0120attached": 5487, "inda": 5488, "\u0120Ant": 5489, "\u0120Another": 5490, "ensus": 5491, "ropri": 5492, "\u0120location": 5493, "\u01201957": 5494, "\u0120films": 5495, "\u012045": 5496, "\u0120acting": 5497, "\u0120actress": 5498, "\u0120Colomb": 5499, "\u0120prep": 5500, "\u0120princip": 5501, "\u0120knock": 5502, "\u00c3\u00a9bec": 5503, "aily": 5504, "\u01201941": 5505, "\u01201949": 5506, "\u01201922": 5507, "\u0120founder": 5508, "\u0120founding": 5509, "chester": 5510, "\u0120coast": 5511, "\u0120suppress": 5512, "\u0120consists": 5513, "\u0120mayor": 5514, "iera": 5515, "\u0120Asia": 5516, "evi\u00c4\u0129": 5517, "\u0120Associ": 5518, "\u0120Poland": 5519, "\u0120Adashev": 5520, "\u0120editor": 5521, "\u0120provide": 5522, "\u0120providing": 5523, "\u0120Play": 5524, "\u0120format": 5525, "\u0120raise": 5526, "\u0120decision": 5527, "enne": 5528, "enness": 5529, "\u0120sets": 5530, "\u0120childhood": 5531, "velopment": 5532, "\u0120accepted": 5533, "\u0120flight": 5534, "\u01201912": 5535, "aptist": 5536, "\u012090": 5537, "\u0120featuring": 5538, "\u0120traff": 5539, "\u0120operated": 5540, "\u0120visited": 5541, "\u0120describes": 5542, "\u0120background": 5543, "\u0120refused": 5544, "\u0120protests": 5545, "\u01201907": 5546, "187": 5547, "byshire": 5548, "\u0120airship": 5549, "\u0120criminal": 5550, "\u0120Executive": 5551, "\u0120facilities": 5552, "\u0120Abu": 5553, "\u0120voted": 5554, "\u0120succession": 5555, "\u0120Morales": 5556, "\u0120Malays": 5557, "\u0120projects": 5558, "\u0120winter": 5559, "\u0120Again": 5560, "\u00c3\u00bcr": 5561, "\u0120involvement": 5562, "\u0120twice": 5563, "\u0120identify": 5564, "\u0120focuses": 5565, "\u0120qualify": 5566, "itarian": 5567, "\u0120Singles": 5568, "\u0120towns": 5569, "\u0120Camosun": 5570, "\u0120Team": 5571, "\u0120Battle": 5572, "inking": 5573, "\u0120Qu\u00c3\u00a9bec": 5574, "\u0120Black": 5575, "\u0120Weimar": 5576, "\u0120holds": 5577, "\u0120Lawrence": 5578, "\u0120Series": 5579, "\u0120Miles": 5580, "\u0120Hotel": 5581, "\u0120Naito": 5582, "\u0120commissioner": 5583, "\u0120dispers": 5584, "\u0120doctorate": 5585, "\u0120toponymie": 5586, "\u0120draw": 5587, "\u0120policy": 5588, "\u0120capital": 5589, "\u0120Idaho": 5590, "\u0120Denisen": 5591, "\u0120Communist": 5592, "\u0120formalized": 5593, "\u0120Carolina": 5594, "\u0120happened": 5595, "\u0120Rangers": 5596, "\u0120Gallery": 5597, "\u0120idea": 5598, "\u0120paintings": 5599, "\u0120Corporation": 5600, "\u0120Bacelar": 5601, "\u0120Imran": 5602, "\u0120watersheds": 5603, "\u0120Ruby": 5604, "\u0120organizations": 5605, "\u0120training": 5606, "\u0120parliamentary": 5607, "\u0120Southern": 5608, "\u0120Memorial": 5609, "\u0120Federation": 5610, "\u0120neighbor": 5611, "\u0120camera": 5612, "\u0120potential": 5613, "\u0120Twenty": 5614, "\u0120Doug": 5615, "\u0120problems": 5616, "\u0120acquired": 5617, "\u0120Railway": 5618, "\u0120Armenia": 5619, "\u0120introduced": 5620, "\u0120wanted": 5621, "\u0120Persian": 5622, "\u0120Uzbekistan": 5623, "\u0120Arnold": 5624, "\u0120Antonio": 5625, "\u0120religious": 5626, "\u0120varanopids": 5627, "\u0120destroyed": 5628, "\u0120granted": 5629, "\u0120vehicles": 5630, "\u0120shouted": 5631, "\u0120obtained": 5632, "\u0120tropical": 5633, "\u0120strength": 5634, "\u0120Chanelle": 5635, "\u0120Qatar": 5636, "\u0120Brandisov\u00c3\u00a1": 5637, "\u0120Bosn": 5638, "\u0120Burkina": 5639, "\u0120Derbyshire": 5640, "\u0120Eagle": 5641, "\u0120abandoned": 5642, "\u0120removed": 5643, "rupt": 5644, "\u0120Sabha": 5645, "\u0120Tribunal": 5646, "\u0120Dakota": 5647, "\u0120Laurentides": 5648, "\u0120accompanied": 5649, "\u0120Azerbaijan": 5650, "\u0120Pratap": 5651, "\u0120Finnish": 5652, "\u0120Jazeera": 5653, "\u0120Gaynor": 5654, "\u0120Elpro": 5655, "\u0120Denisenko": 5656, "26": 5657, "40": 5658, "64": 5659, "84": 5660, "86": 5661, "95": 5662, "98": 5663, "BO": 5664, "ED": 5665, "Fort": 5666, "General": 5667, "Kangleirol": 5668, "LC": 5669, "March": 5670, "Py": 5671, "Roc": 5672, "Sub": 5673, "Up": 5674, "bl": 5675, "bour": 5676, "city": 5677, "cia": 5678, "dam": 5679, "gang": 5680, "hr": 5681, "iew": 5682, "jar": 5683, "joy": 5684, "king": 5685, "kut": 5686, "kayn": 5687, "ls": 5688, "las": 5689, "ped": 5690, "part": 5691, "rc": 5692, "sch": 5693, "tmann": 5694, "uana": 5695, "uven": 5696, "yal": 5697, "\u00c3\u00a2": 5698, "\u00c5\u0124": 5699, "\u00d0\u00bb": 5700, "\u00d7\u0137": 5701, "\u0120%": 5702, "\u0120ult": 5703, "\u0120tim": 5704, "\u0120test": 5705, "\u0120tennis": 5706, "het": 5707, "hest": 5708, "\u0120aver": 5709, "\u0120audience": 5710, "inces": 5711, "eron": 5712, "orrow": 5713, "\u0120wild": 5714, "atural": 5715, "\u0120sat": 5716, "\u0120som": 5717, "\u0120soul": 5718, "reated": 5719, "aru": 5720, "\u0120inside": 5721, "\u0120inhab": 5722, "ithel": 5723, "\u0120fish": 5724, "\u0120feed": 5725, "\u0120fuel": 5726, "\u0120cat": 5727, "\u0120cause": 5728, "\u0120clear": 5729, "\u0120bre": 5730, "\u0120bar": 5731, "\u0120boy": 5732, "\u0120breed": 5733, "ingu": 5734, "\u0120Sop": 5735, "\u0120Sask": 5736, "\u0120mm": 5737, "\u0120mis": 5738, "\u0120mel": 5739, "\u0120might": 5740, "\u0120muses": 5741, "\u0120Tu": 5742, "\u0120Tro": 5743, "\u0120dark": 5744, "\u0120drew": 5745, "\u0120Ca": 5746, "\u0120Catin": 5747, "\u0120hard": 5748, "\u0120hyd": 5749, "iliated": 5750, "\u0120Miss": 5751, "\u0120Minn": 5752, "olished": 5753, "stey": 5754, "\u0120HE": 5755, "\u0120Ho": 5756, "\u0120Hug": 5757, "\u0120Hind": 5758, "\u0120Hannah": 5759, "\u0120Ily": 5760, "\u0120Iow": 5761, "\u0120Pard": 5762, "\u0120Prad": 5763, "\u0120Pope": 5764, "acted": 5765, "\u0120lin": 5766, "\u0120lac": 5767, "\u0120library": 5768, "\u01201900": 5769, "\u0120Bagh": 5770, "\u0120Bihar": 5771, "\u0120Di": 5772, "\u0120Div": 5773, "\u0120Dub": 5774, "\u0120Die": 5775, "\u0120Domin": 5776, "\u0120Dutch": 5777, "\u0120thus": 5778, "\u0120thank": 5779, "\u0120elev": 5780, "\u0120eastern": 5781, "lyi": 5782, "lying": 5783, "\u0120Rol": 5784, "\u0120Rima": 5785, "\u0120Ly": 5786, "\u0120Lak": 5787, "\u0120Lady": 5788, "\u0120ath": 5789, "usion": 5790, "\u0120Joffrey": 5791, "\u0120God": 5792, "\u0120Gram": 5793, "chw": 5794, "unk": 5795, "\u0120Naz": 5796, "\u0120Nasz": 5797, "\u0120gen": 5798, "\u0120give": 5799, "\u0120gained": 5800, "\u0120gaining": 5801, "\u0120Wal": 5802, "\u0120stab": 5803, "\u0120stations": 5804, "\u0120beat": 5805, "herlands": 5806, "uments": 5807, "estant": 5808, "ocated": 5809, "\u0120Ul": 5810, "\u0120Kn": 5811, "\u0120Kay": 5812, "\u0120Konheim": 5813, "\u0120Inn": 5814, "\u00e2\u0122\u013a": 5815, "opod": 5816, "\u0120deep": 5817, "\u0120deploy": 5818, "iful": 5819, "ighth": 5820, "odg": 5821, "abon": 5822, "icht": 5823, "\u0120Stra": 5824, "\u0120Stev": 5825, "\u0120Chaz": 5826, "ovo": 5827, "ellig": 5828, "apest": 5829, "ogamich": 5830, "orning": 5831, "\u0120complex": 5832, "\u0120composition": 5833, "\u0120learn": 5834, "rani\u00c4\u0129": 5835, "ucks": 5836, "\u0120spons": 5837, "\u0120kept": 5838, "angar": 5839, "oken": 5840, "\u0120Var": 5841, "\u0120Vol": 5842, "\u0120Vict": 5843, "\u0120Vert": 5844, "\u0120Vrani\u00c4\u0129": 5845, "osty": 5846, "ffer": 5847, "season": 5848, "teg": 5849, "\u0120polo": 5850, "\u0120abd": 5851, "\u0120shared": 5852, "\u0120Alam": 5853, "\u0120playoff": 5854, "\u012032": 5855, "\u0120appar": 5856, "\u0120applied": 5857, "\u0120attempt": 5858, "inders": 5859, "\u0120Anstey": 5860, "\u0120script": 5861, "\u0120recent": 5862, "\u012051": 5863, "\u012054": 5864, "roph": 5865, "forc": 5866, "\u0120Lee": 5867, "\u0120royal": 5868, "\u012043": 5869, "\u012048": 5870, "\u0120actions": 5871, "\u0120actually": 5872, "\u0120color": 5873, "\u0120Zur": 5874, "\u0120environment": 5875, "\u0120prepar": 5876, "\u0120knew": 5877, "\u0120Common": 5878, "play": 5879, "\u01201945": 5880, "\u0120houses": 5881, "\u0120undergraduate": 5882, "\u0120releg": 5883, "\u0120Spain": 5884, "\u0120Spring": 5885, "\u0120Special": 5886, "\u0120foundation": 5887, "\u0120numerous": 5888, "\u0120Proble": 5889, "\u01201964": 5890, "\u01201967": 5891, "\u01201935": 5892, "\u0120assigned": 5893, "phas": 5894, "\u0120calls": 5895, "\u0120entrepreneur": 5896, "\u0120invent": 5897, "\u0120Atlant": 5898, "\u0120direction": 5899, "\u00c3\u00a1lyi": 5900, "\u0120musicians": 5901, "\u0120Olympic": 5902, "\u0120article": 5903, "\u0120quick": 5904, "\u0120quality": 5905, "\u0120\u00e2\u0122\u0136": 5906, "\u0120Austrian": 5907, "\u0120Plan": 5908, "\u0120Mayor": 5909, "ennon": 5910, "\u0120remain": 5911, "\u0120appears": 5912, "otti": 5913, "\u0120flag": 5914, "\u0120transition": 5915, "\u0120organis": 5916, "\u0120laid": 5917, "\u0120announc": 5918, "\u0120Guard": 5919, "\u0120driving": 5920, "\u0120struck": 5921, "\u0120emphas": 5922, "\u0120Minor": 5923, "\u0120Among": 5924, "\u0120Amritsar": 5925, "\u0120Amtmann": 5926, "orpor": 5927, "\u0120Edg": 5928, "\u0120joining": 5929, "\u0120Manuel": 5930, "\u0120demands": 5931, "\u0120politicians": 5932, "\u00e2\u0122\u013f,": 5933, "\u00e2\u0122\u013f.": 5934, "\u0120villages": 5935, "\u0120symb": 5936, "\u0120communities": 5937, "\u0120showed": 5938, "\u0120models": 5939, "\u0120laws": 5940, "\u0120Deleg": 5941, "\u0120issue": 5942, "\u0120nomination": 5943, "\u0120northwest": 5944, "autiful": 5945, "\u0120Coast": 5946, "ographic": 5947, "ographical": 5948, "\u0120merchant": 5949, "\u0120surfaced": 5950, "\u0120distance": 5951, "\u0120earning": 5952, "\u01201895": 5953, "uela": 5954, "\u0120propos": 5955, "\u0120characters": 5956, "\u0120effort": 5957, "\u0120produce": 5958, "\u0120funds": 5959, "\u0120funded": 5960, "\u0120shortly": 5961, "\u0120opportun": 5962, "\u0120Broad": 5963, "borough": 5964, "\u0120meetings": 5965, "\u0120Woodburn": 5966, "\u0120solid": 5967, "\u0120captured": 5968, "\u0120presence": 5969, "\u0120Defence": 5970, "\u0120Revival": 5971, "\u0120administration": 5972, "\u0120Holy": 5973, "\u0120affiliated": 5974, "\u0120Trans": 5975, "\u0120needed": 5976, "\u0120Provosty": 5977, "\u0120Serb": 5978, "\u0120crosses": 5979, "\u0120duo": 5980, "\u0120Naisten": 5981, "\u0120finishing": 5982, "\u0120Neag": 5983, "\u0120White": 5984, "\u0120returning": 5985, "\u0120Netherlands": 5986, "racted": 5987, "\u0120widely": 5988, "\u0120cases": 5989, "\u0120Budaun": 5990, "\u0120Budapest": 5991, "\u0120individual": 5992, "\u0120Akkayn": 5993, "\u0120valley": 5994, "\u0120Stafford": 5995, "\u0120squad": 5996, "\u0120Doctor": 5997, "\u0120motorcy": 5998, "\u0120collaboration": 5999, "\u0120silver": 6000, "\u0120super": 6001, "\u0120Corps": 6002, "\u0120particularly": 6003, "\u0120scientific": 6004, "\u0120Mkrtchyan": 6005, "\u0120institutions": 6006, "\u0120powered": 6007, "\u0120highest": 6008, "\u0120separate": 6009, "\u0120Andrade": 6010, "\u0120scholar": 6011, "\u0120frequ": 6012, "agogue": 6013, "\u0120Leader": 6014, "\u0120broadcast": 6015, "\u0120Houthi": 6016, "\u0120Ballet": 6017, "\u0120Strategic": 6018, "\u0120Islamic": 6019, "inema": 6020, "\u0120Korean": 6021, "\u0120Pierre": 6022, "\u0120Basel": 6023, "\u0120Girls": 6024, "Second": 6025, "\u0120Ratabon": 6026, "\u0120Wildlife": 6027, "\u0120withdra": 6028, "claimed": 6029, "\u0120Zionist": 6030, "\u0120Attorney": 6031, "\u0120academic": 6032, "\u0120mentioned": 6033, "\u0120Stephen": 6034, "\u0120Albums": 6035, "\u0120Piekut": 6036, "Roches": 6037, "\u0120Saskat": 6038, "\u0120Iowa": 6039, "\u0120Pradesh": 6040, "\u0120Nasz\u00c3\u00a1lyi": 6041, "ogamichiche": 6042, "\u0120Akkaynak": 6043, "!\"": 6044, "\";": 6045, "\").": 6046, "//": 6047, "22": 6048, "23": 6049, "33": 6050, "58": 6051, "://": 6052, "Amer": 6053, "Band": 6054, "CH": 6055, "Don": 6056, "Gr": 6057, "Gu": 6058, "Lunch": 6059, "MS": 6060, "New": 6061, "OS": 6062, "Page": 6063, "Sh": 6064, "WF": 6065, "bes": 6066, "bers": 6067, "brew": 6068, "box": 6069, "ca": 6070, "cour": 6071, "dis": 6072, "een": 6073, "ease": 6074, "found": 6075, "government": 6076, "greg": 6077, "iade": 6078, "jo": 6079, "kk": 6080, "kin": 6081, "ker": 6082, "lal": 6083, "lic": 6084, "mon": 6085, "moy": 6086, "ni": 6087, "oe": 6088, "pao": 6089, "racy": 6090, "sm": 6091, "sac": 6092, "src": 6093, "titude": 6094, "tainment": 6095, "uv": 6096, "via": 6097, "ware": 6098, "wick": 6099, "zo": 6100, "\u00c5\u0128": 6101, "\u00d0\u00b2": 6102, "\u00d0\u00ba": 6103, "\u00d0\u00bd": 6104, "\u0120;": 6105, "\u0120i": 6106, "\u0120ur": 6107, "\u0120tun": 6108, "\u0120tie": 6109, "\u0120tax": 6110, "\u0120testing": 6111, "\u0120temporary": 6112, "\u0120avi": 6113, "inity": 6114, "erted": 6115, "\u0120theat": 6116, "orre": 6117, "ores": 6118, "orces": 6119, "\u0120wor": 6120, "\u0120wing": 6121, "\u0120wear": 6122, "ancy": 6123, "ato": 6124, "atures": 6125, "\u0120subl": 6126, "\u0120soccer": 6127, "\u0120saved": 6128, "\u0120sometimes": 6129, "isa": 6130, "rell": 6131, "align": 6132, "\u0120inaug": 6133, "ita": 6134, "itled": 6135, "\u0120figh": 6136, "\u0120farm": 6137, "\u0120felt": 6138, "asp": 6139, "\u0120cut": 6140, "\u0120bad": 6141, "\u0120bur": 6142, "\u0120bant": 6143, "\u0120billion": 6144, "icro": 6145, "\u0120pil": 6146, "\u0120path": 6147, "\u0120Sar": 6148, "oubi": 6149, "omes": 6150, "\u0120mill": 6151, "\u0120murd": 6152, "\u0120makes": 6153, "\u0120morning": 6154, "lech": 6155, "level": 6156, "\u0120Tet": 6157, "\u0120Tong": 6158, "\u0120Tenness": 6159, "\u0120Author": 6160, "\u0120ded": 6161, "\u0120den": 6162, "\u0120dimin": 6163, "\u0120daily": 6164, "\u0120Cur": 6165, "\u0120Cab": 6166, "\u0120Circ": 6167, "\u0120hab": 6168, "\u0120htt": 6169, "amweight": 6170, "\u0120Mam": 6171, "\u0120Mel": 6172, "\u0120Many": 6173, "\u0120Mike": 6174, "\u0120reject": 6175, "\u0120Hu": 6176, "ado": 6177, "adr": 6178, "aco": 6179, "aculty": 6180, "\u0120Theater": 6181, "\u0120Bec": 6182, "\u0120Bet": 6183, "\u0120Bul": 6184, "\u0120Bens": 6185, "\u0120Brist": 6186, "\u0120Bunch": 6187, "\u0120Boys": 6188, "\u0120BBC": 6189, "\u0120Baptist": 6190, "\u0120Dale": 6191, "\u0120Dmit": 6192, "\u0120nom": 6193, "\u0120nob": 6194, "tertainment": 6195, "\u0120forest": 6196, "\u0120eighth": 6197, "lyn": 6198, "ida": 6199, "\u0120Ric": 6200, "\u0120Rais": 6201, "\u0120Racing": 6202, "\u0120heart": 6203, "\u0120hearing": 6204, "\u0120Lat": 6205, "\u0120Land": 6206, "\u0120Lew": 6207, "\u0120Loyal": 6208, "igation": 6209, "imir": 6210, "usse": 6211, "\u0120Far": 6212, "\u0120Frid": 6213, "\u0120Fellow": 6214, "\u0120Journ": 6215, "\u0120Jaff": 6216, "\u0120Go": 6217, "\u0120Gut": 6218, "\u0120Gib": 6219, "\u0120Governor": 6220, "unte": 6221, "\u0120Nash": 6222, "\u0120(,": 6223, "\u0120().": 6224, "\u0120gall": 6225, "\u0120gain": 6226, "\u0120gives": 6227, "ctic": 6228, "\u0120stock": 6229, "\u0120status": 6230, "\u0120Er": 6231, "\u0120Es": 6232, "\u0120Each": 6233, "\u0120Esc": 6234, "agu": 6235, "ager": 6236, "\u0120altitude": 6237, "osure": 6238, "umed": 6239, "riers": 6240, "riage": 6241, "ulated": 6242, "\u0120Ut": 6243, "ianw": 6244, "\u0120Kun": 6245, "\u0120Krist": 6246, "\u0120Intern": 6247, "\u0120commercial": 6248, "\u0120comedy": 6249, "aine": 6250, "\u0120prob": 6251, "\u0120prox": 6252, "\u0120proceed": 6253, "aked": 6254, "ubber": 6255, "illo": 6256, "illery": 6257, "\u0120items": 6258, "\u0120Station": 6259, "\u0120Stock": 6260, "\u0120Child": 6261, "\u0120Chair": 6262, "\u0120seg": 6263, "ovsk": 6264, "\u0120plans": 6265, "antly": 6266, "epSub": 6267, "aped": 6268, "quot": 6269, "\u0120examin": 6270, "\u0120leaving": 6271, "ounding": 6272, "ectives": 6273, "\u0120firing": 6274, "\u0120Yaz": 6275, "\u0120V\u00c3\u00a1": 6276, "\u0120Vij": 6277, "outimi": 6278, "acks": 6279, "ikai": 6280, "\u0120shel": 6281, "\u0120resc": 6282, "\u0120resolution": 6283, "\u0120reserve": 6284, "manipur": 6285, "\u0120parts": 6286, "\u0120offer": 6287, "\u0120above": 6288, "\u0120Maria": 6289, "ultane": 6290, "\u012036": 6291, "owned": 6292, "lets": 6293, "ipment": 6294, "weightlifter": 6295, "wealth": 6296, "\u0120contains": 6297, "\u0120disband": 6298, "fti": 6299, "fton": 6300, "\u0120Pars": 6301, "tershire": 6302, "\u0120outbreak": 6303, "ucts": 6304, "\u012056": 6305, "ropolitan": 6306, "\u0120Leban": 6307, "\u0120Leikai": 6308, "onsec": 6309, "\u0120Entertainment": 6310, "\u0120colony": 6311, "\u0120Zab": 6312, "\u0120enough": 6313, "\u0120preliminary": 6314, "\u0120prin": 6315, "\u0120prime": 6316, "197": 6317, "\u00e2\u0122\u013b,": 6318, "spec": 6319, "\u0120Spe": 6320, "\u01201925": 6321, "lib": 6322, "\u01201962": 6323, "\u01201939": 6324, "anka": 6325, "\u0120Arabian": 6326, "urrently": 6327, "\u0120System": 6328, "\u0120Forestry": 6329, "inner": 6330, "\u0120entry": 6331, "stronom": 6332, "\u0120Junction": 6333, "\u00c3\u00a1s": 6334, "kee": 6335, "\u0120defense": 6336, "\u0120marched": 6337, "\u0120door": 6338, "\u0120800": 6339, "\u0120representation": 6340, "\u0120Planning": 6341, "fessional": 6342, "\u0120rap": 6343, "\u0120Hispan": 6344, "\u0120mathematics": 6345, "\u0120remaining": 6346, "\u0120Phys": 6347, "\u0120ownership": 6348, "\u0120Prim": 6349, "\u01201913": 6350, "\u0120expanded": 6351, "\u0120trade": 6352, "\u0120Portage": 6353, "\u0120organized": 6354, "\u0120feature": 6355, "\u0120records": 6356, "\u0120operating": 6357, "\u0120depth": 6358, "\u0120broken": 6359, "\u0120continues": 6360, "aukee": 6361, "\u0120...": 6362, "\u0120struct": 6363, "\u0120structure": 6364, "\u0120backdoor": 6365, "\u0120guests": 6366, "\u0120guilty": 6367, "uki": 6368, "\u0120engines": 6369, "\u0120soft": 6370, "\u0120Reading": 6371, "\u0120anyone": 6372, "\u0120presents": 6373, "\u0120worldwide": 6374, "fordshire": 6375, "\u0120Debor": 6376, "\u0120Development": 6377, "\u0120Educational": 6378, "\u0120Yemeni": 6379, "\u0120Palace": 6380, "\u0120condition": 6381, "\u0120completely": 6382, "\u0120passes": 6383, "\u0120Schomm": 6384, "\u0120restoration": 6385, "\u0120Alliance": 6386, "\u0120intens": 6387, "\u0120Malta": 6388, "\u0120Household": 6389, "\u0120distributed": 6390, "\u01201890": 6391, "\u0120participation": 6392, "\u0120advanced": 6393, "\u0120Castro": 6394, "\u0120Eliz": 6395, "ariat": 6396, "\u0120proposed": 6397, "\u0120youngest": 6398, "\u0120efforts": 6399, "\u0120justice": 6400, "sylvan": 6401, "\u0120myster": 6402, "\u0120amongst": 6403, "\u0120identity": 6404, "\u0120simultane": 6405, "\u0120extra": 6406, "\u0120investigate": 6407, "mi\u00c5\u0128": 6408, "\u0120Singh": 6409, "\u0120Airport": 6410, "\u0120Previous": 6411, "\u0120letters": 6412, "\u0120historian": 6413, "burgh": 6414, "\u0120preserved": 6415, "\u0120Teacher": 6416, "\u0120Battalion": 6417, "\u0120Barb": 6418, "\u0120engineering": 6419, "know": 6420, "\u0120Mufti": 6421, "\u0120priest": 6422, "\u0120holding": 6423, "\u0120honour": 6424, "\u0120assistance": 6425, "\u0120Palestinian": 6426, "\u0120rebell": 6427, "\u0120Prize": 6428, "\u0120culture": 6429, "\u0120commissioned": 6430, "\u0120initial": 6431, "\u0120initially": 6432, "\u0120influen": 6433, "\u0120Kurds": 6434, "chers": 6435, "\u0120weapon": 6436, "\u0120importance": 6437, "\u0120expressed": 6438, "\u0120explosion": 6439, "raclit": 6440, "\u0120targets": 6441, "\u0120capable": 6442, "\u0120Idlib": 6443, "\u0120collections": 6444, "\u0120prisoners": 6445, "\u0120automatically": 6446, "\u0120Copa": 6447, "\u0120equipment": 6448, "\u0120criticized": 6449, "\u0120approx": 6450, "\u0120Tayside": 6451, "\u0120Taylor": 6452, "STIM": 6453, "\u0120curler": 6454, "\u0120Survey": 6455, "\u0120Fermoy": 6456, "\u0120Ukraine": 6457, "\u0120Keithel": 6458, "\u0120keeping": 6459, "\u0120entirely": 6460, "Thangjing": 6461, "\u0120silent": 6462, "\u0120Bachelor": 6463, "\u0120Renoir": 6464, "\u0120arranged": 6465, "\u0120occasions": 6466, "\u0120\u00c5\u012e": 6467, "\u0120Desande": 6468, "\u0120Jonoubi": 6469, "zhong": 6470, "\u0120Masters": 6471, "\u0120Boris": 6472, "\u0120suffered": 6473, "\u0120higher": 6474, "\u0120sexual": 6475, "\u0120Tunis": 6476, "\u0120grounds": 6477, "\u0120Chicago": 6478, "\u0120Chicoutimi": 6479, "\u0120tributary": 6480, "\u0120inspired": 6481, "\u0120Garrett": 6482, "\u0120improved": 6483, "ographer": 6484, "\u0120summoned": 6485, "\u00c4\u012fevi\u00c4\u0129": 6486, "\u0120punish": 6487, "\u0120thousands": 6488, "\u0120etc": 6489, "\u0120determin": 6490, "\u0120Stanley": 6491, "\u0120Universiade": 6492, "\u0120consultant": 6493, "\u00c5\u00abmi\u00c5\u0128": 6494, "\u0120wooden": 6495, "\u0120Pennsylvan": 6496, "\u0120assignments": 6497, "Extract": 6498, "\u0120diplomatic": 6499, "\u0120Makee": 6500, "\u0120risk": 6501, "\u0120attempts": 6502, "\u0120Commissar": 6503, "\u0120Tehran": 6504, "respond": 6505, "\u0120adopted": 6506, "\u0120preceding": 6507, "\u0120Engineering": 6508, "\u0120Historic": 6509, "Ebuthou": 6510, "\u0120couple": 6511, "\u0120maximum": 6512, "\u0120IBM": 6513, "\u0120Kr\u00c5\u00abmi\u00c5\u0128": 6514, "\u0120universities": 6515, "\u0120Anthony": 6516, "\u0120dismiss": 6517, "\u0120Carlos": 6518, "\u0120picture": 6519, "\u0120Alder": 6520, "\u0120narrative": 6521, "\u0120Econom": 6522, "\u0120K\u00c3\u00a9nogamichiche": 6523, "\u00d7\u0137\u00d7": 6524, "\u0120hydro": 6525, "\u0120HESTIM": 6526, "\u0120Dubai": 6527, "\u0120athlete": 6528, "elligence": 6529, "forcement": 6530, "\u0120Commonwealth": 6531, "American": 6532, "PageExtract": 6533, "\u0120bantamweight": 6534, "\u0120Tennessee": 6535, "\u0120http": 6536, "\u0120Bristol": 6537, "\u0120Friday": 6538, "\u0120Nashville": 6539, "epSubPageExtract": 6540, "\u0120Yazidi": 6541, "\u0120Deborah": 6542, "\u0120Schommers": 6543, "\u0120Pennsylvania": 6544, "\u0120Kr\u00c5\u00abmi\u00c5\u0128\u00c5\u00a1": 6545, "epSubPageExtractor": 6546, "\"|": 6547, "09": 6548, "100": 6549, "35": 6550, "45": 6551, "500": 6552, "90": 6553, "AT": 6554, "Con": 6555, "DT": 6556, "EP": 6557, "ES": 6558, "La": 6559, "Lloyd": 6560, "No": 6561, "OM": 6562, "Pass": 6563, "Que": 6564, "VF": 6565, "aid": 6566, "bre": 6567, "bra": 6568, "bast": 6569, "bank": 6570, "care": 6571, "eo": 6572, "eer": 6573, "eor": 6574, "fit": 6575, "fort": 6576, "foot": 6577, "hur": 6578, "ients": 6579, "ienced": 6580, "jer": 6581, "jeno": 6582, "km": 6583, "kott": 6584, "lies": 6585, "lins": 6586, "linder": 6587, "noon": 6588, "ois": 6589, "rum": 6590, "rast": 6591, "rical": 6592, "rimin": 6593, "sor": 6594, "tty": 6595, "uro": 6596, "uzz": 6597, "vine": 6598, "xin": 6599, "\u00c3\u00a7": 6600, "\u00c3\u00b4": 6601, "\u00d1\u0124": 6602, "\u00d7\u013b": 6603, "\u012a\u0134": 6604, "\u0120tort": 6605, "\u0120tear": 6606, "\u0120tied": 6607, "\u0120tree": 6608, "\u0120takes": 6609, "\u0120touch": 6610, "\u0120temper": 6611, "\u0120aud": 6612, "ination": 6613, "inct": 6614, "\u0120theater": 6615, "orus": 6616, "eni": 6617, "\u0120worth": 6618, "\u0120western": 6619, "atur": 6620, "atio": 6621, "\u0120sal": 6622, "\u0120say": 6623, "\u0120sect": 6624, "\u0120sust": 6625, "\u0120save": 6626, "\u0120search": 6627, "\u0120sailing": 6628, "ishes": 6629, "rec": 6630, "aro": 6631, "alg": 6632, "alam": 6633, "\u0120inters": 6634, "\u0120inform": 6635, "itants": 6636, "\u0120fict": 6637, "\u0120fake": 6638, "\u0120fix": 6639, "\u0120favor": 6640, "asa": 6641, "asters": 6642, "asium": 6643, "\u0120cy": 6644, "\u0120card": 6645, "\u0120cust": 6646, "\u0120cold": 6647, "\u0120cann": 6648, "\u0120cities": 6649, "\u0120cash": 6650, "\u0120caught": 6651, "\u0120code": 6652, "\u0120counter": 6653, "\u0120bal": 6654, "\u0120bill": 6655, "icy": 6656, "icit": 6657, "\u0120ple": 6658, "\u0120pages": 6659, "\u0120SA": 6660, "\u0120Si": 6661, "\u0120Sn": 6662, "\u0120Sri": 6663, "\u0120Sult": 6664, "\u0120Six": 6665, "\u0120Sett": 6666, "\u0120tot": 6667, "omor": 6668, "\u0120mall": 6669, "\u0120must": 6670, "\u0120male": 6671, "\u0120mech": 6672, "\u0120Ty": 6673, "\u0120Tin": 6674, "\u0120Tad": 6675, "\u0120Trop": 6676, "\u0120Troy": 6677, "\u0120Aqu": 6678, "\u0120dress": 6679, "\u0120dimens": 6680, "\u0120Call": 6681, "\u0120Cell": 6682, "\u0120Cric": 6683, "\u0120Chile": 6684, "\u0120hy": 6685, "\u0120hired": 6686, "iland": 6687, "ilies": 6688, "ilio": 6689, "\u0120MP": 6690, "\u0120Mer": 6691, "\u0120Maj": 6692, "\u0120M\u00c3\u00a1": 6693, "\u0120Maur": 6694, "\u0120rear": 6695, "\u0120restr": 6696, "\u0120reform": 6697, "\u0120reality": 6698, "oln": 6699, "olved": 6700, "stan": 6701, "elly": 6702, "elve": 6703, "elsh": 6704, "elco": 6705, "\u0120If": 6706, "\u0120PA": 6707, "\u0120Pin": 6708, "\u0120Pac": 6709, "\u0120Prom": 6710, "\u0120Pere": 6711, "\u0120Pash": 6712, "\u0120Poz": 6713, "\u0120PST": 6714, "acc": 6715, "acement": 6716, "iva": 6717, "ivas": 6718, "ivated": 6719, "\u0120lay": 6720, "\u0120lab": 6721, "\u0120loss": 6722, "\u0120lakes": 6723, "ecrated": 6724, "\u0120Then": 6725, "iring": 6726, "\u0120Bak": 6727, "\u0120Bost": 6728, "\u0120Bah": 6729, "\u0120B\u00c3\u00bc": 6730, "\u0120Det": 6731, "\u0120native": 6732, "\u0120thin": 6733, "\u0120thir": 6734, "\u0120forec": 6735, "otal": 6736, "otic": 6737, "\u0120Red": 6738, "\u0120Rac": 6739, "\u0120Rag": 6740, "\u0120Round": 6741, "\u0120Riche": 6742, "ettle": 6743, "\u0120Ley": 6744, "\u0120Liver": 6745, "uting": 6746, "util": 6747, "uties": 6748, "using": 6749, "\u0120Four": 6750, "\u0120Fact": 6751, "\u0120Father": 6752, "\u0120Fisher": 6753, "\u0120Festival": 6754, "\u0120Faculty": 6755, "\u0120Jall": 6756, "\u0120Gard": 6757, "\u0120Gess": 6758, "church": 6759, "\u0120Nak": 6760, "\u0120Nations": 6761, "\u0120Nez": 6762, "\u0120Nicol": 6763, "\u0120ge": 6764, "istance": 6765, "\u0120Whe": 6766, "\u0120Wake": 6767, "\u0120Warn": 6768, "\u0120Woman": 6769, "\u0120Worces": 6770, "\u0120Welsh": 6771, "\u0120store": 6772, "\u0120stating": 6773, "\u0120standing": 6774, "tha": 6775, "owl": 6776, "\u0120beach": 6777, "\u0120EP": 6778, "\u0120Emer": 6779, "\u0120Eug": 6780, "\u0120Event": 6781, "\u0120Erik": 6782, "agues": 6783, "\u0120Ori": 6784, "\u0120Ocean": 6785, "\u0120anom": 6786, "\u0120anim": 6787, "\u0120alph": 6788, "heric": 6789, "osa": 6790, "osaur": 6791, "ume": 6792, "este": 6793, "estion": 6794, "occ": 6795, "ocate": 6796, "ocals": 6797, "rak": 6798, "\u0120consequ": 6799, "udden": 6800, "\u0120comics": 6801, "\u00e2\u0122\u013e": 6802, "\u0120Heves": 6803, "\u0120Hebrew": 6804, "operation": 6805, "oplan": 6806, "\u0120vocals": 6807, "avid": 6808, "avia": 6809, "\u0120proclaimed": 6810, "\u0120ru": 6811, "\u0120racing": 6812, "akia": 6813, "ubice": 6814, "iah": 6815, "odies": 6816, "abet": 6817, "\u0120chance": 6818, "\u0120chron": 6819, "\u0120channel": 6820, "\u0120Chlo": 6821, "\u0120Chris": 6822, "oussac": 6823, "enders": 6824, "quare": 6825, "\u0120complete": 6826, "\u0120exam": 6827, "\u0120execut": 6828, "asting": 6829, "ounds": 6830, "ranjeno": 6831, "ugar": 6832, "amps": 6833, "\u0120Yuen": 6834, "\u0120spect": 6835, "\u0120space": 6836, "\u0120speed": 6837, "\u0120your": 6838, "\u0120yards": 6839, "\u0120Ven": 6840, "\u0120unorgan": 6841, "\u0120Around": 6842, "\u0120Armed": 6843, "\u0120Araru": 6844, "\u0120whole": 6845, "ikovsk": 6846, "izing": 6847, "iversary": 6848, "\u0120resear": 6849, "\u0120resigned": 6850, "\u0120offensive": 6851, "\u0120abuse": 6852, "\u0120share": 6853, "\u0120shape": 6854, "\u0120Marie": 6855, "\u0120Marines": 6856, "\u0120agency": 6857, "perial": 6858, "\u0120becomes": 6859, "\u0120juven": 6860, "\u0120contained": 6861, "\u0120contested": 6862, "\u0120contemporary": 6863, "\u0120scoring": 6864, "\u0120recru": 6865, "\u0120weight": 6866, "\u0120Paragu": 6867, "\u0120secret": 6868, "brini": 6869, "\u012052": 6870, "\u0120500": 6871, "ropshire": 6872, "urning": 6873, "\u0120financial": 6874, "\u0120regime": 6875, "\u01201954": 6876, "\u0120Environment": 6877, "\u0120colleg": 6878, "\u0120Collins": 6879, "exp": 6880, "\u0120Zag": 6881, "\u0120Zomor": 6882, "ooker": 6883, "\u0120enjoy": 6884, "\u0120Jane": 6885, "\u0120prem": 6886, "\u0120Commander": 6887, "\u0120image": 6888, "\u0120impr": 6889, "196": 6890, "\u0120Independ": 6891, "\u0120underst": 6892, "\u0120understanding": 6893, "atherweight": 6894, "\u0120buy": 6895, "\u0120Sport": 6896, "ajun": 6897, "\u0120Shropshire": 6898, "\u0120Proton": 6899, "\u01201931": 6900, "\u01201933": 6901, "\u0120assembly": 6902, "\u0120Syl": 6903, "\u0120Form": 6904, "\u0120indirect": 6905, "\u0120indicated": 6906, "\u0120families": 6907, "\u0120numbered": 6908, "\u0120someone": 6909, "\u0120supplied": 6910, "efan": 6911, "\u0120consecutive": 6912, "\u0120artwork": 6913, "\u0120serial": 6914, "\u0120Conn": 6915, "\u0120Convention": 6916, "\u0120interested": 6917, "\u0120dozen": 6918, "\u012070": 6919, "\u0120representatives": 6920, "cylinder": 6921, "\u0120edge": 6922, "\u0120attackers": 6923, "\u0120rain": 6924, "\u0120Regina": 6925, "\u0120Saud": 6926, "\u01201914": 6927, "shmi": 6928, "\u0120expected": 6929, "\u0120amb": 6930, "\u0120amount": 6931, "\u0120trust": 6932, "\u0120starts": 6933, "ertation": 6934, "\u0120confront": 6935, "\u0120150": 6936, "\u0120developing": 6937, "\u0120minute": 6938, "\u0120Guang": 6939, "\u0120Democrats": 6940, "\u0120strugg": 6941, "\u0120describing": 6942, "\u0120terms": 6943, "\u0120killing": 6944, "\u0120refers": 6945, "uka": 6946, "\u0120appoint": 6947, "\u0120lasted": 6948, "\u0120Sebast": 6949, "\u0120discour": 6950, "\u0120engaged": 6951, "\u0120survey": 6952, "\u0120resulting": 6953, "\u0120incumbent": 6954, "\u0120crime": 6955, "\u0120Computer": 6956, "\u0120\u00d0\u00bb": 6957, "\u0120\u00d0\u00bf": 6958, "\u0120posts": 6959, "ething": 6960, "\u0120Christchurch": 6961, "tienne": 6962, "\u0120classic": 6963, "\u0120Peace": 6964, "\u0120Peters": 6965, "rington": 6966, "rolled": 6967, "\u0120experienced": 6968, "\u0120merges": 6969, "\u0120handling": 6970, "\u0120disturb": 6971, "\u0120Irvine": 6972, "\u0120\u00c2\u00b0": 6973, "\u0120Musik": 6974, "\u0120brothers": 6975, "\u0120marked": 6976, "\u0120Agu": 6977, "\u0120Agency": 6978, "\u0120personnel": 6979, "\u0120elder": 6980, "\u0120businessman": 6981, "\u0120poems": 6982, "\u0120daughters": 6983, "\u0120voter": 6984, "\u00c3\u00bcn": 6985, "sycho": 6986, "\u0120Harold": 6987, "\u0120Courtney": 6988, "\u0120visitor": 6989, "\u0120causes": 6990, "\u0120largely": 6991, "\u0120Davis": 6992, "\u0120behalf": 6993, "\u0120properties": 6994, "\u0120focused": 6995, "aboratory": 6996, "onymous": 6997, "mingham": 6998, "\u0120capture": 6999, "\u0120Batelco": 7000, "\u0120Graz": 7001, "\u0120evening": 7002, "\u0120consider": 7003, "\u0120battle": 7004, "\u0120Flinders": 7005, "\u0120sworn": 7006, "\u0120Holmes": 7007, "\u0120Week": 7008, "\u0120situated": 7009, "\u0120balloons": 7010, "\u0120patron": 7011, "\u0120reading": 7012, "\u0120affected": 7013, "\u0120everyone": 7014, "\u0120controlled": 7015, "ouda": 7016, "\u0120Prix": 7017, "\u0120Prior": 7018, "\u0120exhibitions": 7019, "\u0120portr": 7020, "\u0120Daniel": 7021, "\u0120safety": 7022, "\u0120Filmfare": 7023, "\u0120teachers": 7024, "\u0120explosives": 7025, "going": 7026, "waren": 7027, "\u0120Patric": 7028, "\u0120policies": 7029, "\u0120avoid": 7030, "\u0120correspond": 7031, "\u0120Tammy": 7032, "\u0120newspapers": 7033, "\u0120Administrator": 7034, "\u0120winner": 7035, "\u0120featherweight": 7036, "\u0120glass": 7037, "\u0120glob": 7038, "rikes": 7039, "avalry": 7040, "\u0120associate": 7041, "professional": 7042, "\u0120homeless": 7043, "\u0120planning": 7044, "\u0120type": 7045, "\u0120shift": 7046, "\u0120History": 7047, "\u0120Romanian": 7048, "\u0120allegations": 7049, "\u0120regarded": 7050, "\u0120regarding": 7051, "\u0120painting": 7052, "\u0120missing": 7053, "\u0120Toronto": 7054, "\u0120Morey": 7055, "\u0120healthcare": 7056, "\u0120submarines": 7057, "\u0120occasionally": 7058, "\u0120journalist": 7059, "\u0120methods": 7060, "\u0120standard": 7061, "\u0120possible": 7062, "\u0120emerged": 7063, "\u0120ensure": 7064, "\u0120overseas": 7065, "\u0120Dargan": 7066, "\u0120Labour": 7067, "\u0120Kiram": 7068, "\u0120displaced": 7069, "\u0120blocked": 7070, "\u0120purp": 7071, "\u0120Southeast": 7072, "\u0120Federal": 7073, "\u0120Evans": 7074, "\u0120Voiland": 7075, "\u0120dissertation": 7076, "bsite": 7077, "\u0120achievement": 7078, "\u0120Ayres": 7079, "\u0120Burlington": 7080, "\u0120Duke": 7081, "\u0120girls": 7082, "\u0120Philippine": 7083, "ASA": 7084, "zzly": 7085, "\u0120\u00e2\u012a\u0134": 7086, "\u0120corner": 7087, "\u0120performing": 7088, "\u0120Belgian": 7089, "mnasium": 7090, "\u0120walked": 7091, "\u0120horse": 7092, "\u0120logistics": 7093, "\u0120example": 7094, "\u0120argued": 7095, "\u0120Zhang": 7096, "\u0120encounter": 7097, "\u0120Safed": 7098, "\u0120calm": 7099, "\u0120Holding": 7100, "\u0120Dunmore": 7101, "chaikovsk": 7102, "\u00c5\u0126ski": 7103, "edding": 7104, "\u0120pieces": 7105, "\u0120Chikk": 7106, "\u0120Chapter": 7107, "\u0120immigr": 7108, "\u0120Herefordshire": 7109, "\u0120Grizzly": 7110, "\u00c5\u00a1enje": 7111, "\u0120negoti": 7112, "isi\u00c3\u00b3n": 7113, "\u0120Tangany": 7114, "\u0120Birmingham": 7115, "\u0120Friedrich": 7116, "\u0120Marshall": 7117, "\u0120Colombian": 7118, "\u0120Douglas": 7119, "\u0120inhabitants": 7120, "\u0120Ilya": 7121, "\u0120Pardubice": 7122, "\u0120deployed": 7123, "\u0120Problem": 7124, "\u0120announcement": 7125, "\u0120Edgars": 7126, "\u0120Staffordshire": 7127, "\u0120withdraw": 7128, "Bandiera": 7129, "\u0120wearing": 7130, "\u0120inaugural": 7131, "\u0120Because": 7132, "\u0120Bensouda": 7133, "\u0120nomine": 7134, "\u0120Loyalist": 7135, "\u0120Journal": 7136, "\u0120Jaffa": 7137, "\u0120Vijaya": 7138, "\u0120Zabranjeno": 7139, "\u0120Elizabeth": 7140, "\u0120influenced": 7141, "zhongjiang": 7142, "hurst": 7143, "kottur": 7144, "\u0120fictional": 7145, "\u0120Tadoussac": 7146, "\u0120Cricket": 7147, "\u0120Boston": 7148, "\u0120Richey": 7149, "\u0120Jallianw": 7150, "\u0120Nezha": 7151, "\u0120Worcestershire": 7152, "\u0120alphabet": 7153, "\u0120unorganized": 7154, "\u0120Araruama": 7155, "\u0120Paraguay": 7156, "chaikovsky": 7157, "\u0120Chikkodi": 7158, "%),": 7159, "'m": 7160, "03": 7161, "29": 7162, "2000": 7163, "34": 7164, "38": 7165, "52": 7166, "82": 7167, "89": 7168, "AF": 7169, "As": 7170, "A\u00c3\u00a9": 7171, "DS": 7172, "Ger": 7173, "Id": 7174, "LL": 7175, "Ms": 7176, "PLA": 7177, "Psycho": 7178, "Ren": 7179, "Shi": 7180, "TC": 7181, "UN": 7182, "aq": 7183, "after": 7184, "aise": 7185, "bo": 7186, "bell": 7187, "bler": 7188, "bee": 7189, "do": 7190, "down": 7191, "dale": 7192, "eil": 7193, "east": 7194, "eased": 7195, "fire": 7196, "film": 7197, "father": 7198, "fiel": 7199, "feld": 7200, "gow": 7201, "hop": 7202, "horn": 7203, "haw": 7204, "haching": 7205, "iya": 7206, "j\u00c3\u00b6": 7207, "kar": 7208, "lad": 7209, "late": 7210, "lican": 7211, "mere": 7212, "member": 7213, "ners": 7214, "north": 7215, "pret": 7216, "polit": 7217, "pool": 7218, "since": 7219, "selling": 7220, "tese": 7221, "uent": 7222, "uff": 7223, "uential": 7224, "with": 7225, "wear": 7226, "while": 7227, "waukee": 7228, "yok": 7229, "yev": 7230, "zi": 7231, "zu": 7232, "zim": 7233, "zens": 7234, "\u00c5\u00bc": 7235, "\u00d1\u0123": 7236, "\u0120)": 7237, "\u0120u": 7238, "\u0120ir": 7239, "\u0120ties": 7240, "\u0120trou": 7241, "\u0120tail": 7242, "\u0120tank": 7243, "\u0120tier": 7244, "hess": 7245, "\u0120aer": 7246, "\u0120auth": 7247, "\u0120aired": 7248, "\u0120awaren": 7249, "inas": 7250, "inet": 7251, "onents": 7252, "eded": 7253, "edge": 7254, "orms": 7255, "enidae": 7256, "\u0120wel": 7257, "\u0120wick": 7258, "\u0120words": 7259, "\u0120witness": 7260, "\u0120wedding": 7261, "anal": 7262, "anpur": 7263, "ataka": 7264, "\u0120source": 7265, "\u0120says": 7266, "\u0120selling": 7267, "\u0120size": 7268, "\u0120opin": 7269, "isf": 7270, "reb": 7271, "ref": 7272, "reater": 7273, "arity": 7274, "arant": 7275, "aler": 7276, "\u0120inquiry": 7277, "itals": 7278, "\u0120fan": 7279, "\u0120fit": 7280, "\u0120fest": 7281, "\u0120flower": 7282, "\u0120f\u00c3\u00bcr": 7283, "asy": 7284, "asion": 7285, "ashed": 7286, "asme": 7287, "asmine": 7288, "asgow": 7289, "\u0120cards": 7290, "\u0120cartel": 7291, "\u0120clean": 7292, "esch": 7293, "\u0120bid": 7294, "\u0120big": 7295, "\u0120bell": 7296, "\u0120boys": 7297, "\u0120branch": 7298, "\u0120bigg": 7299, "\u0120bodies": 7300, "ichi": 7301, "icient": 7302, "\u0120pap": 7303, "\u0120pick": 7304, "\u0120Sou": 7305, "\u0120Sav": 7306, "\u0120Sex": 7307, "\u0120Soci": 7308, "\u0120Sev": 7309, "\u0120Szent": 7310, "\u0120toll": 7311, "\u0120moth": 7312, "\u0120males": 7313, "left": 7314, "league": 7315, "\u0120Tre": 7316, "\u0120Tim": 7317, "\u0120Tob": 7318, "\u0120Tchaikovsky": 7319, "\u0120Astronom": 7320, "\u0120drop": 7321, "\u0120domin": 7322, "\u0120diving": 7323, "\u0120CB": 7324, "\u0120Corn": 7325, "\u0120Celebr": 7326, "\u0120CSX": 7327, "\u0120Creek": 7328, "\u0120Cajun": 7329, "\u0120hour": 7330, "\u0120hair": 7331, "illeg": 7332, "amal": 7333, "amah": 7334, "\u0120Mr": 7335, "\u0120Mes": 7336, "\u0120Mur": 7337, "\u0120Mest": 7338, "\u0120Mang": 7339, "\u0120Mund": 7340, "\u0120Mach": 7341, "\u0120Mikh": 7342, "olis": 7343, "olph": 7344, "stra": 7345, "stein": 7346, "\u0120Hel": 7347, "\u0120Had": 7348, "\u0120Hans": 7349, "\u0120Hana": 7350, "\u0120Having": 7351, "rost": 7352, "adt": 7353, "adal": 7354, "\u0120Ped": 7355, "\u0120Pres": 7356, "\u0120Pook": 7357, "\u0120Point": 7358, "acent": 7359, "acional": 7360, "acier": 7361, "ivity": 7362, "\u0120lor": 7363, "\u0120online": 7364, "emeter": 7365, "embrini": 7366, "\u0120Bi": 7367, "\u0120Beng": 7368, "\u0120Blo": 7369, "\u0120Box": 7370, "\u0120Basketball": 7371, "\u0120Bush": 7372, "\u0120Billy": 7373, "\u0120Down": 7374, "\u0120Dann": 7375, "\u0120Daly": 7376, "\u0120Daugh": 7377, "\u0120Dyer": 7378, "\u0120isol": 7379, "otis": 7380, "otten": 7381, "iders": 7382, "idden": 7383, "\u0120Ry": 7384, "\u0120Rund": 7385, "\u0120Rob": 7386, "\u0120Ruth": 7387, "\u0120Roth": 7388, "etr": 7389, "\u0120Lt": 7390, "\u0120Las": 7391, "\u0120Lions": 7392, "\u0120Laz": 7393, "\u0120Living": 7394, "\u0120Linc": 7395, "\u0120Lotan": 7396, "igi": 7397, "ayer": 7398, "ayat": 7399, "ayalam": 7400, "uto": 7401, "uted": 7402, "utor": 7403, "\u0120Food": 7404, "\u0120Fier": 7405, "\u0120Further": 7406, "\u0120Front": 7407, "\u0120Future": 7408, "\u0120Jack": 7409, "\u0120Judge": 7410, "\u0120JDT": 7411, "\u0120Get": 7412, "\u0120Gab": 7413, "\u0120Gilm": 7414, "\u0120Gron": 7415, "\u0120Greg": 7416, "chayat": 7417, "ersh": 7418, "\u0120Num": 7419, "\u0120Night": 7420, "\u0120Neg": 7421, "\u0120Nob": 7422, "\u0120Nev": 7423, "\u0120(-": 7424, "\u0120(),": 7425, "\u0120gone": 7426, "\u0120giving": 7427, "\u0120gross": 7428, "\u0120governor": 7429, "\u0120WW": 7430, "\u0120Water": 7431, "andar": 7432, "andhi": 7433, "\u0120stri": 7434, "\u0120stood": 7435, "\u0120stadium": 7436, "\u0120storm": 7437, "\u0120beam": 7438, "berhaching": 7439, "\u0120Ele": 7440, "agan": 7441, "\u0120Ok": 7442, "\u0120Oric": 7443, "osis": 7444, "riz": 7445, "verted": 7446, "ulum": 7447, "ulate": 7448, "ocol": 7449, "raph": 7450, "\u0120Ub": 7451, "\u0120Us": 7452, "\u0120Upper": 7453, "\u0120UVF": 7454, "\u0120Karn": 7455, "\u0120KBO": 7456, "\u0120Kovo": 7457, "\u0120KMs": 7458, "\u0120Int": 7459, "\u0120comment": 7460, "oph": 7461, "\u0120vess": 7462, "avior": 7463, "\u0120pros": 7464, "\u0120rue": 7465, "\u0120rural": 7466, "\u0120rule": 7467, "aks": 7468, "illes": 7469, "illing": 7470, "iable": 7471, "oded": 7472, "abl": 7473, "abric": 7474, "abled": 7475, "ablish": 7476, "\u0120chall": 7477, "\u0120chant": 7478, "\u0120choral": 7479, "\u0120Stew": 7480, "erevan": 7481, "\u0120seized": 7482, "\u0120sevent": 7483, "\u0120seems": 7484, "overs": 7485, "endent": 7486, "elli": 7487, "aph": 7488, "apted": 7489, "\u0120compil": 7490, "\u0120compound": 7491, "\u0120exoplan": 7492, "clair": 7493, "\u0120Until": 7494, "rance": 7495, "\u0120Yasme": 7496, "\u0120Yerevan": 7497, "uchess": 7498, "\u0120split": 7499, "angel": 7500, "\u0120Ver": 7501, "\u0120Vinc": 7502, "\u0120Viet": 7503, "\u0120unspec": 7504, "assador": 7505, "\u0120Shetty": 7506, "ikarim": 7507, "sex": 7508, "\u0120notice": 7509, "\u0120Three": 7510, "\u0120Thangjing": 7511, "\u01201837": 7512, "2018": 7513, "\u0120resources": 7514, "\u0120residence": 7515, "\u0120offering": 7516, "\u0120abolished": 7517, "\u0120shown": 7518, "\u0120Alan": 7519, "\u0120Albert": 7520, "\u0120admitted": 7521, "\u0120admiral": 7522, "\u0120Marine": 7523, "\u0120suit": 7524, "awa": 7525, "sson": 7526, "\u0120afternoon": 7527, "overy": 7528, "\u0120attorney": 7529, "\u0120attracted": 7530, "terns": 7531, "ensen": 7532, "\u0120disapp": 7533, "\u0120recip": 7534, "\u0120recomm": 7535, "ooting": 7536, "\u0120weather": 7537, "\u0120wealth": 7538, "bridge": 7539, "\u0120Sena": 7540, "\u0120overl": 7541, "\u012053": 7542, "mph": 7543, "\u0120Ener": 7544, "\u012044": 7545, "\u0120Collection": 7546, "\u0120Colonel": 7547, "\u01201972": 7548, "\u00c3\u00a9e": 7549, "\u00c3\u00a9bert": 7550, "action": 7551, "place": 7552, "\u0120imag": 7553, "\u0120allies": 7554, "spe": 7555, "\u0120competing": 7556, "\u0120founders": 7557, "anna": 7558, "annon": 7559, "\u0120permitted": 7560, "\u0120Sha": 7561, "\u01201961": 7562, "\u0120assumed": 7563, "\u012065": 7564, "\u0120Syn": 7565, "\u0120Former": 7566, "\u0120entitled": 7567, "chen": 7568, "ption": 7569, "ansion": 7570, "\u0120supplement": 7571, "\u0120175": 7572, "ledge": 7573, "\u0120receive": 7574, "\u00c3\u00a1nd": 7575, "\u00c3\u00a1il": 7576, "\u0120surpr": 7577, "\u0120musicologist": 7578, "\u0120Augustana": 7579, "othy": 7580, "othing": 7581, "\u0120qual": 7582, "\u0120Clin": 7583, "\u0120leads": 7584, "\u0120subs": 7585, "\u0120marriage": 7586, "\u0120Constitut": 7587, "\u0120interior": 7588, "\u0120intercepted": 7589, "\u0120intervention": 7590, "\u0120doing": 7591, "\u0120dozens": 7592, "\u0120therefore": 7593, "\u0120carrying": 7594, "\u0120Policy": 7595, "icks": 7596, "\u0120relatives": 7597, "\u0120Scient": 7598, "\u0120estate": 7599, "\u0120estuary": 7600, "\u0120Austin": 7601, "\u0120Austria": 7602, "\u0120editions": 7603, "\u0120proved": 7604, "\u0120Places": 7605, "\u0120Report": 7606, "ainting": 7607, "\u0120125": 7608, "enny": 7609, "\u0120meters": 7610, "\u0120medium": 7611, "\u0120Franz": 7612, "argo": 7613, "arged": 7614, "\u0120remove": 7615, "\u0120titles": 7616, "\u0120acres": 7617, "ottingham": 7618, "\u0120flo": 7619, "istered": 7620, "\u01201910": 7621, "\u01201915": 7622, "\u0120expansion": 7623, "\u0120true": 7624, "\u0120trigg": 7625, "\u0120courts": 7626, "\u0120134": 7627, "\u0120trained": 7628, "\u0120trailer": 7629, "\u0120operation": 7630, "\u0120visual": 7631, "\u0120ministry": 7632, "ospitals": 7633, "\u0120origins": 7634, "asks": 7635, "\u0120driven": 7636, "\u0120cancer": 7637, "\u0120occur": 7638, "insky": 7639, "\u0120goes": 7640, "\u0120goals": 7641, "\u0120districts": 7642, "\u0120protect": 7643, "\u0120activism": 7644, "\u0120smugg": 7645, "\u01201901": 7646, "\u01201909": 7647, "\u0120programmes": 7648, "umble": 7649, "irds": 7650, "\u0120exploded": 7651, "helm": 7652, "\u0120Indians": 7653, "comp": 7654, "\u0120Trude": 7655, "\u0120See": 7656, "\u0120Seas": 7657, "\u0120surviving": 7658, "\u0120resulted": 7659, "\u0120longer": 7660, "\u0120landed": 7661, "\u0120landsc": 7662, "\u0120Exper": 7663, "\u0120faculty": 7664, "\u0120claiming": 7665, "\u0120managing": 7666, "\u0120begun": 7667, "\u0120highlight": 7668, "yself": 7669, "\u0120lawyer": 7670, "\u0120helping": 7671, "\u0120classes": 7672, "\u01201880": 7673, "\u01201883": 7674, "\u01201886": 7675, "\u0120Beard": 7676, "afayette": 7677, "urday": 7678, "incet": 7679, "\u0120Sch\u00c3\u00b6n": 7680, "\u0120Maltese": 7681, "\u0120participants": 7682, "\u0120Agricultural": 7683, "\u0120younger": 7684, "\u0120personality": 7685, "\u0120factors": 7686, "\u0120chef": 7687, "\u0120cheese": 7688, "\u0120myth": 7689, "\u0120Harless": 7690, "ception": 7691, "\u0120ships": 7692, "\u0120Medal": 7693, "\u0120novels": 7694, "\u0120replacing": 7695, "\u0120critics": 7696, "\u0120Glasgow": 7697, "\u0120Wilhelm": 7698, "\u0120detail": 7699, "\u0120detective": 7700, "\u0120allows": 7701, "\u00c3\u0143n": 7702, "\u0120bombs": 7703, "\u0120historic": 7704, "\u0120Drug": 7705, "\u0120Review": 7706, "\u0120Grainger": 7707, "\u0120economy": 7708, "\u0120signal": 7709, "\u0120Flag": 7710, "\u0120Madjer": 7711, "\u0120Offic": 7712, "\u0120XI": 7713, "\u0120patterns": 7714, "uteau": 7715, "\u0120function": 7716, "\u0120winds": 7717, "\u0120castle": 7718, "\u0120demonstrators": 7719, "\u0120candidates": 7720, "\u0120illness": 7721, "\u0120Priy": 7722, "\u0120Sweden": 7723, "\u0120femin": 7724, "\u0120Dancer": 7725, "\u0120primarily": 7726, "\u0120initi": 7727, "\u0120influence": 7728, "\u0120doub": 7729, "\u0120doubles": 7730, "\u0120Superior": 7731, "\u0120skills": 7732, "\u0120Jacques": 7733, "\u0120Gray": 7734, "\u0120doctoral": 7735, "\u0120explosions": 7736, "\u0120Meudon": 7737, "\u0120Patri": 7738, "\u0120planet": 7739, "\u0120confluence": 7740, "\u0120believe": 7741, "\u0120episode": 7742, "\u0120Tamil": 7743, "\u0120Apost": 7744, "\u0120Cardinal": 7745, "\u0120value": 7746, "\u0120contribution": 7747, "\u0120strongest": 7748, "\u0120automatic": 7749, "\u0120torpedoed": 7750, "\u0120torpedoes": 7751, "\u0120basis": 7752, "\u0120divisional": 7753, "\u0120speech": 7754, "\u01201857": 7755, "\u0120square": 7756, "\u0120Brig": 7757, "\u01201803": 7758, "\u0120enlarged": 7759, "\u00c3\u00a1ny": 7760, "\u0120discussed": 7761, "ollah": 7762, "\u0120Keith": 7763, "\u0120lectures": 7764, "\u0120designated": 7765, "\u0120accessible": 7766, "\u0120successfully": 7767, "\u0120traditional": 7768, "\u0120soundtrack": 7769, "\u0120Mosque": 7770, "\u0120Hills": 7771, "\u0120Estefan": 7772, "\u0120convicted": 7773, "\u0120Karol": 7774, "\u0120ruling": 7775, "\u0120subjects": 7776, "\u0120Contin": 7777, "\u0120Abdikarim": 7778, "\u0120flows": 7779, "\u0120Alexander": 7780, "\u0120absence": 7781, "\u0120Zygaenidae": 7782, "\u0120possess": 7783, "III": 7784, "zhou": 7785, "\u0120suspected": 7786, "\u0120Rubber": 7787, "\u0120Rapids": 7788, "\u0120Kirch": 7789, "\u0120seeking": 7790, "\u0120Claude": 7791, "\u0120freshwater": 7792, "\u0120memory": 7793, "\u0120Dorrington": 7794, "\u0120evacuation": 7795, "\u0120Valen": 7796, "\u0120knowledge": 7797, "\u0120interviews": 7798, "\u0120increasing": 7799, "sychology": 7800, "\u0120targeted": 7801, "\u0120targeting": 7802, "\u0120scholars": 7803, "\u0120reasons": 7804, "\u0120Pu\u00c5\u00a1enje": 7805, "\u0120looked": 7806, "\u0120Windsor": 7807, "\u0120problem": 7808, "\u0120Philippines": 7809, "\u0120illustrations": 7810, "ycotis": 7811, "\u0120\u00e2\u0124": 7812, "\u0120Sochi": 7813, "\u0120Somalia": 7814, "\u0120maintain": 7815, "\u0120maintained": 7816, "\u0120Wolver": 7817, "\u0120vacant": 7818, "\u0120seeing": 7819, "\u0120armament": 7820, "\u0120committed": 7821, "\u0120improve": 7822, "\u0120communication": 7823, "\u0120internal": 7824, "\u0120corners": 7825, "\u0120municipality": 7826, "\u0120Aviv": 7827, "\u0120thousand": 7828, "\u0120streams": 7829, "\u0120Express": 7830, "\u0120briefly": 7831, "Reilly": 7832, "\u0120Gymnasium": 7833, "\u0120Wayne": 7834, "\u0120connected": 7835, "\u0120composer": 7836, "\u0120examples": 7837, "\u0120continuing": 7838, "\u0120peaceful": 7839, "remely": 7840, "\u0120Areas": 7841, "\u0120Balloon": 7842, "\u0120Barnard": 7843, "\u0120Barnby": 7844, "\u0120Liiga": 7845, "\u0120Argentine": 7846, "\u0120copies": 7847, "\u0120corps": 7848, "\u0120Mansfield": 7849, "\u0120liberal": 7850, "\u0120Books": 7851, "\u0120adjacent": 7852, "\u0120praised": 7853, "\u0120Susan": 7854, "\u0120RTE": 7855, "\u0120heavily": 7856, "\u0120atmosphere": 7857, "\u0120Margaret": 7858, "keeper": 7859, "\u0120Guerra": 7860, "\u0120constructor": 7861, "\u0120philosophy": 7862, "\u0120Songs": 7863, "\u0120Bernard": 7864, "\u0120Buckingham": 7865, "\u0120Associate": 7866, "\u0120traffick": 7867, "\u0120Malaysia": 7868, "\u0120Bosnian": 7869, "\u0120ultimately": 7870, "\u0120average": 7871, "\u0120something": 7872, "inguished": 7873, "\u0120Lakshmi": 7874, "chwil": 7875, "\u0120stabbed": 7876, "\u0120Chazan": 7877, "\u0120quickly": 7878, "\u0120proposal": 7879, "\u0120frequently": 7880, "founder": 7881, "\u0120aviation": 7882, "\u0120worst": 7883, "\u0120fighters": 7884, "\u0120murdered": 7885, "\u0120Tetraclit": 7886, "\u0120rejected": 7887, "\u0120Dmitry": 7888, "\u0120Uttar": 7889, "\u0120Internet": 7890, "\u0120rebellion": 7891, "\u0120approximately": 7892, "\u0120punishment": 7893, "\u0120determined": 7894, "Connecticut": 7895, "Queen": 7896, "\u0120mechan": 7897, "\u0120Trophy": 7898, "\u0120dimensions": 7899, "\u0120Pacific": 7900, "\u0120Pereira": 7901, "\u0120Liverpool": 7902, "\u0120Factory": 7903, "\u0120Emergency": 7904, "\u0120anomaly": 7905, "uddenly": 7906, "\u0120Chlo\u00c3\u00a9": 7907, "\u0120Venez": 7908, "\u0120juvenile": 7909, "\u0120Zagreb": 7910, "\u0120Zomorodi": 7911, "\u0120imprison": 7912, "\u0120indirectly": 7913, "\u0120Saudis": 7914, "\u0120Sebastian": 7915, "\u0120purpose": 7916, "\u0120Tanganyika": 7917, "\u0120withdrawal": 7918, "Renoir": 7919, "fielder": 7920, "\u0120authors": 7921, "\u0120awareness": 7922, "\u0120festivals": 7923, "\u0120biggest": 7924, "\u0120Cajuns": 7925, "\u0120Mikhail": 7926, "\u0120Pookkottur": 7927, "emetery": 7928, "\u0120Rundek": 7929, "\u0120Lincoln": 7930, "\u0120Fierro": 7931, "\u0120Gilmore": 7932, "\u0120Groning": 7933, "\u0120Oricon": 7934, "\u0120Karnataka": 7935, "\u0120Yasmeen": 7936, "\u0120Vincent": 7937, "\u0120unspecified": 7938, "\u0120Trudeau": 7939, "\u0120Sch\u00c3\u00b6nberg": 7940, "\u0120Abdikarimov": 7941, "04": 7942, "05": 7943, "06": 7944, "31": 7945, "47": 7946, "60": 7947, "77": 7948, "85": 7949, "92": 7950, "AR": 7951, "At": 7952, "And": 7953, "Buzz": 7954, "Cl": 7955, "Cast": 7956, "Comp": 7957, "DR": 7958, "David": 7959, "Est": 7960, "GC": 7961, "GASA": 7962, "HK": 7963, "HS": 7964, "He": 7965, "It": 7966, "Kar": 7967, "Lou": 7968, "Local": 7969, "Master": 7970, "National": 7971, "Ph": 7972, "Pl": 7973, "Pr": 7974, "Port": 7975, "Raj": 7976, "Se": 7977, "Sal": 7978, "TR": 7979, "TV": 7980, "TW": 7981, "Tok": 7982, "Vid": 7983, "aed": 7984, "ault": 7985, "author": 7986, "bd": 7987, "bol": 7988, "bro": 7989, "bie": 7990, "book": 7991, "base": 7992, "cing": 7993, "come": 7994, "cked": 7995, "da": 7996, "dd": 7997, "division": 7998, "eu": 7999, "elected": 8000, "fa": 8001, "fus": 8002, "fired": 8003, "gian": 8004, "gate": 8005, "grand": 8006, "hm": 8007, "hai": 8008, "kir": 8009, "list": 8010, "lai": 8011, "lob": 8012, "lieutenant": 8013, "liga": 8014, "leston": 8015, "mo": 8016, "moud": 8017, "mont": 8018, "now": 8019, "num": 8020, "nik": 8021, "oach": 8022, "oft": 8023, "pe": 8024, "pre": 8025, "ply": 8026, "person": 8027, "peck": 8028, "ration": 8029, "rish": 8030, "rage": 8031, "rne": 8032, "rera": 8033, "song": 8034, "south": 8035, "tures": 8036, "thel": 8037, "uz": 8038, "vinder": 8039, "wi": 8040, "was": 8041, "woman": 8042, "wagen": 8043, "yard": 8044, "yond": 8045, "zon": 8046, "zig": 8047, "\u00c3\u012b": 8048, "\u00c3\u0142": 8049, "\u00d1\u0122": 8050, "\u00d1\u012d": 8051, "\u00d8\u00a7": 8052, "\u00d9\u0127": 8053, "\u00e1\u00b9": 8054, "\u0120*": 8055, "\u0120=": 8056, "\u0120ess": 8057, "\u0120ener": 8058, "\u0120illeg": 8059, "\u0128er": 8060, "\u0120ton": 8061, "\u0120tel": 8062, "\u0120tub": 8063, "\u0120tell": 8064, "\u0120try": 8065, "\u0120tried": 8066, "\u0120trees": 8067, "\u0120trying": 8068, "\u0120tutor": 8069, "\u0120auction": 8070, "init": 8071, "inrich": 8072, "inburgh": 8073, "eries": 8074, "erto": 8075, "erick": 8076, "\u0120thesis": 8077, "onian": 8078, "onial": 8079, "onso": 8080, "oney": 8081, "orb": 8082, "orters": 8083, "enas": 8084, "\u0120ward": 8085, "\u0120wond": 8086, "\u0120wins": 8087, "ancer": 8088, "atri": 8089, "\u0120slow": 8090, "\u0120stern": 8091, "isbury": 8092, "real": 8093, "reation": 8094, "alse": 8095, "\u0120inher": 8096, "\u0120informed": 8097, "\u0120integ": 8098, "itary": 8099, "itors": 8100, "ittle": 8101, "\u0120ful": 8102, "\u0120fra": 8103, "\u0120faced": 8104, "\u0120failing": 8105, "\u0120false": 8106, "\u0120cow": 8107, "\u0120coc": 8108, "\u0120cous": 8109, "\u0120cup": 8110, "\u0120coin": 8111, "\u0120cells": 8112, "\u0120crown": 8113, "esota": 8114, "\u0120bin": 8115, "\u0120bit": 8116, "\u0120bay": 8117, "\u0120bud": 8118, "\u0120boss": 8119, "ici": 8120, "icate": 8121, "icial": 8122, "icide": 8123, "\u0120ped": 8124, "\u0120pain": 8125, "\u0120page": 8126, "\u0120pair": 8127, "\u0120SC": 8128, "\u0120ST": 8129, "\u0120Sukh": 8130, "\u0120SDF": 8131, "ouri": 8132, "ouston": 8133, "oma": 8134, "\u0120mag": 8135, "\u0120mart": 8136, "\u0120mild": 8137, "\u0120mind": 8138, "\u0120miles": 8139, "lem": 8140, "leigh": 8141, "leans": 8142, "leps": 8143, "\u0120Ts": 8144, "\u0120Ten": 8145, "\u0120Tra": 8146, "\u0120Tok": 8147, "\u0120Tony": 8148, "\u0120AS": 8149, "\u0120Aary": 8150, "\u0120dies": 8151, "\u0120dang": 8152, "\u0120dign": 8153, "\u0120dance": 8154, "\u0120CF": 8155, "\u0120Cut": 8156, "\u0120Cos": 8157, "\u0120Cant": 8158, "\u0120Crit": 8159, "\u0120Cost": 8160, "\u0120Care": 8161, "\u0120Cai": 8162, "\u0120Cru": 8163, "\u0120Census": 8164, "\u0120Currently": 8165, "\u0120Cavalry": 8166, "\u0120hat": 8167, "\u0120hol": 8168, "\u0120hall": 8169, "\u0120hung": 8170, "\u0120huge": 8171, "entures": 8172, "entially": 8173, "ilst": 8174, "ilton": 8175, "aman": 8176, "amber": 8177, "amily": 8178, "\u0120Mack": 8179, "\u0120Mater": 8180, "\u0120Mumb": 8181, "\u0120Michel": 8182, "\u0120rein": 8183, "\u0120rector": 8184, "\u0120reaching": 8185, "\u0120reorgan": 8186, "sters": 8187, "story": 8188, "stream": 8189, "eloc": 8190, "\u0120Hal": 8191, "\u0120Hur": 8192, "\u0120Hir": 8193, "\u0120Hangar": 8194, "\u0120Houston": 8195, "rovers": 8196, "\u0120IV": 8197, "\u0120Ib": 8198, "\u0120Ian": 8199, "\u0120Ill": 8200, "add": 8201, "adar": 8202, "adier": 8203, "\u0120Pi": 8204, "\u0120Py": 8205, "\u0120Pil": 8206, "\u0120Pur": 8207, "\u0120Pow": 8208, "\u0120Pop": 8209, "\u0120Pict": 8210, "\u0120Power": 8211, "\u0120Payette": 8212, "\u0120Psychology": 8213, "urm": 8214, "uraki": 8215, "\u0120lif": 8216, "\u0120lapt": 8217, "\u0120loyal": 8218, "\u0120lower": 8219, "eches": 8220, "emy": 8221, "emed": 8222, "irt": 8223, "\u0120Base": 8224, "\u0120Beat": 8225, "\u0120Beh": 8226, "\u0120Bonn": 8227, "\u0120Branch": 8228, "\u0120Baba": 8229, "\u0120BWF": 8230, "\u0120Dow": 8231, "\u0120Dong": 8232, "\u0120Dix": 8233, "\u0120Diet": 8234, "\u0120D\u00c3\u00a1il": 8235, "\u0120nations": 8236, "\u0120natural": 8237, "teries": 8238, "\u0120things": 8239, "\u0120think": 8240, "\u0120thought": 8241, "\u0120forew": 8242, "\u0120eye": 8243, "ote": 8244, "otes": 8245, "\u0120Roc": 8246, "\u0120Rog": 8247, "\u0120Rome": 8248, "\u0120Rio": 8249, "\u0120Roger": 8250, "etime": 8251, "\u0120herit": 8252, "\u0120Lor": 8253, "\u0120Lim": 8254, "\u0120Lect": 8255, "\u0120Lok": 8256, "\u0120Louth": 8257, "\u0120Leop": 8258, "\u0120Lock": 8259, "\u0120Lunch": 8260, "iguation": 8261, "uset": 8262, "\u0120ascent": 8263, "\u0120Fat": 8264, "\u0120Free": 8265, "\u0120Fair": 8266, "\u0120Fuk": 8267, "\u0120Jin": 8268, "\u0120Jal": 8269, "\u0120Jag": 8270, "\u0120Jul": 8271, "\u0120Juto": 8272, "\u0120Gradu": 8273, "\u0120Gamb": 8274, "\u0120Goog": 8275, "\u0120Gender": 8276, "\u0120Gersh": 8277, "\u0120Gandhi": 8278, "\u0120Gilles": 8279, "charge": 8280, "\u0120Naf": 8281, "\u0120Nipp": 8282, "\u0120Nils": 8283, "\u0120NAT": 8284, "\u0120Nacional": 8285, "\u0120NHS": 8286, "\u0120gr": 8287, "\u0120gard": 8288, "\u0120gran": 8289, "ctional": 8290, "istani": 8291, "itha": 8292, "iths": 8293, "\u0120WI": 8294, "\u0120Wan": 8295, "\u0120Wern": 8296, "\u0120stay": 8297, "\u0120stret": 8298, "\u0120stayed": 8299, "\u0120bear": 8300, "\u0120beyond": 8301, "berger": 8302, "\u0120EU": 8303, "\u0120Eve": 8304, "\u0120Every": 8305, "\u0120EOS": 8306, "agers": 8307, "\u0120Ot": 8308, "\u0120Our": 8309, "\u0120Osw": 8310, "\u0120anc": 8311, "\u0120ang": 8312, "\u0120anime": 8313, "\u0120whaling": 8314, "\u0120alone": 8315, "oses": 8316, "oshi": 8317, "osph": 8318, "rier": 8319, "esty": 8320, "ulations": 8321, "ulip": 8322, "raham": 8323, "\u0120concer": 8324, "\u0120conning": 8325, "\u0120Ko": 8326, "\u0120Kav": 8327, "\u0120Kap": 8328, "\u0120Kath": 8329, "\u0120Kham": 8330, "\u0120Katherine": 8331, "\u0120Kaji": 8332, "\u0120Kova": 8333, "\u0120Kelly": 8334, "\u0120Kuraki": 8335, "hie": 8336, "uda": 8337, "udan": 8338, "\u0120Inv": 8339, "\u0120Insp": 8340, "\u0120Instr": 8341, "\u0120ven": 8342, "\u0120vet": 8343, "\u0120veter": 8344, "\u0120dean": 8345, "eway": 8346, "oured": 8347, "\u0120rac": 8348, "\u0120rang": 8349, "\u0120rubber": 8350, "ifically": 8351, "ardy": 8352, "odcast": 8353, "abakh": 8354, "\u0120chooglin": 8355, "\u0120Still": 8356, "\u0120Stoney": 8357, "\u0120Sturm": 8358, "\u0120Chart": 8359, "\u0120Champions": 8360, "\u0120Channel": 8361, "\u0120sea": 8362, "oven": 8363, "ovan": 8364, "ovann": 8365, "ovakia": 8366, "ella": 8367, "elles": 8368, "apes": 8369, "ogd": 8370, "orno": 8371, "\u0120compris": 8372, "\u0120exclus": 8373, "ranean": 8374, "ictions": 8375, "ugu": 8376, "ugosl": 8377, "ineapp": 8378, "\u0120Ya": 8379, "\u0120Yu": 8380, "\u0120Yugosl": 8381, "uccess": 8382, "\u0120sport": 8383, "\u0120spring": 8384, "\u0120spots": 8385, "anga": 8386, "\u0120teen": 8387, "\u0120unt": 8388, "\u0120unus": 8389, "\u0120herself": 8390, "\u0120Arm": 8391, "ikya": 8392, "\u0120noticed": 8393, "\u0120cler": 8394, "\u0120Though": 8395, "2017": 8396, "manhurst": 8397, "\u0120wheel": 8398, "\u0120offered": 8399, "\u0120Ontar": 8400, "roud": 8401, "\u0120adapted": 8402, "\u0120Mario": 8403, "\u0120Martha": 8404, "ultze": 8405, "\u0120agric": 8406, "\u0120Comrad": 8407, "\u0120300": 8408, "lette": 8409, "letons": 8410, "awar": 8411, "\u0120jur": 8412, "\u0120job": 8413, "wegian": 8414, "\u0120manages": 8415, "\u0120disgu": 8416, "\u0120disease": 8417, "\u0120scr": 8418, "\u0120scar": 8419, "\u0120scrat": 8420, "\u0120website": 8421, "\u012059": 8422, "riculum": 8423, "\u0120locations": 8424, "\u0120regions": 8425, "\u012046": 8426, "\u0120column": 8427, "ression": 8428, "ahn": 8429, "ahar": 8430, "\u0120print": 8431, "actions": 8432, "\u0120Commons": 8433, "\u00e2\u0122\u013b.": 8434, "arked": 8435, "\u0120seconds": 8436, "\u0120Indies": 8437, "\u0120competitions": 8438, "\u01201923": 8439, "\u0120retail": 8440, "airy": 8441, "aired": 8442, "aircraft": 8443, "\u0120specifically": 8444, "lix": 8445, "liest": 8446, "\u0120numbers": 8447, "obolus": 8448, "anne": 8449, "\u0120percent": 8450, "\u0120Short": 8451, "\u0120assets": 8452, "ixBuzz": 8453, "\u0120Syed": 8454, "\u0120entering": 8455, "ibly": 8456, "\u0120invaded": 8457, "\u0120invasion": 8458, "\u0120Gerald": 8459, "\u0120Gerais": 8460, "\u0120consecut": 8461, "\u0120conservation": 8462, "\u0120conservative": 8463, "\u0120consecrated": 8464, "\u0120musician": 8465, "ieri": 8466, "\u0120artillery": 8467, "\u0120Clar": 8468, "\u0120Clif": 8469, "\u0120margin": 8470, "\u0120Johor": 8471, "\u0120interim": 8472, "minton": 8473, "minute": 8474, "ussian": 8475, "\u0120cargo": 8476, "\u012075": 8477, "\u012080": 8478, "\u0120Add": 8479, "\u0120relatively": 8480, "\u0120represents": 8481, "\u0120representing": 8482, "\u0120edited": 8483, "\u0120provinces": 8484, "hens": 8485, "ern\u00c3\u00a1nd": 8486, "echt": 8487, "ismo": 8488, "isms": 8489, "enner": 8490, "\u0120setup": 8491, "\u0120setting": 8492, "\u0120descendant": 8493, "reathe": 8494, "\u0120centers": 8495, "\u0120matters": 8496, "forming": 8497, "\u0120PhD": 8498, "\u0120owns": 8499, "\u0120Princet": 8500, "\u0120monarch": 8501, "\u0120reference": 8502, "\u012097": 8503, "\u0120Cancer": 8504, "lego": 8505, "\u0120Portland": 8506, "\u0120organised": 8507, "\u0120headed": 8508, "\u0120courses": 8509, "\u0120courtyard": 8510, "\u0120sixteen": 8511, "icipal": 8512, "\u0120laund": 8513, "\u0120operator": 8514, "\u0120blog": 8515, "\u0120Deport": 8516, "\u0120depart": 8517, "\u0120depict": 8518, "\u0120developer": 8519, "\u0120broke": 8520, "\u0120Guam": 8521, "\u0120drivers": 8522, "\u0120Midwest": 8523, "\u0120string": 8524, "\u0120strict": 8525, "\u0120canc": 8526, "\u0120emot": 8527, "\u0120termin": 8528, "\u0120formerly": 8529, "\u0120parent": 8530, "\u0120Edinburgh": 8531, "\u0120guard": 8532, "\u0120guarant": 8533, "ukata": 8534, "\u0120Secret": 8535, "\u0120Manchester": 8536, "\u0120Maneu": 8537, "\u0120Manikya": 8538, "\u0120programme": 8539, "\u0120runners": 8540, "affer": 8541, "\u0120authority": 8542, "\u0120demanded": 8543, "\u0120explo": 8544, "\u0120publicly": 8545, "\u0120Truteau": 8546, "\u0120Season": 8547, "\u0120Swift": 8548, "\u0120Ormond": 8549, "\u0120Orleans": 8550, "\u0120discus": 8551, "ribution": 8552, "\u0120pointed": 8553, "\u0120engagement": 8554, "\u0120\u00c3\u0123": 8555, "onomous": 8556, "\u0120incorpor": 8557, "\u0120Real": 8558, "\u0120\u00d0\u00b2": 8559, "\u0120\u00d0\u00bd": 8560, "\u0120landf": 8561, "\u0120lands": 8562, "\u0120About": 8563, "\u01201881": 8564, "\u01201884": 8565, "\u0120Money": 8566, "afa": 8567, "\u0120UKIP": 8568, "\u0120violating": 8569, "\u0120Palais": 8570, "\u0120condem": 8571, "\u0120completion": 8572, "incial": 8573, "\u0120Schul": 8574, "\u0120Schultze": 8575, "auty": 8576, "autical": 8577, "\u0120Malayalam": 8578, "\u0120merc": 8579, "\u0120handled": 8580, "\u0120distinct": 8581, "\u01201896": 8582, "ancing": 8583, "\u0120charts": 8584, "\u0120differences": 8585, "\u0120\u00c2\u00ab": 8586, "\u0120touring": 8587, "\u0120legend": 8588, "\u0120effective": 8589, "\u0120products": 8590, "\u0120fewest": 8591, "\u0120factor": 8592, "\u0120checked": 8593, "\u0120Harv": 8594, "\u0120twin": 8595, "\u0120shipyard": 8596, "\u0120Media": 8597, "\u0120Mediter": 8598, "\u0120Anglican": 8599, "\u0120simple": 8600, "\u0120extremely": 8601, "\u0120investigated": 8602, "\u0120investigating": 8603, "\u0120behavior": 8604, "iscrimin": 8605, "\u0120Martins": 8606, "\u0120establishing": 8607, "\u0120southwest": 8608, "\u0120bombings": 8609, "\u0120Mountains": 8610, "\u0120Draga": 8611, "\u0120Oxland": 8612, "\u0120Institution": 8613, "\u0120batteries": 8614, "\u0120neut": 8615, "knecht": 8616, "\u0120swim": 8617, "\u0120Salisbury": 8618, "\u0120damaged": 8619, "\u0120Munting": 8620, "\u0120Bloc": 8621, "\u0120Byrne": 8622, "\u0120sites": 8623, "\u0120injuries": 8624, "\u0120Socialist": 8625, "\u0120ready": 8626, "\u0120readers": 8627, "\u0120northeastern": 8628, "\u0120southeast": 8629, "\u0120southeastern": 8630, "\u0120needs": 8631, "\u0120assisting": 8632, "ijuana": 8633, "\u0120sessions": 8634, "\u0120Samar": 8635, "\u0120Milwaukee": 8636, "mbri": 8637, "\u0120females": 8638, "\u0120crossing": 8639, "\u0120Metro": 8640, "\u0120Metropolitan": 8641, "\u0120Norwegian": 8642, "ambers": 8643, "ambiguation": 8644, "\u0120Study": 8645, "\u0120recognition": 8646, "\u0120recognised": 8647, "\u0120Conservative": 8648, "\u0120Pete": 8649, "\u0120Petite": 8650, "\u0120\u00d1\u0124": 8651, "\u0120drawn": 8652, "\u0120stopped": 8653, "\u0120Professional": 8654, "\u0120defeating": 8655, "\u0120responses": 8656, "\u0120responsibility": 8657, "\u0120corrupt": 8658, "\u0120Akbar": 8659, "\u0120Mohamed": 8660, "\u0120limit": 8661, "\u0120Gallego": 8662, "\u0120Outlier": 8663, "\u0120contributing": 8664, "\u0120collected": 8665, "\u0120accounts": 8666, "\u0120performances": 8667, "\u0120automob": 8668, "Ann": 8669, "\u0120trip": 8670, "\u0120destr": 8671, "\u0120Copleston": 8672, "\u0120Copmanhurst": 8673, "chief": 8674, "\u0120goods": 8675, "\u0120criticised": 8676, "intendant": 8677, "\u0120divor": 8678, "\u0120divided": 8679, "\u0120Richmond": 8680, "\u0120speaking": 8681, "\u01201850": 8682, "\u01201879": 8683, "\u0120warned": 8684, "\u0120squat": 8685, "\u0120boat": 8686, "\u0120deliver": 8687, "\u0120homes": 8688, "\u0120reviewed": 8689, "\u0120Hamilton": 8690, "\u0120Without": 8691, "\u0120Emir": 8692, "\u0120Emilio": 8693, "\u01201801": 8694, "\u0120discussions": 8695, "\u0120types": 8696, "\u0120talks": 8697, "\u0120shires": 8698, "\u0120purchase": 8699, "\u0120missionary": 8700, "\u0120Croat": 8701, "\u0120Crown": 8702, "\u0120Crofton": 8703, "\u0120Rangoli": 8704, "\u0120Gallen": 8705, "This": 8706, "\u0120ideas": 8707, "\u0120superv": 8708, "ommod": 8709, "\u0120missions": 8710, "\u0120Nehls": 8711, "\u0120Karl": 8712, "\u0120rules": 8713, "\u0120spirits": 8714, "\u0120scientist": 8715, "\u0120effects": 8716, "\u00e3\u0125\u00bc": 8717, "\u0120skeletons": 8718, "\u0120instructions": 8719, "\u0120farmer": 8720, "\u0120Alexand": 8721, "\u0120Capit": 8722, "\u0120Capital": 8723, "\u0120Moore": 8724, "\u0120Mexican": 8725, "\u0120Classic": 8726, "\u0120emergency": 8727, "\u0120poetry": 8728, "\u0120oversaw": 8729, "\u0120Maclean": 8730, "adiq": 8731, "\u0120Raph": 8732, "\u0120Lucas": 8733, "\u0120suffering": 8734, "\u0120schedule": 8735, "\u0120Claud": 8736, "\u0120subsequent": 8737, "\u0120Brazilian": 8738, "\u0120infirm": 8739, "\u0120Modenas": 8740, "\u0120Overpeck": 8741, "\u0120volunte": 8742, "\u0120uncle": 8743, "\u0120Protesters": 8744, "\u0120Protestant": 8745, "\u0120philanth": 8746, "\u0120Andr\u00c3\u00a9": 8747, "\u0120employees": 8748, "\u0120increased": 8749, "\u0120increase": 8750, "\u0120Montenegrin": 8751, "\u0120neighbour": 8752, "\u0120aims": 8753, "\u0120aimed": 8754, "\u0120frag": 8755, "\u0120frame": 8756, "\u0120fallen": 8757, "\u0120falling": 8758, "\u0120panel": 8759, "\u0120documents": 8760, "\u0120Czechosl": 8761, "\u0120Puerto": 8762, "\u0120Bolton": 8763, "\u0120Devon": 8764, "\u0120Devil": 8765, "\u0120traveled": 8766, "\u0120erected": 8767, "\u0120synagogue": 8768, "\u0120derived": 8769, "\u0120Mahmoud": 8770, "\u0120Armenian": 8771, "\u0120guitarist": 8772, "ographed": 8773, "\u0120internet": 8774, "\u0120Sherlock": 8775, "\u0120municipal": 8776, "\u0120Ahly": 8777, "\u0120drove": 8778, "\u0120Houthis": 8779, "\u0120translation": 8780, "\u0120translator": 8781, "Party": 8782, "\u0120surrounded": 8783, "\u0120surrounding": 8784, "\u0120suggested": 8785, "\u0120Saturday": 8786, "\u0120horror": 8787, "\u0120Honours": 8788, "\u0120constable": 8789, "\u0120composers": 8790, "\u0120Alfred": 8791, "\u0120manufacturer": 8792, "EEE": 8793, "\u0120federal": 8794, "\u0120celebrate": 8795, "\u0120licence": 8796, "\u0120Nagorno": 8797, "\u0120growing": 8798, "\u0120Ellie": 8799, "\u0120Operations": 8800, "\u0120Argentina": 8801, "\u0120windows": 8802, "\u0120bringing": 8803, "\u0120Sinclair": 8804, "\u0120Building": 8805, "\u0120Kenogami": 8806, "\u0120Katz": 8807, "\u0120delegate": 8808, "oddard": 8809, "\u0120charged": 8810, "\u0120charges": 8811, "\u0120experimental": 8812, "\u0120spiritual": 8813, "\u0120waiting": 8814, "\u0120credited": 8815, "\u0120pursue": 8816, "\u0120Schembri": 8817, "\u0120Pakistan": 8818, "\u0120loan": 8819, "\u0120eleven": 8820, "\u0120elements": 8821, "\u0120Ranji": 8822, "\u0120Industrial": 8823, "\u0120settlement": 8824, "\u0120Brooklyn": 8825, "\u0120\u00c4\u0128er": 8826, "\u0120categories": 8827, "\u0120bottom": 8828, "\u0120Sunday": 8829, "\u0120alternate": 8830, "\u0120shaft": 8831, "ropriate": 8832, "\u0120prepared": 8833, "\u0120principal": 8834, "\u0120knocked": 8835, "\u0120dispersed": 8836, "schfeld": 8837, "\u0120timber": 8838, "\u0120Soptic": 8839, "\u0120Minnesota": 8840, "\u0120Divisi\u00c3\u00b3n": 8841, "\u0120thanks": 8842, "\u0120Roland": 8843, "\u0120playoffs": 8844, "\u0120apparently": 8845, "\u0120environmental": 8846, "\u0120symbol": 8847, "\u0120Delegation": 8848, "\u0120opportunity": 8849, "\u0120motorcycles": 8850, "\u0120Saskatoon": 8851, "disambiguation": 8852, "\u0120tunnel": 8853, "\u0120sublanguages": 8854, "\u0120buried": 8855, "\u0120Circuit": 8856, "\u0120Between": 8857, "usseini": 8858, "\u0120Gutknecht": 8859, "\u0120probably": 8860, "\u0120segments": 8861, "\u0120examination": 8862, "\u0120Speaker": 8863, "\u0120rapid": 8864, "\u0120structures": 8865, "\u0120Barbara": 8866, "\u0120dismissed": 8867, "\u0120hydrogen": 8868, "\u0120torture": 8869, "\u0120sustained": 8870, "\u0120informal": 8871, "\u0120cannot": 8872, "\u0120Siena": 8873, "\u0120Typhoon": 8874, "\u0120Aquatics": 8875, "\u0120Maurice": 8876, "\u0120PAGASA": 8877, "\u0120Pinto": 8878, "\u0120Ragin": 8879, "\u0120Wheeler": 8880, "\u0120Eugene": 8881, "occan": 8882, "\u0120colleges": 8883, "\u0120enjoyed": 8884, "\u0120Guangzhou": 8885, "\u0120Patricia": 8886, "\u0120alphabetically": 8887, "Shires": 8888, "pretation": 8889, "\u0120tanker": 8890, "\u0120witnesses": 8891, "\u0120Danny": 8892, "\u0120Ltd": 8893, "\u0120Nevada": 8894, "\u0120Ubukata": 8895, "ablishment": 8896, "\u0120Stewart": 8897, "\u0120exoplanets": 8898, "\u0120Vietnam": 8899, "\u00c3\u00a9bertville": 8900, "\u0120Apostolic": 8901, "\u0120Continental": 8902, "\u0120Kirchberger": 8903, "\u0120Wolverines": 8904, "\u0120trafficking": 8905, "\u0120Groningen": 8906, "Karabakh": 8907, "\u0120tubes": 8908, "\u0120fully": 8909, "\u0120cousin": 8910, "\u0120Sukhvinder": 8911, "\u0120Tokyo": 8912, "\u0120Aaryan": 8913, "\u0120diesel": 8914, "\u0120Mumbai": 8915, "\u0120Hirschfeld": 8916, "\u0120Baseball": 8917, "\u0120Dowling": 8918, "\u0120Rogers": 8919, "\u0120heritage": 8920, "\u0120Leopold": 8921, "\u0120Nafisa": 8922, "\u0120NATO": 8923, "\u0120Oswald": 8924, "\u0120concerts": 8925, "ovanni": 8926, "ineapple": 8927, "\u0120Ontario": 8928, "\u0120agriculture": 8929, "\u0120Comrads": 8930, "\u0120disguised": 8931, "\u0120consecutively": 8932, "ern\u00c3\u00a1ndez": 8933, "\u0120Princeton": 8934, "\u0120Maneuver": 8935, "\u0120Mediterranean": 8936, "\u0120Draga\u00c5\u00a1": 8937, "\u0120philanthrop": 8938, "!\u00e2\u0122\u013b": 8939, "'.": 8940, "'ve": 8941, "):": 8942, ".)": 8943, ".-": 8944, ".<": 8945, "41": 8946, "59": 8947, "800": 8948, "Ar": 8949, "Ach": 8950, "Bl": 8951, "Bo": 8952, "Bar": 8953, "CD": 8954, "CE": 8955, "DW": 8956, "Do": 8957, "ET": 8958, "EMA": 8959, "FC": 8960, "FF": 8961, "FL": 8962, "FP": 8963, "For": 8964, "Gl": 8965, "Hist": 8966, "HMS": 8967, "Husseini": 8968, "Iv": 8969, "Le": 8970, "Lennon": 8971, "Mon": 8972, "Michel": 8973, "Nile": 8974, "On": 8975, "Or": 8976, "Ox": 8977, "Pal": 8978, "Pri": 8979, "Pika": 8980, "SF": 8981, "Sw": 8982, "She": 8983, "Sadiq": 8984, "Tr": 8985, "Tam": 8986, "UP": 8987, "US": 8988, "VIII": 8989, "WA": 8990, "When": 8991, "Your": 8992, "aus": 8993, "bin": 8994, "bet": 8995, "boy": 8996, "binda": 8997, "cor": 8998, "cle": 8999, "card": 9000, "cip": 9001, "case": 9002, "cular": 9003, "cert": 9004, "caster": 9005, "c\u00c3\u0143a": 9006, "consec": 9007, "di": 9008, "du": 9009, "dated": 9010, "district": 9011, "dney": 9012, "eon": 9013, "eit": 9014, "eut": 9015, "eap": 9016, "eira": 9017, "fers": 9018, "from": 9019, "fra": 9020, "friend": 9021, "flix": 9022, "general": 9023, "group": 9024, "grant": 9025, "hat": 9026, "has": 9027, "hing": 9028, "hol": 9029, "iat": 9030, "iad": 9031, "iem": 9032, "ios": 9033, "iques": 9034, "jit": 9035, "java": 9036, "kg": 9037, "ku": 9038, "kan": 9039, "lon": 9040, "lar": 9041, "last": 9042, "lik": 9043, "licht": 9044, "mother": 9045, "master": 9046, "mberg": 9047, "new": 9048, "name": 9049, "n\u00c3\u00b6n": 9050, "oos": 9051, "oters": 9052, "oise": 9053, "pher": 9054, "post": 9055, "pts": 9056, "pson": 9057, "pread": 9058, "r\u00c4": 9059, "rent": 9060, "rill": 9061, "rend": 9062, "rade": 9063, "ructure": 9064, "sa": 9065, "sil": 9066, "sider": 9067, "tor": 9068, "tra": 9069, "then": 9070, "vian": 9071, "vina": 9072, "velled": 9073, "wig": 9074, "wich": 9075, "wang": 9076, "wise": 9077, "xic": 9078, "yt": 9079, "zur": 9080, "zqu": 9081, "\u00b2\u0136": 9082, "\u00c2\u00b0": 9083, "\u00c3\u00aa": 9084, "\u00c3\u0141": 9085, "\u00c4\u00b1": 9086, "\u00c5\u0133": 9087, "\u00d1\u012e": 9088, "\u00d7\u00a8": 9089, "\u00d9\u0126": 9090, "\u00e5\u0131": 9091, "\u00e5\u00b2\u0136": 9092, "\u00ef\u00bc": 9093, "\u0120+": 9094, "\u0120:": 9095, "\u0120~": 9096, "\u0120ign": 9097, "\u0120util": 9098, "\u013a\u0128": 9099, "\u0120tor": 9100, "\u0120tall": 9101, "\u0120tend": 9102, "\u0120tens": 9103, "\u0120tons": 9104, "\u0120trib": 9105, "\u0120tick": 9106, "\u0120tempor": 9107, "\u0120treated": 9108, "hemi": 9109, "\u0120ap": 9110, "\u0120aw": 9111, "\u0120aest": 9112, "inued": 9113, "erc": 9114, "eras": 9115, "onic": 9116, "onies": 9117, "org": 9118, "oran": 9119, "orious": 9120, "orica": 9121, "enary": 9122, "enobolus": 9123, "\u0120wr": 9124, "\u0120wors": 9125, "\u0120wides": 9126, "\u0120wounds": 9127, "anG": 9128, "anath": 9129, "aniah": 9130, "atu": 9131, "\u0120sle": 9132, "\u0120sell": 9133, "\u0120soci": 9134, "\u0120salt": 9135, "\u0120suddenly": 9136, "\u0120op": 9137, "isis": 9138, "isions": 9139, "isters": 9140, "rez": 9141, "rete": 9142, "rehens": 9143, "alus": 9144, "itement": 9145, "\u0120fell": 9146, "\u0120fail": 9147, "\u0120fair": 9148, "\u0120festival": 9149, "ases": 9150, "\u0120cle": 9151, "\u0120coun": 9152, "\u0120core": 9153, "\u0120cited": 9154, "\u0120curt": 9155, "\u0120citing": 9156, "\u0120bed": 9157, "\u0120bac": 9158, "\u0120bab": 9159, "\u0120bass": 9160, "\u0120burned": 9161, "\u0120bishop": 9162, "\u0120botan": 9163, "ications": 9164, "\u0120pit": 9165, "\u0120pion": 9166, "\u0120pure": 9167, "\u0120ports": 9168, "\u0120Sent": 9169, "\u0120Sel": 9170, "\u0120Sue": 9171, "\u0120Ship": 9172, "\u0120Saw": 9173, "\u0120Stern": 9174, "\u0120Scho": 9175, "\u0120Soon": 9176, "\u0120Sull": 9177, "\u0120SED": 9178, "\u0120SLC": 9179, "oup": 9180, "oust": 9181, "\u0120today": 9182, "\u0120tools": 9183, "\u0120toxic": 9184, "oms": 9185, "\u0120mist": 9186, "\u0120mos": 9187, "\u0120mess": 9188, "\u0120mount": 9189, "\u0120magaz": 9190, "\u0120micro": 9191, "\u0120Tol": 9192, "\u0120Tow": 9193, "\u0120Tog": 9194, "\u0120Tik": 9195, "\u0120Time": 9196, "\u0120Tower": 9197, "\u0120Train": 9198, "\u0120Tennis": 9199, "\u0120Tirm": 9200, "\u0120Total": 9201, "\u0120Ast": 9202, "\u0120dated": 9203, "\u0120die": 9204, "\u0120divers": 9205, "\u0120dyn": 9206, "\u0120dream": 9207, "\u0120doll": 9208, "\u0120dinner": 9209, "\u0120duties": 9210, "\u0120CA": 9211, "\u0120CD": 9212, "\u0120Cec": 9213, "\u0120Cres": 9214, "\u0120Cav": 9215, "\u0120Cert": 9216, "\u0120Czer": 9217, "\u0120Creed": 9218, "\u0120Clear": 9219, "\u0120Culture": 9220, "\u0120Ciro": 9221, "\u0120Cinema": 9222, "\u0120Cemetery": 9223, "\u0120hun": 9224, "\u0120hum": 9225, "\u0120hind": 9226, "\u0120hits": 9227, "ented": 9228, "ila": 9229, "ilo": 9230, "\u0120MK": 9231, "\u0120Mag": 9232, "\u0120Mort": 9233, "\u0120Miz": 9234, "\u0120Mind": 9235, "\u0120Mean": 9236, "\u0120Maz": 9237, "\u0120Members": 9238, "\u0120Much": 9239, "\u0120Myan": 9240, "\u0120M\u00c3\u00b8": 9241, "\u0120MMA": 9242, "\u0120Miller": 9243, "\u0120Muela": 9244, "\u0120MEP": 9245, "\u0120M\u00c3\u00bcn": 9246, "\u0120waste": 9247, "\u0120reed": 9248, "olics": 9249, "still": 9250, "stant": 9251, "stock": 9252, "style": 9253, "elo": 9254, "elia": 9255, "\u0120Hy": 9256, "\u0120Hom": 9257, "\u0120Hil": 9258, "\u0120Hun": 9259, "\u0120Hend": 9260, "\u0120Hull": 9261, "\u0120Half": 9262, "\u0120HIV": 9263, "\u0120Hinrich": 9264, "\u0120Hern\u00c3\u00a1ndez": 9265, "roc": 9266, "roe": 9267, "rog": 9268, "rock": 9269, "rocity": 9270, "\u0120IP": 9271, "\u0120Ice": 9272, "\u0120Iss": 9273, "\u0120Imp": 9274, "\u0120Iram": 9275, "\u0120Ilo": 9276, "\u0120IDF": 9277, "\u0120ISI": 9278, "\u0120IEEE": 9279, "adenobolus": 9280, "\u0120Ples": 9281, "\u0120Pots": 9282, "\u0120PLA": 9283, "\u0120Papers": 9284, "urance": 9285, "acco": 9286, "ivo": 9287, "ivan": 9288, "\u0120lob": 9289, "\u0120link": 9290, "\u0120loud": 9291, "\u0120laboratory": 9292, "ecke": 9293, "\u0120ones": 9294, "emit": 9295, "\u0120Theres": 9296, "\u0120Theological": 9297, "\u0120Bo": 9298, "\u0120Bes": 9299, "\u0120Bil": 9300, "\u0120Bod": 9301, "\u0120Bell": 9302, "\u0120Bry": 9303, "\u0120Bach": 9304, "\u0120Based": 9305, "\u0120Bron": 9306, "\u0120Bru": 9307, "\u0120Bux": 9308, "\u0120Bukh": 9309, "\u0120Bj\u00c3\u00b6": 9310, "\u0120Breathe": 9311, "\u0120Dur": 9312, "\u0120Dra": 9313, "\u0120Dear": 9314, "\u0120Dund": 9315, "\u0120Dean": 9316, "\u0120Dance": 9317, "\u0120DMA": 9318, "\u0120DEA": 9319, "\u0120Duchess": 9320, "\u0120nick": 9321, "\u0120norm": 9322, "\u0120thr": 9323, "\u0120islands": 9324, "oto": 9325, "ido": 9326, "idency": 9327, "\u0120Ra": 9328, "\u0120Rom": 9329, "\u0120Rel": 9330, "\u0120Run": 9331, "\u0120Rand": 9332, "\u0120Rest": 9333, "\u0120Rod": 9334, "\u0120Rican": 9335, "\u0120Rock": 9336, "\u0120Raf": 9337, "etas": 9338, "ether": 9339, "etry": 9340, "\u0120heir": 9341, "\u0120height": 9342, "\u0120Lud": 9343, "\u0120Lang": 9344, "\u0120Lind": 9345, "\u0120Lai": 9346, "\u0120Lank": 9347, "\u0120Lata": 9348, "\u0120Liter": 9349, "\u0120Lennon": 9350, "\u0120Little": 9351, "igher": 9352, "ayo": 9353, "ayas": 9354, "utation": 9355, "utive": 9356, "imo": 9357, "imp": 9358, "imen": 9359, "imity": 9360, "usn": 9361, "ushi": 9362, "ushed": 9363, "\u0120Fle": 9364, "\u0120Ful": 9365, "\u0120Fant": 9366, "\u0120Five": 9367, "\u0120Fine": 9368, "\u0120Ford": 9369, "\u0120Fah": 9370, "\u0120Fior": 9371, "\u0120Field": 9372, "\u0120Jes": 9373, "\u0120Jay": 9374, "\u0120Jain": 9375, "\u0120Jaw": 9376, "\u0120Jiang": 9377, "\u0120Joint": 9378, "\u0120Jeff": 9379, "\u0120Gen": 9380, "\u0120Gro": 9381, "\u0120Gir": 9382, "\u0120Guth": 9383, "\u0120Graft": 9384, "\u0120GLA": 9385, "\u0120Greek": 9386, "\u0120Gaza": 9387, "chy": 9388, "chair": 9389, "erset": 9390, "una": 9391, "unus": 9392, "unning": 9393, "\u0120Ni": 9394, "\u0120Non": 9395, "\u0120Nil": 9396, "\u0120Names": 9397, "\u0120Need": 9398, "\u0120Niang": 9399, "\u0120NAS": 9400, "\u0120Nancy": 9401, "\u0120Natio": 9402, "\u0120Nottingham": 9403, "\u0120NGC": 9404, "\u0120(\u00e2\u0122\u013a": 9405, "\u0120gate": 9406, "\u0120green": 9407, "\u0120gains": 9408, "\u0120gift": 9409, "ista": 9410, "iste": 9411, "\u0120Was": 9412, "\u0120Wade": 9413, "\u0120Wals": 9414, "\u0120WAC": 9415, "\u0120strikes": 9416, "thi": 9417, "owy": 9418, "bery": 9419, "berto": 9420, "\u0120Eb": 9421, "\u0120Eric": 9422, "\u0120Ern": 9423, "agos": 9424, "\u0120Of": 9425, "\u0120Op": 9426, "\u0120Oman": 9427, "\u0120Oola": 9428, "\u0120animal": 9429, "\u0120answ": 9430, "\u0120alias": 9431, "umin": 9432, "umaise": 9433, "rio": 9434, "rix": 9435, "uls": 9436, "ocent": 9437, "occo": 9438, "ocracy": 9439, "\u0120UA": 9440, "iani": 9441, "\u0120confer": 9442, "\u0120consp": 9443, "\u0120converted": 9444, "\u0120Kal": 9445, "\u0120Kum": 9446, "\u0120Kip": 9447, "\u0120Kyle": 9448, "\u0120Kolk": 9449, "\u0120Kenny": 9450, "hia": 9451, "hipp": 9452, "uds": 9453, "\u0120Init": 9454, "alla": 9455, "ategy": 9456, "ophy": 9457, "\u0120vocal": 9458, "\u0120viral": 9459, "\u0120deity": 9460, "eward": 9461, "ewhere": 9462, "\u0120proceeded": 9463, "\u0120rum": 9464, "\u0120rich": 9465, "\u0120rivers": 9466, "\u0120raced": 9467, "\u0120rider": 9468, "\u0120rivals": 9469, "\u0120riders": 9470, "iess": 9471, "ubb": 9472, "illiant": 9473, "ighter": 9474, "ppe": 9475, "abar": 9476, "abad": 9477, "ab\u00c3\u00a9": 9478, "\u0120chass": 9479, "\u0120choir": 9480, "\u0120chambers": 9481, "\u0120Stand": 9482, "\u0120Stories": 9483, "\u0120Champion": 9484, "\u0120plot": 9485, "endants": 9486, "ellers": 9487, "antry": 9488, "\u0120exact": 9489, "\u0120excess": 9490, "\u0120existed": 9491, "\u0120orche": 9492, "closed": 9493, "\u0120Unichel": 9494, "rane": 9495, "rank": 9496, "ialog": 9497, "ictment": 9498, "erves": 9499, "erville": 9500, "\u0120evangel": 9501, "\u0120firms": 9502, "\u0120Yun": 9503, "\u0120Yale": 9504, "\u0120Yamah": 9505, "\u0120spoken": 9506, "\u0120km": 9507, "anging": 9508, "anghai": 9509, "\u0120yet": 9510, "\u0120Vers": 9511, "\u0120Vill": 9512, "\u0120Vice": 9513, "\u0120Vik": 9514, "\u0120Vide": 9515, "\u0120Visc": 9516, "\u0120Volk": 9517, "\u0120teaches": 9518, "\u0120uns": 9519, "\u0120unac": 9520, "\u0120unable": 9521, "\u0120unexp": 9522, "assed": 9523, "assel": 9524, "ief": 9525, "iev": 9526, "ieval": 9527, "acked": 9528, "\u0120Shepher": 9529, "\u0120Arlington": 9530, "\u0120Arbinda": 9531, "iklai": 9532, "\u0120note": 9533, "\u0120notably": 9534, "\u0120clin": 9535, "\u0120clash": 9536, "\u0120clothing": 9537, "omeg": 9538, "\u01201800": 9539, "2014": 9540, "izi": 9541, "\u0120resemb": 9542, "\u0120resettle": 9543, "\u0120resistance": 9544, "manent": 9545, "undes": 9546, "teenth": 9547, "\u0120partly": 9548, "\u0120partially": 9549, "\u0120ability": 9550, "\u0120shall": 9551, "\u0120shock": 9552, "\u0120shorter": 9553, "\u0120Only": 9554, "\u0120Alban": 9555, "\u0120Aln\u00c3\u00b6n": 9556, "\u0120adver": 9557, "\u0120Mar\u00c3\u0143a": 9558, "urek": 9559, "ureau": 9560, "\u0120aggreg": 9561, "\u012037": 9562, "\u0120suits": 9563, "awla": 9564, "\u0120jud": 9565, "toine": 9566, "\u0120content": 9567, "\u0120contest": 9568, "\u0120contact": 9569, "\u0120contacted": 9570, "\u0120controvers": 9571, "\u0120attract": 9572, "indu": 9573, "\u0120Ancient": 9574, "enses": 9575, "\u0120disag": 9576, "\u0120disability": 9577, "\u0120sciences": 9578, "\u0120recon": 9579, "\u0120recalled": 9580, "\u0120web": 9581, "olds": 9582, "\u0120commonly": 9583, "\u0120desire": 9584, "\u0120electron": 9585, "\u0120overt": 9586, ").\"": 9587, "issance": 9588, "tschwil": 9589, "ucted": 9590, "uctive": 9591, "\u01205000": 9592, "resented": 9593, "\u0120locked": 9594, "forced": 9595, "mpiad": 9596, "\u0120registered": 9597, "\u0120Leo": 9598, "\u0120Leeds": 9599, "\u0120row": 9600, "\u01201959": 9601, "\u0120actors": 9602, "\u0120Zhen": 9603, "\u0120Zeph": 9604, "\u0120Zamal": 9605, "\u0120Zetas": 9606, "\u0120Janata": 9607, "ahin": 9608, "ahara": 9609, "arest": 9610, "\u0120praying": 9611, "\u0120prayer": 9612, "\u0120Commanding": 9613, "ailand": 9614, "\u0120studying": 9615, "\u0120housing": 9616, "\u0120Indones": 9617, "azaki": 9618, "rama": 9619, "\u0120Spiess": 9620, "\u0120Spurek": 9621, "\u0120retro": 9622, "\u0120retained": 9623, "\u0120retali": 9624, "\u0120specimens": 9625, "\u0120specimen": 9626, "obe": 9627, "ologies": 9628, "\u0120Shosh": 9629, "\u0120Shanghai": 9630, "\u0120Project": 9631, "\u0120assess": 9632, "\u0120assemb": 9633, "\u0120Sydney": 9634, "\u0120index": 9635, "\u0120indiscrimin": 9636, "\u0120indictment": 9637, "innings": 9638, "\u0120Engert": 9639, "cheyev": 9640, "inae": 9641, "\u01201683": 9642, "\u0120endang": 9643, "\u0120endors": 9644, "ansk": 9645, "ibl": 9646, "ibal": 9647, "tenbar": 9648, "\u0120accommod": 9649, "\u0120supposed": 9650, "\u0120supplies": 9651, "\u0120176": 9652, "ledged": 9653, "\u0120Gertr": 9654, "\u00c3\u00a1k": 9655, "\u0120severely": 9656, "ilitation": 9657, "ilitated": 9658, "\u0120Olympiad": 9659, "eva": 9660, "alysis": 9661, "\u0120Nova": 9662, "\u0120question": 9663, "\u0120defender": 9664, "\u0120marijuana": 9665, "\u0120Coner": 9666, "ourne": 9667, "minster": 9668, "\u0120creation": 9669, "\u0120Adam": 9670, "iments": 9671, "aleigh": 9672, "\u0120provincial": 9673, "alkari": 9674, "\u0120Countess": 9675, "\u0120formally": 9676, "\u0120attacking": 9677, "\u0120medals": 9678, "\u0120Franco": 9679, "\u0120adds": 9680, "\u0120Gehr": 9681, "\u0120Geographical": 9682, "\u0120center": 9683, "\u0120centuries": 9684, "\u0120remember": 9685, "\u0120acknow": 9686, "\u0120Sax": 9687, "\u0120Saumaise": 9688, "\u0120Phleps": 9689, "\u0120Euros": 9690, "\u0120Prin": 9691, "\u0120Prince": 9692, "otting": 9693, "\u0120imposed": 9694, "\u0120monitor": 9695, "\u0120flash": 9696, "\u0120Canon": 9697, "ller": 9698, "\u0120USL": 9699, "\u0120truth": 9700, "ominantly": 9701, "\u0120heads": 9702, "\u0120Andalus": 9703, "elfare": 9704, "\u0120topic": 9705, "\u0120trains": 9706, "\u0120operate": 9707, "\u0120operates": 9708, "\u0120Westminster": 9709, "\u0120anniversary": 9710, "\u0120respective": 9711, "\u0120Partridge": 9712, "\u0120originated": 9713, "\u0120drag": 9714, "\u0120drum": 9715, "\u0120strategy": 9716, "\u0120debt": 9717, "\u0120warrant": 9718, "\u0120warbler": 9719, "\u0120occurs": 9720, "insula": 9721, "\u0120Ediel": 9722, "ouncill": 9723, "\u0120guide": 9724, "\u0120protected": 9725, "\u0120activists": 9726, "ukura": 9727, "\u01201902": 9728, "186": 9729, "\u0120producing": 9730, "\u0120Rojava": 9731, "CAC": 9732, "\u0120graduation": 9733, "\u0120gradually": 9734, "\u0120Georget": 9735, "\u0120explained": 9736, "\u0120explored": 9737, "\u0120Indiana": 9738, "appy": 9739, "appro": 9740, "comm": 9741, "\u0120Trinity": 9742, "\u0120discont": 9743, "vesend": 9744, "ittees": 9745, "cooperation": 9746, "\u0120incarn": 9747, "\u0120Rebec": 9748, "\u0120Compos": 9749, "\u0120Computing": 9750, "\u0120\u00d0\u00ba": 9751, "\u0120voting": 9752, "\u01201889": 9753, "\u0120Tomki": 9754, "\u0120Monte": 9755, "\u0120Beira": 9756, "\u0120Deep": 9757, "\u0120stationed": 9758, "\u0120Ogunt": 9759, "\u0120Morris": 9760, "\u0120Moroccan": 9761, "\u0120nominations": 9762, "\u0120educational": 9763, "\u0120bands": 9764, "\u0120restored": 9765, "\u0120reportedly": 9766, "arma": 9767, "\u0120intent": 9768, "\u0120intended": 9769, "\u0120intelligence": 9770, "\u0120Cooper": 9771, "\u0120Malabar": 9772, "\u0120camping": 9773, "\u0120campus": 9774, "\u0120hands": 9775, "\u0120require": 9776, "\u0120requested": 9777, "\u0120requires": 9778, "\u01201891": 9779, "\u01201892": 9780, "\u01201897": 9781, "\u01201899": 9782, "\u0120advant": 9783, "\u0120advance": 9784, "\u0120difference": 9785, "\u0120soldier": 9786, "\u0120Elka": 9787, "ourself": 9788, "\u0120Republicans": 9789, "\u0120slight": 9790, "\u0120slaves": 9791, "\u0120productions": 9792, "\u0120businesses": 9793, "\u0120poem": 9794, "\u0120voiced": 9795, "\u0120weekly": 9796, "\u0120weekend": 9797, "\u0120Acad": 9798, "\u0120Philosop": 9799, "haal": 9800, "alcraft": 9801, "\u0120Harry": 9802, "\u0120concent": 9803, "\u0120concert": 9804, "\u0120orders": 9805, "\u0120ordained": 9806, "\u0120launch": 9807, "\u0120systems": 9808, "\u0120twelve": 9809, "\u0120older": 9810, "\u0120putting": 9811, "ircraft": 9812, "\u0120Angus": 9813, "score": 9814, "\u0120simply": 9815, "\u0120fifty": 9816, "\u0120fifteen": 9817, "\u0120Catholics": 9818, "classification": 9819, "\u0120replace": 9820, "\u0120replacement": 9821, "\u0120Glen": 9822, "\u0120Glacier": 9823, "reedom": 9824, "\u0120detention": 9825, "\u0120detectives": 9826, "\u0120install": 9827, "\u0120instances": 9828, "\u0120bodywork": 9829, "\u0120Cameron": 9830, "\u0120Cambridge": 9831, "\u0120Perth": 9832, "\u0120Perry": 9833, "\u0120rooms": 9834, "\u0120preservation": 9835, "\u0120Mirror": 9836, "\u0120Revision": 9837, "\u0120Graham": 9838, "\u0120Gravina": 9839, "\u0120Gravesend": 9840, "\u0120streets": 9841, "\u0120OxT": 9842, "\u0120Liberal": 9843, "\u0120Liberman": 9844, "\u0120Wallace": 9845, "\u0120administrated": 9846, "\u0120Quar": 9847, "\u0120swit": 9848, "\u0120switch": 9849, "\u0120Salv": 9850, "\u0120McC": 9851, "\u0120McQueen": 9852, "\u0120McMaster": 9853, "\u0120Munich": 9854, "\u0120Holo": 9855, "\u0120collaps": 9856, "\u0120Williams": 9857, "\u0120injury": 9858, "\u0120patrol": 9859, "\u0120affairs": 9860, "\u0120everything": 9861, "\u0120renew": 9862, "\u0120mountains": 9863, "\u0120Hashemi": 9864, "\u0120victory": 9865, "\u0120controls": 9866, "\u0120demonstrations": 9867, "\u0120Suz": 9868, "\u0120Acting": 9869, "\u0120Milovan": 9870, "\u0120Mostly": 9871, "\u0120rebu": 9872, "ozia": 9873, "\u0120Metalcraft": 9874, "\u0120Norr": 9875, "\u0120journals": 9876, "\u0120initiated": 9877, "\u0120powerful": 9878, "\u0120Studio": 9879, "\u0120Virgo": 9880, "arrison": 9881, "\u0120Consult": 9882, "\u0120Petits": 9883, "\u0120Netflix": 9884, "\u0120dispat": 9885, "\u0120expressway": 9886, "\u0120explosive": 9887, "\u0120boards": 9888, "\u0120Rufus": 9889, "\u0120radical": 9890, "\u0120policemen": 9891, "\u0120views": 9892, "ICO": 9893, "\u0120corre": 9894, "\u0120Mohari": 9895, "\u0120combined": 9896, "\u0120texts": 9897, "\u0120collective": 9898, "\u0120Administrative": 9899, "\u0120strongly": 9900, "\u0120concerned": 9901, "Another": 9902, "\u0120trips": 9903, "\u0120circuit": 9904, "\u0120basal": 9905, "\u0120basic": 9906, "\u0120Annual": 9907, "olecular": 9908, "profit": 9909, "\u0120dramatur": 9910, "\u0120Ramanath": 9911, "\u01201878": 9912, "\u0120approach": 9913, "\u0120regularly": 9914, "\u0120privateer": 9915, "\u0120conducting": 9916, "writing": 9917, "\u0120finds": 9918, "\u0120deliber": 9919, "\u0120Hamburg": 9920, "\u0120Early": 9921, "\u01201794": 9922, "\u0120doesn": 9923, "\u0120typically": 9924, "\u0120talking": 9925, "\u0120shipping": 9926, "\u0120pastor": 9927, "\u0120towels": 9928, "\u0120happens": 9929, "\u0120Pauli": 9930, "\u0120statue": 9931, "\u0120tenure": 9932, "\u0120traditions": 9933, "\u0120semif": 9934, "\u0120Santar": 9935, "\u0120Santos": 9936, "\u0120Torres": 9937, "\u0120Renard": 9938, "\u0120Establishment": 9939, "\u0120closure": 9940, "\u0120scientists": 9941, "\u0120occupied": 9942, "\u0120Jacobite": 9943, "gressive": 9944, "\u0120\u00c5\u0142": 9945, "\u0120turns": 9946, "\u0120flowers": 9947, "\u0120biography": 9948, "\u0120Moen": 9949, "\u0120Imperial": 9950, "\u0120Butler": 9951, "\u0120Longhorn": 9952, "\u0120standings": 9953, "\u0120Interpretation": 9954, "\u0120absor": 9955, "\u0120Classical": 9956, "\u0120Secondary": 9957, "2008": 9958, "oriography": 9959, "\u0120suspic": 9960, "\u0120Terriers": 9961, "\u0120Macroom": 9962, "adiolus": 9963, "\u0120Bhim": 9964, "\u0120seeks": 9965, "\u0120displayed": 9966, "\u0120organizer": 9967, "\u0120textile": 9968, "\u0120fears": 9969, "\u0120brut": 9970, "\u0120powder": 9971, "\u0120Campbell": 9972, "\u0120humanitarian": 9973, "\u0120Dorothy": 9974, "\u0120Luigi": 9975, "\u0120Joe": 9976, "\u0120separated": 9977, "\u0120platoons": 9978, "\u0120evacu": 9979, "\u0120evacuated": 9980, "\u0120Voters": 9981, "\u01201841": 9982, "\u0120employed": 9983, "\u0120employment": 9984, "\u0120Charlie": 9985, "\u0120peaked": 9986, "finity": 9987, "\u0120cameras": 9988, "\u0120Mitch": 9989, "\u0120Badar": 9990, "\u0120Badminton": 9991, "\u0120Du\u00c5\u00a1": 9992, "\u0120excited": 9993, "\u0120inspir": 9994, "\u0120covering": 9995, "\u0120Somerset": 9996, "\u0120threatened": 9997, "\u0120Raymond": 9998, "\u0120Garc\u00c3\u0143a": 9999, "\u0120Wolf": 10000, "\u0120escaped": 10001, "\u0120pressure": 10002, "\u0120Motor": 10003, "\u0120Massacre": 10004, "\u0120Eputhou": 10005, "\u0120Universal": 10006, "\u0120outlets": 10007, "\u0120operationally": 10008, "\u0120varanopid": 10009, "\u0120Organization": 10010, "\u0120Expo": 10011, "\u0120significantly": 10012, "who": 10013, "which": 10014, "\u0120suggest": 10015, "\u0120connection": 10016, "\u0120Korea": 10017, "\u0120encour": 10018, "\u0120improvisation": 10019, "\u0120flooding": 10020, "\u0120photograph": 10021, "\u0120\u00c3\u012btienne": 10022, "\u0120Kazakhstan": 10023, "IVE": 10024, "\u0120militants": 10025, "\u0120Area": 10026, "\u0120Makeover": 10027, "\u0120Holdings": 10028, "\u0120Beara": 10029, "\u0120Rajesh": 10030, "\u0120Lambert": 10031, "\u0120Ellen": 10032, "\u0120Olt": 10033, "\u0120connecting": 10034, "\u0120chapter": 10035, "\u0120partnership": 10036, "\u0120attempted": 10037, "\u0120predominantly": 10038, "\u0120Commissariat": 10039, "\u0120observed": 10040, "\u0120observations": 10041, "\u0120legislator": 10042, "\u0120Mohammed": 10043, "\u00c3\u00a4ffer": 10044, "\u0120technical": 10045, "\u0120persp": 10046, "\u0120piece": 10047, "\u0120Subdivision": 10048, "\u0120Autom": 10049, "\u0120Autonomous": 10050, "\u0120Horse": 10051, "\u0120seemed": 10052, "\u0120repeatedly": 10053, "\u0120adjust": 10054, "\u0120consistently": 10055, "\u0120measure": 10056, "\u0120incidents": 10057, "Beautiful": 10058, "\u0120treatment": 10059, "\u0120flee": 10060, "\u0120flew": 10061, "\u0120psychic": 10062, "\u0120Seminary": 10063, "\u0120Scheme": 10064, "\u0120Apple": 10065, "\u0120Radio": 10066, "\u0120atmospheric": 10067, "\u0120Josef": 10068, "\u0120Giovanni": 10069, "\u0120grave": 10070, "\u0120steam": 10071, "\u0120Visayas": 10072, "\u0120implementation": 10073, "\u0120feeling": 10074, "\u0120materials": 10075, "CPD": 10076, "\u0120benef": 10077, "\u0120banners": 10078, "\u0120Tourism": 10079, "\u0120Azam": 10080, "\u0120Movement": 10081, "\u0120Rhode": 10082, "\u0120Roncor": 10083, "\u0120Lancers": 10084, "\u0120Lancaster": 10085, "\u0120Jab\u00c5\u0124": 10086, "\u0120Ghanaian": 10087, "\u0120conversation": 10088, "\u0120Vaasa": 10089, "\u0120teleph": 10090, "\u0120shares": 10091, "\u0120principles": 10092, "\u0120Against": 10093, "\u0120disperse": 10094, "\u0120neighboring": 10095, "Pyozia": 10096, "\u0120Caquot": 10097, "\u0120Nazi": 10098, "\u0120Walter": 10099, "\u0120Walenty": 10100, "\u0120Kayleigh": 10101, "odgorica": 10102, "\u0120Steve": 10103, "\u0120Victoria": 10104, "\u0120attempting": 10105, "\u0120Zurich": 10106, "\u0120Zurlo": 10107, "\u0120relegated": 10108, "\u0120Atlanta": 10109, "\u0120Atlantic": 10110, "\u0120organisers": 10111, "\u0120Guardian": 10112, "\u0120Coastal": 10113, "\u0120Broadacre": 10114, "\u0120superior": 10115, "Grsh": 10116, "courtyard": 10117, "\u0120taxi": 10118, "\u0120farmers": 10119, "lechnum": 10120, "\u0120Authority": 10121, "\u0120dedicated": 10122, "\u0120denied": 10123, "\u0120diminutive": 10124, "\u0120Bullet": 10125, "\u0120noble": 10126, "\u0120Latvian": 10127, "\u0120Lewes": 10128, "\u0120Fellowship": 10129, "\u0120Goal": 10130, "\u0120Gibbs": 10131, "\u0120Erzur": 10132, "\u0120Escuro": 10133, "\u0120proximity": 10134, "\u0120proceeds": 10135, "\u0120V\u00c3\u00a1zqu": 10136, "\u0120rescue": 10137, "\u0120disbanded": 10138, "\u0120Lebanon": 10139, "\u0120Hispanics": 10140, "\u0120Primera": 10141, "\u0120intensified": 10142, "\u0120mysterious": 10143, "\u0120simultaneously": 10144, "\u0120Previously": 10145, "\u0120Tunisian": 10146, "\u0120Economics": 10147, "rastructure": 10148, "\u0120touchdown": 10149, "\u0120sections": 10150, "\u0120intersection": 10151, "\u0120fixtures": 10152, "\u0120cycl": 10153, "\u0120Tintenbar": 10154, "\u0120dressed": 10155, "\u0120Promoted": 10156, "\u0120Pasha": 10157, "\u0120Pozzu": 10158, "\u0120Bahrain": 10159, "\u0120B\u00c3\u00bctschwil": 10160, "\u0120Nicolas": 10161, "\u0120Warnecke": 10162, "\u0120Eventually": 10163, "\u0120animation": 10164, "osaurus": 10165, "\u0120chronicle": 10166, "\u0120researchers": 10167, "\u0120Independence": 10168, "\u0120confrontation": 10169, "\u0120\u00d0\u00bb\u00d0\u00b8": 10170, "\u0120global": 10171, "\u0120Kiramagers": 10172, "\u0120immigration": 10173, "\u0120nominees": 10174, "\u0120Jallianwalla": 10175, "German": 10176, "Idaho": 10177, "doctor": 10178, "politician": 10179, "\u0120upper": 10180, "isfied": 10181, "\u0120Savannah": 10182, "\u0120Hanae": 10183, "adalga": 10184, "\u0120Pedro": 10185, "\u0120Gabri": 10186, "rizona": 10187, "\u0120vessels": 10188, "\u0120prosecut": 10189, "\u0120seventh": 10190, "\u0120suitcase": 10191, "\u0120recommended": 10192, "\u0120Enerji": 10193, "speaking": 10194, "\u0120surprised": 10195, "\u0120qualification": 10196, "\u0120subsidi": 10197, "\u0120smuggling": 10198, "\u0120landscape": 10199, "\u0120details": 10200, "\u0120Priyanka": 10201, "\u0120Valencia": 10202, "\u0120scholarship": 10203, "\u0120\u00e2\u0124\u00ac": 10204, "\u0120Tetraclitidae": 10205, "Castilla": 10206, "Nationale": 10207, "theless": 10208, "wi\u00c5\u0126ski": 10209, "\u00d9\u0127\u00d8": 10210, "\u0120energy": 10211, "\u0120fraud": 10212, "\u0120cocaine": 10213, "\u0120budget": 10214, "\u0120Cairo": 10215, "\u0120Cruz": 10216, "\u0120Materiel": 10217, "\u0120Michelle": 10218, "\u0120Pyram": 10219, "\u0120Puriklai": 10220, "\u0120Powell": 10221, "\u0120Poppin": 10222, "\u0120laptop": 10223, "\u0120forewing": 10224, "\u0120Fukami": 10225, "\u0120garden": 10226, "\u0120ancest": 10227, "\u0120Kova\u00c4\u012fevi\u00c4\u0129": 10228, "\u0120veto": 10229, "\u0120comprises": 10230, "\u0120unusual": 10231, "aharlal": 10232, "\u0120Shortly": 10233, "\u0120depicts": 10234, "\u0120condemn": 10235, "\u0120Schulze": 10236, "\u0120Harvard": 10237, "\u0120Blocher": 10238, "\u0120destruction": 10239, "\u0120Capitale": 10240, "\u0120infirmary": 10241, "\u0120philanthropist": 10242, "Arch": 10243, "Iv\u00c3\u00a1ny": 10244, "Pikauba": 10245, "consecr": 10246, "likely": 10247, "\u00e5\u0131\u00a3": 10248, "\u00e5\u00b2\u0136\u00e5\u0131\u00a3": 10249, "\u0120temporarily": 10250, "\u0120widespread": 10251, "\u0120bachelor": 10252, "\u0120Sentai": 10253, "\u0120Sternlicht": 10254, "\u0120Sullivan": 10255, "\u0120mosque": 10256, "\u0120magazines": 10257, "\u0120Together": 10258, "\u0120TikTok": 10259, "\u0120Tirmizi": 10260, "\u0120Czerwi\u00c5\u0126ski": 10261, "\u0120Creedence": 10262, "\u0120Clearwater": 10263, "\u0120Meanwhile": 10264, "\u0120M\u00c3\u00b8ller": 10265, "\u0120Henderson": 10266, "\u0120Hinrichsen": 10267, "\u0120Iramba": 10268, "\u0120Iloilo": 10269, "\u0120Potsdam": 10270, "\u0120lobby": 10271, "\u0120Buxton": 10272, "\u0120Bj\u00c3\u00b6rn": 10273, "\u0120Ludwig": 10274, "\u0120Lankan": 10275, "\u0120Jawaharlal": 10276, "\u0120Guthrey": 10277, "\u0120Grafton": 10278, "\u0120GLAY": 10279, "\u0120Kipiani": 10280, "\u0120Kolkata": 10281, "\u0120chassis": 10282, "\u0120Unichela": 10283, "\u0120Yamaha": 10284, "\u0120unexpected": 10285, "\u0120Shepherd": 10286, "\u0120Zephaniah": 10287, "\u0120Zamalek": 10288, "\u0120Shoshone": 10289, "\u0120discontinued": 10290, "\u0120Rebecca": 10291, "\u0120Oguntayo": 10292, "\u0120collapsed": 10293, "\u0120Milovanov": 10294, "\u0120Longhorns": 10295, "\u0120Roncoroni": 10296, "\u0120Jab\u00c5\u0124o": 10297, "\u0120Erzurum": 10298, "\u0120V\u00c3\u00a1zquez": 10299, "\u0120Pozzuoli": 10300, "\"\"": 10301, ",\u00e2\u0122\u013f": 10302, "08": 10303, "32": 10304, "36": 10305, "42": 10306, "48": 10307, "49": 10308, "73": 10309, "75": 10310, "79": 10311, "700": 10312, "93": 10313, "?\"": 10314, "AM": 10315, "AN": 10316, "AU": 10317, "Am": 10318, "Ap": 10319, "Aq": 10320, "Ace": 10321, "Arab": 10322, "BA": 10323, "BI": 10324, "Bay": 10325, "Baq": 10326, "Bahn": 10327, "BanG": 10328, "CB": 10329, "CC": 10330, "CL": 10331, "CM": 10332, "CN": 10333, "CR": 10334, "CT": 10335, "City": 10336, "Conn": 10337, "Die": 10338, "ER": 10339, "Et": 10340, "EFA": 10341, "Eng": 10342, "FI": 10343, "Fe": 10344, "Fl": 10345, "Five": 10346, "French": 10347, "GB": 10348, "Gar": 10349, "Hop": 10350, "Hip": 10351, "Hele": 10352, "IB": 10353, "Is": 10354, "Japan": 10355, "Kab": 10356, "Kib": 10357, "LE": 10358, "London": 10359, "Love": 10360, "Lafayette": 10361, "Mar": 10362, "Mal": 10363, "Music": 10364, "Nov": 10365, "Next": 10366, "PC": 10367, "PM": 10368, "PP": 10369, "Pe": 10370, "Par": 10371, "Pok": 10372, "Qu": 10373, "Rivi\u00c3\u00a8re": 10374, "Rune": 10375, "RIVE": 10376, "SA": 10377, "Sing": 10378, "Star": 10379, "Sett": 10380, "Sadalga": 10381, "Tal": 10382, "Tom": 10383, "Tetr": 10384, "UTC": 10385, "Why": 10386, "aith": 10387, "aver": 10388, "bat": 10389, "bal": 10390, "bay": 10391, "bled": 10392, "bilt": 10393, "bama": 10394, "bishop": 10395, "bidden": 10396, "bassador": 10397, "bollah": 10398, "bourne": 10399, "cin": 10400, "con": 10401, "car": 10402, "cric": 10403, "cock": 10404, "cille": 10405, "celand": 10406, "das": 10407, "date": 10408, "direct": 10409, "dont": 10410, "diction": 10411, "elect": 10412, "fam": 10413, "fect": 10414, "gs": 10415, "gor": 10416, "gle": 10417, "gus": 10418, "gers": 10419, "great": 10420, "gotten": 10421, "hn": 10422, "hu": 10423, "hle": 10424, "hour": 10425, "hard": 10426, "hill": 10427, "hof": 10428, "hope": 10429, "hatt": 10430, "hcheyev": 10431, "iar": 10432, "iation": 10433, "iary": 10434, "iology": 10435, "iji": 10436, "iems": 10437, "jal": 10438, "jans": 10439, "jamin": 10440, "kes": 10441, "koh": 10442, "ln": 10443, "lag": 10444, "long": 10445, "lie": 10446, "later": 10447, "lah": 10448, "lau": 10449, "lford": 10450, "laga": 10451, "mat": 10452, "mir": 10453, "mus": 10454, "mist": 10455, "math": 10456, "m\u00c3\u00a1n": 10457, "no": 10458, "nen": 10459, "nit": 10460, "nes": 10461, "nem": 10462, "not": 10463, "nob": 10464, "oi": 10465, "oter": 10466, "och": 10467, "pa": 10468, "pol": 10469, "pop": 10470, "publ": 10471, "rag": 10472, "rine": 10473, "rics": 10474, "rilla": 10475, "si": 10476, "su": 10477, "ser": 10478, "sed": 10479, "san": 10480, "sold": 10481,
[...]
